{
  "version": "1.0",
  "truncation": null,
  "padding": null,
  "added_tokens": [
    {
      "id": 0,
      "content": "<s>",
      "single_word": false,
      "lstrip": false,
      "rstrip": false,
      "normalized": false,
      "special": true
    },
    {
      "id": 1,
      "content": "<pad>",
      "single_word": false,
      "lstrip": false,
      "rstrip": false,
      "normalized": false,
      "special": true
    },
    {
      "id": 2,
      "content": "</s>",
      "single_word": false,
      "lstrip": false,
      "rstrip": false,
      "normalized": false,
      "special": true
    }
  ],
  "normalizer": {
    "type": "Sequence",
    "normalizers": [
      {
        "type": "NFD"
      },
      {
        "type": "Lowercase"
      },
      {
        "type": "StripAccents"
      }
    ]
  },
  "pre_tokenizer": {
    "type": "ByteLevel",
    "add_prefix_space": false,
    "trim_offsets": true,
    "use_regex": true
  },
  "post_processor": {
    "type": "ByteLevel",
    "add_prefix_space": true,
    "trim_offsets": false,
    "use_regex": true
  },
  "decoder": {
    "type": "ByteLevel",
    "add_prefix_space": true,
    "trim_offsets": true,
    "use_regex": true
  },
  "model": {
    "type": "BPE",
    "dropout": null,
    "unk_token": null,
    "continuing_subword_prefix": null,
    "end_of_word_suffix": null,
    "fuse_unk": false,
    "vocab": {
      "<s>": 0,
      "<pad>": 1,
      "</s>": 2,
      "!": 3,
      "\"": 4,
      "$": 5,
      "%": 6,
      "&": 7,
      "'": 8,
      "(": 9,
      ")": 10,
      "+": 11,
      ",": 12,
      "-": 13,
      ".": 14,
      "/": 15,
      "0": 16,
      "1": 17,
      "2": 18,
      "3": 19,
      "4": 20,
      "5": 21,
      "6": 22,
      "7": 23,
      "8": 24,
      "9": 25,
      ":": 26,
      ";": 27,
      "=": 28,
      "?": 29,
      "[": 30,
      "]": 31,
      "a": 32,
      "b": 33,
      "c": 34,
      "d": 35,
      "e": 36,
      "f": 37,
      "g": 38,
      "h": 39,
      "i": 40,
      "j": 41,
      "k": 42,
      "l": 43,
      "m": 44,
      "n": 45,
      "o": 46,
      "p": 47,
      "q": 48,
      "r": 49,
      "s": 50,
      "t": 51,
      "u": 52,
      "v": 53,
      "w": 54,
      "x": 55,
      "y": 56,
      "z": 57,
      "¦": 58,
      "©": 59,
      "´": 60,
      "½": 61,
      "¾": 62,
      "Â": 63,
      "Ġ": 64,
      "Ģ": 65,
      "Ļ": 66,
      "ľ": 67,
      "Ŀ": 68,
      "Ġt": 69,
      "Ġa": 70,
      "Ġth": 71,
      "in": 72,
      "ou": 73,
      "re": 74,
      "Ġthe": 75,
      "Ġs": 76,
      "Ġi": 77,
      "Ġw": 78,
      "you": 79,
      "Ġo": 80,
      "Ġto": 81,
      "Ġyou": 82,
      "nd": 83,
      "ing": 84,
      "Ġb": 85,
      "at": 86,
      "Ġc": 87,
      "er": 88,
      "Ġh": 89,
      "Ġg": 90,
      "Ġp": 91,
      "Ġf": 92,
      "Ġd": 93,
      "Ġand": 94,
      "ll": 95,
      "Ġl": 96,
      "Ġm": 97,
      "an": 98,
      "th": 99,
      "on": 100,
      "Ġof": 101,
      "Ġgo": 102,
      "Ġit": 103,
      "en": 104,
      "es": 105,
      "or": 106,
      "Ġthat": 107,
      "Ġin": 108,
      "us": 109,
      "le": 110,
      "ow": 111,
      "Ġis": 112,
      "is": 113,
      "ar": 114,
      "ve": 115,
      "it": 116,
      "Ġn": 117,
      "om": 118,
      "ke": 119,
      "Ġha": 120,
      "Ġon": 121,
      "ic": 122,
      "Ġbe": 123,
      "Ġyour": 124,
      "Ġwh": 125,
      "Ġgoing": 126,
      "Ġwe": 127,
      "'s": 128,
      "ed": 129,
      "ay": 130,
      "et": 131,
      "as": 132,
      "Ġe": 133,
      "Ġwi": 134,
      "all": 135,
      "Ġst": 136,
      "ac": 137,
      "ot": 138,
      "gh": 139,
      "ut": 140,
      "al": 141,
      "Ġre": 142,
      "'re": 143,
      "ere": 144,
      "Ġdo": 145,
      "Ġthis": 146,
      "Ġr": 147,
      "ant": 148,
      "out": 149,
      "ver": 150,
      "Ġj": 151,
      "Ġcan": 152,
      "so": 153,
      "igh": 154,
      "Ġhave": 155,
      "ust": 156,
      "Ġare": 157,
      "Ġu": 158,
      "ight": 159,
      "Ġfor": 160,
      "Ġwith": 161,
      "se": 162,
      "id": 163,
      "ake": 164,
      "ir": 165,
      "ome": 166,
      "ld": 167,
      "ally": 168,
      "Ġwant": 169,
      "and": 170,
      "ion": 171,
      "oo": 172,
      "ch": 173,
      "ly": 174,
      "Ġjust": 175,
      "Ġli": 176,
      "Ġsh": 177,
      "Ġk": 178,
      "st": 179,
      "use": 180,
      "Ġor": 181,
      "Ġan": 182,
      "ad": 183,
      "ent": 184,
      "Ġso": 185,
      "ec": 186,
      "im": 187,
      "ro": 188,
      "Ġup": 189,
      "Ġget": 190,
      "ee": 191,
      "Ġmo": 192,
      "Ġas": 193,
      "am": 194,
      "if": 195,
      "now": 196,
      "itt": 197,
      "Ġout": 198,
      "Ġlike": 199,
      "Ġab": 200,
      "ack": 201,
      "our": 202,
      "'t": 203,
      "ain": 204,
      "ure": 205,
      "Ġsome": 206,
      "'m": 207,
      "Ġne": 208,
      "od": 209,
      "Ġhe": 210,
      "Ġlitt": 211,
      "Ġif": 212,
      "ur": 213,
      "very": 214,
      "Ġlittle": 215,
      "art": 216,
      "ould": 217,
      "ther": 218,
      "il": 219,
      "Ġwhat": 220,
      "Ġthey": 221,
      "ind": 222,
      "ep": 223,
      "Ġch": 224,
      "Ġnot": 225,
      "Ġal": 226,
      "Ġone": 227,
      "Ġhere": 228,
      "Ġthere": 229,
      "Ġfr": 230,
      "ra": 231,
      "Ġle": 232,
      "Ġmake": 233,
      "ct": 234,
      "ge": 235,
      "Ġall": 236,
      "rou": 237,
      "Ġabout": 238,
      "ard": 239,
      "ce": 240,
      "Ġat": 241,
      "ter": 242,
      "Ġthen": 243,
      "Ġco": 244,
      "ide": 245,
      "ook": 246,
      "ip": 247,
      "Ġdon": 248,
      "own": 249,
      "Ġback": 250,
      "Ġpl": 251,
      "Ġmy": 252,
      "Ġwill": 253,
      "op": 254,
      "we": 255,
      "ause": 256,
      "Ġcom": 257,
      "ice": 258,
      "the": 259,
      "Ġbut": 260,
      "Ġhow": 261,
      "Ġthing": 262,
      "Ġtr": 263,
      "Ġsp": 264,
      "Ġwhen": 265,
      "Ġway": 266,
      "Ġreally": 267,
      "ab": 268,
      "Ġuse": 269,
      "Ġdown": 270,
      "ers": 271,
      "to": 272,
      "ul": 273,
      "Ġright": 274,
      "Ġcl": 275,
      "Ġex": 276,
      "ick": 277,
      "Ġbec": 278,
      "Ġpro": 279,
      "Ġvery": 280,
      "ort": 281,
      "qu": 282,
      "ive": 283,
      "Ġthem": 284,
      "ap": 285,
      "ak": 286,
      "nt": 287,
      "Ġour": 288,
      "Ġput": 289,
      "un": 290,
      "Ġfrom": 291,
      "'ll": 292,
      "mp": 293,
      "Ġme": 294,
      "Ġwor": 295,
      "ine": 296,
      "Ġmore": 297,
      "Ġte": 298,
      "Ġbecause": 299,
      "Ġlook": 300,
      "ate": 301,
      "Ġpo": 302,
      "Ġtake": 303,
      "ess": 304,
      "Ġsee": 305,
      "Ġus": 306,
      "Ġtim": 307,
      "Ġneed": 308,
      "thing": 309,
      "Ġfl": 310,
      "Ġinto": 311,
      "Ġtw": 312,
      "Ġcon": 313,
      "ss": 314,
      "Ġany": 315,
      "est": 316,
      "pp": 317,
      "Ġpre": 318,
      "Ġsure": 319,
      "ame": 320,
      "ually": 321,
      "wh": 322,
      "this": 323,
      "Ġhand": 324,
      "ting": 325,
      "'ve": 326,
      "Ġbit": 327,
      "Ġgood": 328,
      "Ġoff": 329,
      "Ġse": 330,
      "Ġbr": 331,
      "Ġover": 332,
      "ation": 333,
      "Ġknow": 334,
      "Ġke": 335,
      "ace": 336,
      "ose": 337,
      "ig": 338,
      "Ġlot": 339,
      "Ġde": 340,
      "one": 341,
      "Ġstart": 342,
      "Ġwould": 343,
      "Ġkind": 344,
      "ect": 345,
      "round": 346,
      "iff": 347,
      "Ġact": 348,
      "ore": 349,
      "alk": 350,
      "ist": 351,
      "ich": 352,
      "um": 353,
      "Ġbo": 354,
      "Ġalso": 355,
      "Ġdiff": 356,
      "Ġwork": 357,
      "ast": 358,
      "Ġother": 359,
      "ill": 360,
      "Ġtwo": 361,
      "oc": 362,
      "Ġv": 363,
      "ree": 364,
      "Ġkeep": 365,
      "reat": 366,
      "gain": 367,
      "Ġnow": 368,
      "Ġtime": 369,
      "Ġbas": 370,
      "Ġwhere": 371,
      "Ġdiffere": 372,
      "Ġdr": 373,
      "ft": 374,
      "he": 375,
      "ven": 376,
      "lf": 377,
      "act": 378,
      "Ġgot": 379,
      "Ġwhich": 380,
      "ong": 381,
      "Ġbl": 382,
      "ment": 383,
      "way": 384,
      "ater": 385,
      "Ġthese": 386,
      "ach": 387,
      "irst": 388,
      "Ġnice": 389,
      "uch": 390,
      "Ġside": 391,
      "ull": 392,
      "Ġtalk": 393,
      "Ġad": 394,
      "Ġhas": 395,
      "ite": 396,
      "ass": 397,
      "Ġimp": 398,
      "eel": 399,
      "Ġpe": 400,
      "Ġdifferent": 401,
      "ple": 402,
      "Ġball": 403,
      "Ġactually": 404,
      "rough": 405,
      "Ġpart": 406,
      "Ġtoo": 407,
      "Ġhair": 408,
      "Ġpr": 409,
      "Ġaround": 410,
      "age": 411,
      "Ġcome": 412,
      "ire": 413,
      "Ġthrough": 414,
      "Ġagain": 415,
      "Ġthings": 416,
      "ish": 417,
      "Ġher": 418,
      "Ġen": 419,
      "Ġfo": 420,
      "ody": 421,
      "ink": 422,
      "Ġro": 423,
      "Ġshould": 424,
      "are": 425,
      "Ġfe": 426,
      "les": 427,
      "Ġbu": 428,
      "xt": 429,
      "Ġfirst": 430,
      "ag": 431,
      "Ġsl": 432,
      "Ġevery": 433,
      "ush": 434,
      "per": 435,
      "Ġmuch": 436,
      "urn": 437,
      "Ġlet": 438,
      "Ġho": 439,
      "ward": 440,
      "ff": 441,
      "ie": 442,
      "Ġsu": 443,
      "but": 444,
      "Ġshow": 445,
      "Ġby": 446,
      "ople": 447,
      "int": 448,
      "Ġmay": 449,
      "ber": 450,
      "Ġsm": 451,
      "able": 452,
      "Ġcol": 453,
      "Ġpeople": 454,
      "Ġqu": 455,
      "ue": 456,
      "yp": 457,
      "ood": 458,
      "Ġthree": 459,
      "that": 460,
      "Ġtheir": 461,
      "iz": 462,
      "Ġsc": 463,
      "ble": 464,
      "Ġtop": 465,
      "nder": 466,
      "Ġtry": 467,
      "ty": 468,
      "em": 469,
      "Ġsk": 470,
      "Ġar": 471,
      "Ġcut": 472,
      "Ġimport": 473,
      "ne": 474,
      "be": 475,
      "ies": 476,
      "Ġy": 477,
      "Ġdoes": 478,
      "Ġwas": 479,
      "Ġcolor": 480,
      "Ġtyp": 481,
      "Ġwater": 482,
      "Ġsomething": 483,
      "ves": 484,
      "Ġgr": 485,
      "Ġimportant": 486,
      "lp": 487,
      "ving": 488,
      "Ġgl": 489,
      "Ġstr": 490,
      "ition": 491,
      "ail": 492,
      "Ġhelp": 493,
      "Ġpi": 494,
      "ough": 495,
      "aking": 496,
      "Ġthose": 497,
      "Ġstep": 498,
      "Ġcle": 499,
      "Ġeven": 500,
      "ens": 501,
      "Ġcont": 502,
      "atch": 503,
      "other": 504,
      "Ġdoing": 505,
      "Ġac": 506,
      "Ġcall": 507,
      "Ġwell": 508,
      "ock": 509,
      "rap": 510,
      "there": 511,
      "kay": 512,
      "Ġman": 513,
      "Ġusing": 514,
      "Ġsay": 515,
      "Ġleg": 516,
      "side": 517,
      "Ġnext": 518,
      "Ġfind": 519,
      "os": 520,
      "Ġam": 521,
      "end": 522,
      "Ġadd": 523,
      "ous": 524,
      "Ġmight": 525,
      "Ġturn": 526,
      "Ġbody": 527,
      "mo": 528,
      "ways": 529,
      "Ġeas": 530,
      "ol": 531,
      "ady": 532,
      "og": 533,
      "ance": 534,
      "Ġsame": 535,
      "ity": 536,
      "Ġshe": 537,
      "ry": 538,
      "Ġsa": 539,
      "Ġplay": 540,
      "Ġpiec": 541,
      "Ġcar": 542,
      "Ġbet": 543,
      "Ġop": 544,
      "Ġmost": 545,
      "ile": 546,
      "ase": 547,
      "fore": 548,
      "what": 549,
      "Ġgive": 550,
      "Ġwho": 551,
      "head": 552,
      "Ġcould": 553,
      "Ġgu": 554,
      "Ġlong": 555,
      "Ġthink": 556,
      "Ġno": 557,
      "Ġmove": 558,
      "ath": 559,
      "Ġbasic": 560,
      "Ġunder": 561,
      "Ġline": 562,
      "Ġset": 563,
      "ans": 564,
      "Ġthan": 565,
      "ound": 566,
      "Ġpull": 567,
      "Ġgreat": 568,
      "Ġalways": 569,
      "ix": 570,
      "Ġleft": 571,
      "ms": 572,
      "eck": 573,
      "row": 574,
      "ial": 575,
      "Ġ1": 576,
      "Ġend": 577,
      "self": 578,
      "Ġhead": 579,
      "Ġper": 580,
      "ott": 581,
      "ket": 582,
      "Ġlight": 583,
      "de": 584,
      "Ġahead": 585,
      "Ġcomp": 586,
      "Ġapp": 587,
      "Ġfeel": 588,
      "Ġbefore": 589,
      "ub": 590,
      "Ġsw": 591,
      "for": 592,
      "hi": 593,
      "ont": 594,
      "Ġhold": 595,
      "ular": 596,
      "Ġbig": 597,
      "av": 598,
      "Ġplace": 599,
      "ale": 600,
      "ade": 601,
      "Ġpret": 602,
      "ark": 603,
      "Ġpoint": 604,
      "up": 605,
      "ars": 606,
      "Ġfoot": 607,
      "Ġey": 608,
      "akes": 609,
      "te": 610,
      "Ġhigh": 611,
      "Ġpretty": 612,
      "Ġsim": 613,
      "Ġkn": 614,
      "der": 615,
      "Ġskin": 616,
      "they": 617,
      "Ġclean": 618,
      "Ġcou": 619,
      "Ġstra": 620,
      "erson": 621,
      "Ġcre": 622,
      "Ġpain": 623,
      "when": 624,
      "du": 625,
      "ning": 626,
      "Ġcor": 627,
      "Ġbring": 628,
      "Ġfour": 629,
      "ions": 630,
      "Ġbott": 631,
      "Ġanother": 632,
      "Ġtype": 633,
      "Ġrun": 634,
      "Ġfront": 635,
      "vel": 636,
      "then": 637,
      "ower": 638,
      "Ġstre": 639,
      "Ġsmall": 640,
      "Ġbre": 641,
      "Ġperson": 642,
      "Ġonce": 643,
      "Ġopen": 644,
      "Ġsec": 645,
      "ise": 646,
      "Ġstraight": 647,
      "ond": 648,
      "ax": 649,
      "day": 650,
      "ated": 651,
      "Ġhands": 652,
      "Ġhis": 653,
      "Ġforward": 654,
      "Ġpress": 655,
      "Ġhard": 656,
      "Ġpiece": 657,
      "cess": 658,
      "itch": 659,
      "Ġdone": 660,
      "Ġdra": 661,
      "let": 662,
      "aper": 663,
      "omet": 664,
      "Ġday": 665,
      "Ġable": 666,
      "ner": 667,
      "Ġju": 668,
      "Ġgetting": 669,
      "ize": 670,
      "ild": 671,
      "okay": 672,
      "Ġwr": 673,
      "fter": 674,
      "Ġdoesn": 675,
      "ever": 676,
      "Ġcalled": 677,
      "ily": 678,
      "ips": 679,
      "Ġed": 680,
      "atter": 681,
      "Ġun": 682,
      "Ġdef": 683,
      "ib": 684,
      "gether": 685,
      "air": 686,
      "ked": 687,
      "Ġtogether": 688,
      "Ġph": 689,
      "Ġtell": 690,
      "Ġmaybe": 691,
      "ave": 692,
      "Ġdis": 693,
      "ious": 694,
      "ier": 695,
      "ang": 696,
      "imes": 697,
      "Ġfeet": 698,
      "Ġbest": 699,
      "Ġext": 700,
      "Ġye": 701,
      "Ġpos": 702,
      "Ġser": 703,
      "Ġmin": 704,
      "ors": 705,
      "Ġonly": 706,
      "rop": 707,
      "Ġhim": 708,
      "Ġinside": 709,
      "Ġname": 710,
      "Ġstu": 711,
      "ool": 712,
      "Ġroll": 713,
      "ometimes": 714,
      "Ġmany": 715,
      "ably": 716,
      "Ġbottom": 717,
      "mon": 718,
      "Ġdog": 719,
      "..": 720,
      "ical": 721,
      "Ġarea": 722,
      "just": 723,
      "Ġfin": 724,
      "ign": 725,
      "mem": 726,
      "Ġbeen": 727,
      "ash": 728,
      "Ġstill": 729,
      "ross": 730,
      "Ġdraw": 731,
      "Ġpaper": 732,
      "Ġpush": 733,
      "ove": 734,
      "Ġrep": 735,
      "Ġbuy": 736,
      "member": 737,
      "Ġoil": 738,
      "ape": 739,
      "Ġcard": 740,
      "tain": 741,
      "Ġtoday": 742,
      "Ġhapp": 743,
      "Ġeach": 744,
      "Ġstick": 745,
      "Ġ\"": 746,
      "Ġused": 747,
      "Ġthrow": 748,
      "right": 749,
      "amp": 750,
      "Ġcent": 751,
      "Ġcour": 752,
      "ange": 753,
      "hale": 754,
      "Ġjo": 755,
      "bably": 756,
      "get": 757,
      "lic": 758,
      "Ġfing": 759,
      "Ġres": 760,
      "ful": 761,
      "Ġreal": 762,
      "Ġbrush": 763,
      "Ġaway": 764,
      "el": 765,
      "Ġnew": 766,
      "Ġhalf": 767,
      "Ġtimes": 768,
      "Ġve": 769,
      "ck": 770,
      "ric": 771,
      "ating": 772,
      "arn": 773,
      "dle": 774,
      "red": 775,
      "Ġcomes": 776,
      "Ġdry": 777,
      "Ġfun": 778,
      "Ġrec": 779,
      "Ġprobably": 780,
      "Ġyourself": 781,
      "oop": 782,
      "Ġclip": 783,
      "Ġprodu": 784,
      "Ġposition": 785,
      "Ġhit": 786,
      "Ġgoes": 787,
      "Ġsqu": 788,
      "Ġstand": 789,
      "Ġel": 790,
      "Ġglass": 791,
      "Ġdid": 792,
      "Ġint": 793,
      "ouch": 794,
      "most": 795,
      "Ġhad": 796,
      "Ġready": 797,
      "Ġdes": 798,
      "Ġmaking": 799,
      "Ġtalking": 800,
      "ient": 801,
      "Ġcr": 802,
      "Ġpract": 803,
      "Ġwere": 804,
      "Ġsecond": 805,
      "Ġface": 806,
      "Ġlooking": 807,
      "ÂĢ": 808,
      "ress": 809,
      "Ġsit": 810,
      "Ġfive": 811,
      "ÂĢÂ": 812,
      "Ġnum": 813,
      "Ġcare": 814,
      "ction": 815,
      "ult": 816,
      "Ġexp": 817,
      "Ġinst": 818,
      "Ġcoming": 819,
      "Ġplant": 820,
      "ÂĢÂĻ": 821,
      "Ġ2": 822,
      "Ġsy": 823,
      "Ġworking": 824,
      "Ġpaint": 825,
      "ese": 826,
      "iss": 827,
      "Ġanything": 828,
      "Ġtouch": 829,
      "ount": 830,
      "Ġgre": 831,
      "Ġafter": 832,
      "Ġeasy": 833,
      "Ġlift": 834,
      "Ġdec": 835,
      "Ġproper": 836,
      "Ġbetter": 837,
      "Ġob": 838,
      "ows": 839,
      "Ġatt": 840,
      "Ġwhite": 841,
      "unch": 842,
      "Ġenough": 843,
      "Ġbasically": 844,
      "body": 845,
      "Ġfish": 846,
      "Ġshot": 847,
      "Ġbase": 848,
      "Ġstore": 849,
      "Ġquick": 850,
      "Ġdire": 851,
      "arm": 852,
      "Ġkick": 853,
      "Ġeverything": 854,
      "wards": 855,
      "Ġeye": 856,
      "Ġim": 857,
      "ically": 858,
      "Ġrel": 859,
      "ope": 860,
      "Ġcourse": 861,
      "wn": 862,
      "Ġmade": 863,
      "Ġwhile": 864,
      "ection": 865,
      "sh": 866,
      "ines": 867,
      "Ġdep": 868,
      "Ġbeing": 869,
      "Ġstay": 870,
      "ird": 871,
      "Ġcover": 872,
      "Ġlooks": 873,
      "Ġusually": 874,
      "Ġpick": 875,
      "ween": 876,
      "Ġminut": 877,
      "fort": 878,
      "Ġear": 879,
      "als": 880,
      "Ġbetween": 881,
      "ible": 882,
      "ling": 883,
      "Ġsur": 884,
      "Ġhome": 885,
      "Ġgi": 886,
      "Ġmid": 887,
      "Ġremember": 888,
      "Ġcenter": 889,
      "Ġinch": 890,
      "Ġnat": 891,
      "Ġcouple": 892,
      "Ġjump": 893,
      "Ġguy": 894,
      "bs": 895,
      "iv": 896,
      "Ġpass": 897,
      "Ġflat": 898,
      "ia": 899,
      "Ġmus": 900,
      "tch": 901,
      "ready": 902,
      "ings": 903,
      "Ġtrying": 904,
      "--": 905,
      "ither": 906,
      "Ġten": 907,
      "Ġfew": 908,
      "lt": 909,
      "Ġcer": 910,
      "llow": 911,
      "Ġcur": 912,
      "Ġhor": 913,
      "Ġsho": 914,
      "Ġlearn": 915,
      "Ġproduct": 916,
      "ger": 917,
      "ments": 918,
      "gg": 919,
      "Ġmakes": 920,
      "anc": 921,
      "ason": 922,
      "Ġfull": 923,
      "Ġcons": 924,
      "Ġroom": 925,
      "ike": 926,
      "oor": 927,
      "vious": 928,
      "Ġsometimes": 929,
      "Ġele": 930,
      "Ġspe": 931,
      "raph": 932,
      "Ġpractice": 933,
      "Ġboth": 934,
      "Ġsize": 935,
      "once": 936,
      "Ġalready": 937,
      "Ġlegs": 938,
      "Ġfar": 939,
      "Ġlar": 940,
      "oose": 941,
      "Ġstretch": 942,
      "Ġwind": 943,
      "Ġdet": 944,
      "Ġits": 945,
      "Ġcomple": 946,
      "Ġwhole": 947,
      "fe": 948,
      "my": 949,
      "Ġokay": 950,
      "ence": 951,
      "Ġreg": 952,
      "Ġspec": 953,
      "Ġboard": 954,
      "Ġpot": 955,
      "Ġwear": 956,
      "Ġremo": 957,
      "Ġlip": 958,
      "rab": 959,
      "ially": 960,
      "nce": 961,
      "Ġz": 962,
      "gin": 963,
      "Ġkne": 964,
      "vent": 965,
      "Ġlast": 966,
      "Ġsupp": 967,
      "Ġnumber": 968,
      "Ġeither": 969,
      "Ġ3": 970,
      "Ġsort": 971,
      "Ġsix": 972,
      "Ġclose": 973,
      "Ġtea": 974,
      "Ġground": 975,
      "Ġfre": 976,
      "Ġwire": 977,
      "Ġtool": 978,
      "cle": 979,
      "ron": 980,
      "Ġneck": 981,
      "Ġrest": 982,
      "Ġmiddle": 983,
      "some": 984,
      "ouse": 985,
      "Ġlow": 986,
      "Ġunt": 987,
      "Ġacc": 988,
      "Ġinter": 989,
      "ary": 990,
      "Ġorder": 991,
      "eep": 992,
      "Ġarms": 993,
      "Ġide": 994,
      "Ġmix": 995,
      "itting": 996,
      "where": 997,
      "aut": 998,
      "ank": 999,
      "Ġcomfort": 1000,
      "Ġfinish": 1001,
      "Ġmas": 1002,
      "Ġind": 1003,
      "Ġnor": 1004,
      "Ġmeans": 1005,
      "Ġtight": 1006,
      "Ġcup": 1007,
      "Ġdrop": 1008,
      "ud": 1009,
      "Ġopp": 1010,
      "Ġcase": 1011,
      "Ġbeh": 1012,
      "Ġweight": 1013,
      "Ġwhatever": 1014,
      "Ġnatur": 1015,
      "Ġbag": 1016,
      "Ġwhy": 1017,
      "Ġuntil": 1018,
      "again": 1019,
      "read": 1020,
      "icular": 1021,
      "Ġbegin": 1022,
      "irt": 1023,
      "Ġways": 1024,
      "Ġmeas": 1025,
      "Ġbreak": 1026,
      "iqu": 1027,
      "Ġcause": 1028,
      "Ġang": 1029,
      "Ġlay": 1030,
      "ample": 1031,
      "Ġedge": 1032,
      "ied": 1033,
      "ats": 1034,
      "Ġoutside": 1035,
      "Ġchest": 1036,
      "Ġair": 1037,
      "Ġwood": 1038,
      "Ġpic": 1039,
      "Ġmean": 1040,
      "Ġcreat": 1041,
      "erc": 1042,
      "Ġcoll": 1043,
      "wel": 1044,
      "Ġtypes": 1045,
      "ograph": 1046,
      "Ġold": 1047,
      "str": 1048,
      "Ġshoulder": 1049,
      "ather": 1050,
      "form": 1051,
      "make": 1052,
      "ual": 1053,
      "ates": 1054,
      "Ġhaving": 1055,
      "Ġproble": 1056,
      "Ġslow": 1057,
      "Ġgreen": 1058,
      "bo": 1059,
      "Ġgets": 1060,
      "Ġknees": 1061,
      "Ġown": 1062,
      "esp": 1063,
      "Ġwheel": 1064,
      "cl": 1065,
      "ping": 1066,
      "Ġwax": 1067,
      "Ġpur": 1068,
      "Ġmot": 1069,
      "ord": 1070,
      "ations": 1071,
      "Ġbox": 1072,
      "Ġapply": 1073,
      "Ġmil": 1074,
      "Ġspr": 1075,
      "viously": 1076,
      "ply": 1077,
      "these": 1078,
      "ides": 1079,
      "ture": 1080,
      "ten": 1081,
      "Ġcir": 1082,
      "Ġgame": 1083,
      "enc": 1084,
      "ety": 1085,
      "Ġchild": 1086,
      "well": 1087,
      "Ġblack": 1088,
      "Ġdefin": 1089,
      "Ġloc": 1090,
      "Ġreason": 1091,
      "Ġra": 1092,
      "Ġcheck": 1093,
      "Ġparticular": 1094,
      "Ġcreate": 1095,
      "Ġdepend": 1096,
      "Ġbreat": 1097,
      "Ġsty": 1098,
      "Ġfloor": 1099,
      "Ġstring": 1100,
      "Ġcontro": 1101,
      "Ġcomfortable": 1102,
      "ok": 1103,
      "Ġcatch": 1104,
      "Ġpin": 1105,
      "Ġmain": 1106,
      "Ġtrain": 1107,
      "Ġprocess": 1108,
      "neath": 1109,
      "Ġminutes": 1110,
      "Ġbook": 1111,
      "Ġpop": 1112,
      "Ġcomb": 1113,
      "Ġseg": 1114,
      "Ġunderneath": 1115,
      "Ġcertain": 1116,
      "bec": 1117,
      "Ġfire": 1118,
      "Ġfood": 1119,
      "eng": 1120,
      "ots": 1121,
      "Ġexample": 1122,
      "Ġshoulders": 1123,
      "Ġphot": 1124,
      "fect": 1125,
      "Ġmed": 1126,
      "Ġcolors": 1127,
      "Ġsimple": 1128,
      "Ġthough": 1129,
      "Ġprot": 1130,
      "Ġpressure": 1131,
      "Ġtra": 1132,
      "erm": 1133,
      "Ġhouse": 1134,
      "Ġfound": 1135,
      "Ġbeaut": 1136,
      "Ġeff": 1137,
      "chn": 1138,
      "Ġmoving": 1139,
      "Ġpieces": 1140,
      "cles": 1141,
      "ject": 1142,
      "ton": 1143,
      "ative": 1144,
      "Ġdi": 1145,
      "Ġposs": 1146,
      "Ġvar": 1147,
      "Ġart": 1148,
      "because": 1149,
      "ri": 1150,
      "Ġwall": 1151,
      "Ġwalk": 1152,
      "ature": 1153,
      "alright": 1154,
      "Ġrid": 1155,
      "Ġhorse": 1156,
      "Ġmeasure": 1157,
      "Ġsand": 1158,
      "Ġiron": 1159,
      "Ġwarm": 1160,
      "Ġtowards": 1161,
      "Ġhot": 1162,
      "Ġblock": 1163,
      "Ġwash": 1164,
      "ug": 1165,
      "Ġfit": 1166,
      "Ġfil": 1167,
      "Ġlower": 1168,
      "Ġclo": 1169,
      "Ġbuild": 1170,
      "Ġdesign": 1171,
      "Ġremove": 1172,
      "Ġhip": 1173,
      "Ġred": 1174,
      "ention": 1175,
      "Ġsomeone": 1176,
      "Ġtechn": 1177,
      "Ġdisc": 1178,
      "good": 1179,
      "ory": 1180,
      "Ġste": 1181,
      "Ġche": 1182,
      "Ġlevel": 1183,
      "Ġexerc": 1184,
      "Ġarm": 1185,
      "Ġstuff": 1186,
      "here": 1187,
      "Ġgrab": 1188,
      "Ġfine": 1189,
      "Ġlo": 1190,
      "Ġwithout": 1191,
      "ness": 1192,
      "Ġesp": 1193,
      "Ġwon": 1194,
      "Ġbar": 1195,
      "Ġhook": 1196,
      "ener": 1197,
      "Ġstop": 1198,
      "Ġbehind": 1199,
      "Ġnatural": 1200,
      "Ġtip": 1201,
      "Ġtreat": 1202,
      "Ġtable": 1203,
      "Ġfill": 1204,
      "Ġfree": 1205,
      "Ġalong": 1206,
      "Ġsaid": 1207,
      "Ġtaking": 1208,
      "Ġble": 1209,
      "Ġdark": 1210,
      "Ġmass": 1211,
      "Ġonto": 1212,
      "ents": 1213,
      "Ġmilk": 1214,
      "Ġsegment": 1215,
      "Ġwatch": 1216,
      "any": 1217,
      "Ġspin": 1218,
      "Ġputting": 1219,
      "umb": 1220,
      "Ġfinger": 1221,
      "Ġcomplete": 1222,
      "Ġlove": 1223,
      "ah": 1224,
      "Ġsch": 1225,
      "Ġrub": 1226,
      "Ġleave": 1227,
      "itely": 1228,
      "Ġregular": 1229,
      "go": 1230,
      "ze": 1231,
      "Ġent": 1232,
      "Ġav": 1233,
      "Ġhu": 1234,
      "ense": 1235,
      "Ġnail": 1236,
      "Ġform": 1237,
      "Ġtwist": 1238,
      "Ġdeal": 1239,
      "Ġacross": 1240,
      "Ġsurf": 1241,
      "Ġgives": 1242,
      "oy": 1243,
      "Ġwa": 1244,
      "Ġgar": 1245,
      "Ġlines": 1246,
      "astic": 1247,
      "Ġsimply": 1248,
      "Ġtail": 1249,
      "Ġsn": 1250,
      "erg": 1251,
      "Ġmark": 1252,
      "omm": 1253,
      "Ġref": 1254,
      "Ġexact": 1255,
      "Ġhole": 1256,
      "Ġfingers": 1257,
      "first": 1258,
      "Ġsal": 1259,
      "Ġpad": 1260,
      "ecially": 1261,
      "Ġalmost": 1262,
      "Ġpost": 1263,
      "Ġflow": 1264,
      "Ġcontrol": 1265,
      "ell": 1266,
      "how": 1267,
      "Ġcook": 1268,
      "Ġmar": 1269,
      "Ġdoor": 1270,
      "Ġcomm": 1271,
      "Ġbutton": 1272,
      "avor": 1273,
      "Ġangle": 1274,
      "Ġdefinitely": 1275,
      "not": 1276,
      "uck": 1277,
      "Ġ4": 1278,
      "Ġbird": 1279,
      "Ġfall": 1280,
      "another": 1281,
      "Ġask": 1282,
      "ift": 1283,
      "ility": 1284,
      "ids": 1285,
      "Ġchange": 1286,
      "Ġchoose": 1287,
      "Ġexper": 1288,
      "oney": 1289,
      "'d": 1290,
      "ian": 1291,
      "ng": 1292,
      "Ġleng": 1293,
      "stem": 1294,
      "Ġexhale": 1295,
      "Ġsystem": 1296,
      "Ġnorm": 1297,
      "Ġphotograph": 1298,
      "ith": 1299,
      "Ġthick": 1300,
      "Ġsuch": 1301,
      "Ġless": 1302,
      "icle": 1303,
      "Ġeight": 1304,
      "Ġnever": 1305,
      "Ġlea": 1306,
      "Ġspace": 1307,
      "Ġword": 1308,
      "Ġteach": 1309,
      "Ġkeeping": 1310,
      "Ġprint": 1311,
      "Ġamount": 1312,
      "Ġlonger": 1313,
      "Ġcap": 1314,
      "also": 1315,
      "Ġdoll": 1316,
      "Ġfold": 1317,
      "Ġloop": 1318,
      "Ġje": 1319,
      "Ġtrans": 1320,
      "Ġknee": 1321,
      "Ġobviously": 1322,
      "iness": 1323,
      "vers": 1324,
      "Ġswitch": 1325,
      "Ġeyes": 1326,
      "Ġyears": 1327,
      "Ġidea": 1328,
      "Ġbreath": 1329,
      "cer": 1330,
      "Ġmon": 1331,
      "acter": 1332,
      "Ġshape": 1333,
      "Ġbeautif": 1334,
      "do": 1335,
      "Ġdist": 1336,
      "erest": 1337,
      "Ġshort": 1338,
      "Ġheat": 1339,
      "Ġtemp": 1340,
      "Ġclear": 1341,
      "Ġeasier": 1342,
      "Ġpicture": 1343,
      "ball": 1344,
      "Ġcool": 1345,
      "Ġheav": 1346,
      "Ġnotice": 1347,
      "Ġkey": 1348,
      "Ġslight": 1349,
      "Ġrunning": 1350,
      "Ġrecomm": 1351,
      "Ġinterest": 1352,
      "Ġrecommend": 1353,
      "ges": 1354,
      "gar": 1355,
      "nds": 1356,
      "Ġcat": 1357,
      "Ġinc": 1358,
      "ific": 1359,
      "Ġchar": 1360,
      "Ġeng": 1361,
      "pl": 1362,
      "Ġsun": 1363,
      "Ġcross": 1364,
      "Ġfab": 1365,
      "oday": 1366,
      "Ġseven": 1367,
      "ension": 1368,
      "Ġcontin": 1369,
      "Ġperfect": 1370,
      "Ġtechniqu": 1371,
      "ether": 1372,
      "tion": 1373,
      "today": 1374,
      "Ġtest": 1375,
      "Ġfast": 1376,
      "Ġjack": 1377,
      "Ġhappens": 1378,
      "Ġspeed": 1379,
      "00": 1380,
      "Ġsol": 1381,
      "uring": 1382,
      "Ġplan": 1383,
      "Ġprof": 1384,
      "Ġquite": 1385,
      "osed": 1386,
      "Ġrelax": 1387,
      "Ġstyle": 1388,
      "Ġexercise": 1389,
      "Ġsection": 1390,
      "Ġbal": 1391,
      "Ġmatch": 1392,
      "its": 1393,
      "acing": 1394,
      "Ġrele": 1395,
      "Ġallow": 1396,
      "Ġsmoo": 1397,
      "Ġgrow": 1398,
      "Ġhelps": 1399,
      "Ġdirect": 1400,
      "dd": 1401,
      "Ġhips": 1402,
      "lly": 1403,
      "Ġins": 1404,
      "Ġtrick": 1405,
      "Ġbecome": 1406,
      "Ġdeg": 1407,
      "Ġstrong": 1408,
      "Ġveh": 1409,
      "she": 1410,
      "Ġsing": 1411,
      "Ġbus": 1412,
      "Ġcal": 1413,
      "Ġpatter": 1414,
      "Ġround": 1415,
      "Ġcond": 1416,
      "Ġadv": 1417,
      "Ġespecially": 1418,
      "Ġbeautiful": 1419,
      "bing": 1420,
      "Ġtire": 1421,
      "Ġhour": 1422,
      "Ġpower": 1423,
      "Ġfoc": 1424,
      "Ġmind": 1425,
      "Ġwet": 1426,
      "ered": 1427,
      "ider": 1428,
      "Ġsoft": 1429,
      "Ġstud": 1430,
      "Ġeffect": 1431,
      "me": 1432,
      "Ġtape": 1433,
      "Ġla": 1434,
      "Ġrock": 1435,
      "ately": 1436,
      "Ġscre": 1437,
      "Ġextra": 1438,
      "Ġdirection": 1439,
      "Ġpattern": 1440,
      "Ġtakes": 1441,
      "Ġbad": 1442,
      "Ġpunch": 1443,
      "enty": 1444,
      "Ġcoat": 1445,
      "Ġclub": 1446,
      "Ġhappen": 1447,
      "Ġelse": 1448,
      "gr": 1449,
      "less": 1450,
      "Ġpow": 1451,
      "Ġdou": 1452,
      "ork": 1453,
      "Ġlife": 1454,
      "Ġtrack": 1455,
      "Ġworks": 1456,
      "Ġfollow": 1457,
      "Ġjob": 1458,
      "oon": 1459,
      "Ġap": 1460,
      "Ġbat": 1461,
      "Ġfle": 1462,
      "Ġdrink": 1463,
      "Ġcards": 1464,
      "Ġvari": 1465,
      "ience": 1466,
      "kes": 1467,
      "ract": 1468,
      "Ġheel": 1469,
      "Ġsomebody": 1470,
      "Ġclay": 1471,
      "Ġglue": 1472,
      "Ġlarge": 1473,
      "Ġmassage": 1474,
      "Ġsurface": 1475,
      "Ġfabric": 1476,
      "Ġfocus": 1477,
      "com": 1478,
      "Ġsides": 1479,
      "Ġfam": 1480,
      "Ġlater": 1481,
      "Ġitself": 1482,
      "Ġbel": 1483,
      "Ġstro": 1484,
      "ustom": 1485,
      "...": 1486,
      "Ġfact": 1487,
      "Ġblue": 1488,
      "Ġsmooth": 1489,
      "Ġsle": 1490,
      "Ġcast": 1491,
      "Ġpose": 1492,
      "Ġstarted": 1493,
      "ages": 1494,
      "Ġshoot": 1495,
      "Ġ5": 1496,
      "Ġmoney": 1497,
      "Ġwhether": 1498,
      "Ġrope": 1499,
      "ently": 1500,
      "ession": 1501,
      "Ġneeds": 1502,
      "Ġboat": 1503,
      "Ġelb": 1504,
      "ium": 1505,
      "ren": 1506,
      "Ġca": 1507,
      "Ġcustom": 1508,
      "Ġgener": 1509,
      "Ġones": 1510,
      "Ġread": 1511,
      "ters": 1512,
      "Ġdrill": 1513,
      "ield": 1514,
      "Ġcutting": 1515,
      "Ġcloth": 1516,
      "Ġwin": 1517,
      "Ġdeep": 1518,
      "aces": 1519,
      "Ġsugar": 1520,
      "Ġvehicle": 1521,
      "ef": 1522,
      "io": 1523,
      "line": 1524,
      "Ġport": 1525,
      "Ġfore": 1526,
      "Ġbend": 1527,
      "Ġcorre": 1528,
      "Ġmuscles": 1529,
      "Ġdouble": 1530,
      "don": 1531,
      "Ġoften": 1532,
      "Ġreach": 1533,
      "Ġheal": 1534,
      "Ġplastic": 1535,
      "Ġcommon": 1536,
      "Ġconf": 1537,
      "Ġsub": 1538,
      "Ġimage": 1539,
      "Ġpossible": 1540,
      "Ġexactly": 1541,
      "Ġslightly": 1542,
      "outh": 1543,
      "Ġbra": 1544,
      "Ġhoop": 1545,
      "Ġgard": 1546,
      "Ġnight": 1547,
      "Ġforth": 1548,
      "roup": 1549,
      "Ġcorner": 1550,
      "Ġwrist": 1551,
      "Ġdepending": 1552,
      "Ġbusiness": 1553,
      "Ġcondition": 1554,
      "ks": 1555,
      "sometimes": 1556,
      "Ġtee": 1557,
      "ndred": 1558,
      "Ġpair": 1559,
      "uss": 1560,
      "Ġever": 1561,
      "Ġleast": 1562,
      "Ġclass": 1563,
      "Ġdemon": 1564,
      "Ġveget": 1565,
      "Ġcareful": 1566,
      "Ġcompletely": 1567,
      "Ġsingle": 1568,
      "cket": 1569,
      "Ġcam": 1570,
      "Ġgroup": 1571,
      "irr": 1572,
      "ecess": 1573,
      "ife": 1574,
      "Ġprep": 1575,
      "Ġstarts": 1576,
      "Ġagainst": 1577,
      "uc": 1578,
      "ics": 1579,
      "Ġequ": 1580,
      "ands": 1581,
      "aste": 1582,
      "Ġslide": 1583,
      "Ġdemonstr": 1584,
      "lish": 1585,
      "ues": 1586,
      "yd": 1587,
      "Ġpat": 1588,
      "Ġmatter": 1589,
      "iting": 1590,
      "Ġcomput": 1591,
      "Ġsmaller": 1592,
      "Ġhundred": 1593,
      "no": 1594,
      "Ġthumb": 1595,
      "Ġpay": 1596,
      "Ġpitch": 1597,
      "Ġmater": 1598,
      "Ġgolf": 1599,
      "arp": 1600,
      "Ġnecess": 1601,
      "Ġspine": 1602,
      "Ġstarting": 1603,
      "Ġtooth": 1604,
      "Ġpainting": 1605,
      "Ġguys": 1606,
      "Ġpowder": 1607,
      "ces": 1608,
      "mer": 1609,
      "uff": 1610,
      "res": 1611,
      "Ġbatter": 1612,
      "Ġinhale": 1613,
      "Ġinform": 1614,
      "Ġbelt": 1615,
      "Ġedges": 1616,
      "Ġschool": 1617,
      "Ġcorrect": 1618,
      "Ġmaterial": 1619,
      "joy": 1620,
      "Ġburn": 1621,
      "Ġpour": 1622,
      "ones": 1623,
      "Ġframe": 1624,
      "Ġroot": 1625,
      "Ġmovement": 1626,
      "Ġknife": 1627,
      "Ġsquee": 1628,
      "Ġproperly": 1629,
      "Ġprotect": 1630,
      "Ġgarden": 1631,
      "pe": 1632,
      "ump": 1633,
      "vice": 1634,
      "with": 1635,
      "Ġ8": 1636,
      "Ġsign": 1637,
      "Ġben": 1638,
      "Ġbul": 1639,
      "Ġfur": 1640,
      "Ġinf": 1641,
      "Ġclim": 1642,
      "Ġproblem": 1643,
      "ming": 1644,
      "Ġthin": 1645,
      "ons": 1646,
      "ices": 1647,
      "Ġret": 1648,
      "Ġparts": 1649,
      "Ġslowly": 1650,
      "Ġlength": 1651,
      "Ġtemper": 1652,
      "br": 1653,
      "oh": 1654,
      "Ġinv": 1655,
      "Ġem": 1656,
      "Ġquest": 1657,
      "Ġcount": 1658,
      "Ġconsider": 1659,
      "Ġteeth": 1660,
      "ead": 1661,
      "Ġ'": 1662,
      "era": 1663,
      "Ġmat": 1664,
      "ved": 1665,
      "Ġsaf": 1666,
      "cent": 1667,
      "ince": 1668,
      "Ġmirr": 1669,
      "lect": 1670,
      "Ġchain": 1671,
      "Ġfrie": 1672,
      "Ġtrim": 1673,
      "Ġtwenty": 1674,
      "Ġbasket": 1675,
      "Ġdifference": 1676,
      "Ġenjoy": 1677,
      "ients": 1678,
      "Ġrelease": 1679,
      "by": 1680,
      "Ġsitting": 1681,
      "Ġfig": 1682,
      "irl": 1683,
      "room": 1684,
      "Ġheart": 1685,
      "Ġlead": 1686,
      "Ġcoff": 1687,
      "Ġtrip": 1688,
      "Ġvide": 1689,
      "ully": 1690,
      "Ġimpro": 1691,
      "Ġenerg": 1692,
      "iew": 1693,
      "Ġscr": 1694,
      "Ġlocal": 1695,
      "Ġheavy": 1696,
      "Ġprofession": 1697,
      "Ġtowel": 1698,
      "Ġpack": 1699,
      "Ġstrap": 1700,
      "veral": 1701,
      "Ġnothing": 1702,
      "velop": 1703,
      "Ġexpl": 1704,
      "Ġmotion": 1705,
      "Ġtraining": 1706,
      "Ġtechnique": 1707,
      "Ġbalance": 1708,
      "Ġinformation": 1709,
      "Ġthread": 1710,
      "ins": 1711,
      "Ġbow": 1712,
      "Ġpar": 1713,
      "Ġbelly": 1714,
      "Ġareas": 1715,
      "Ġant": 1716,
      "Ġmoist": 1717,
      "ames": 1718,
      "Ġtend": 1719,
      "Ġseveral": 1720,
      "Ġbrown": 1721,
      "ieve": 1722,
      "Ġswing": 1723,
      "Ġdays": 1724,
      "Ġblend": 1725,
      "Ġcontinue": 1726,
      "med": 1727,
      "na": 1728,
      "Ġess": 1729,
      "ato": 1730,
      "arily": 1731,
      "Ġnose": 1732,
      "Ġwide": 1733,
      "irty": 1734,
      "urt": 1735,
      "Ġgrind": 1736,
      "Ġeasily": 1737,
      "Ġproducts": 1738,
      "Ġnormal": 1739,
      "Ġhealth": 1740,
      "Ġtemperature": 1741,
      "Ġtor": 1742,
      "Ġspot": 1743,
      "Ġvis": 1744,
      "Ġseries": 1745,
      "Ġsquare": 1746,
      "Ġattach": 1747,
      "Ġcharacter": 1748,
      "Ġapart": 1749,
      "Ġcoffee": 1750,
      "Ġenergy": 1751,
      "cc": 1752,
      "ware": 1753,
      "Ġ7": 1754,
      "rees": 1755,
      "Ġsound": 1756,
      "Ġice": 1757,
      "Ġtoes": 1758,
      "Ġcra": 1759,
      "Ġwee": 1760,
      "ute": 1761,
      "Ġsharp": 1762,
      "stand": 1763,
      "Ġdevelop": 1764,
      "Ġplaying": 1765,
      "Ġinches": 1766,
      "Ġproblems": 1767,
      "Ġdiscuss": 1768,
      "Ġsteam": 1769,
      "Ġcustomer": 1770,
      "Ġsafety": 1771,
      "Ġfigure": 1772,
      "gan": 1773,
      "ys": 1774,
      "Ġwo": 1775,
      "Ġhang": 1776,
      "Ġlin": 1777,
      "keep": 1778,
      "Ġeat": 1779,
      "Ġrequ": 1780,
      "Ġchick": 1781,
      "Ġchair": 1782,
      "Ġconn": 1783,
      "Ġglo": 1784,
      "ensive": 1785,
      "olog": 1786,
      "Ġdidn": 1787,
      "Ġelect": 1788,
      "fer": 1789,
      "ped": 1790,
      "Ġpan": 1791,
      "anket": 1792,
      "Ġrice": 1793,
      "Ġprevent": 1794,
      "Ġhandle": 1795,
      "Ġval": 1796,
      "Ġblade": 1797,
      "Ġblanket": 1798,
      "xture": 1799,
      "Ġaccess": 1800,
      "Ġlarger": 1801,
      "Ġcomputer": 1802,
      ".\"": 1803,
      "fully": 1804,
      "Ġthird": 1805,
      "Ġwom": 1806,
      "Ġmouth": 1807,
      "Ġring": 1808,
      "oos": 1809,
      "ept": 1810,
      "Ġteam": 1811,
      "Ġpres": 1812,
      "Ġlots": 1813,
      "Ġkinds": 1814,
      "Ġlips": 1815,
      "Ġsupport": 1816,
      "Ġoppos": 1817,
      "board": 1818,
      "Ġleaves": 1819,
      "Ġcamera": 1820,
      "ydr": 1821,
      "Ġmirror": 1822,
      "take": 1823,
      "ounce": 1824,
      "Ġwine": 1825,
      "Ġfat": 1826,
      "Ġfif": 1827,
      "Ġmom": 1828,
      "Ġmic": 1829,
      "ades": 1830,
      "Ġclos": 1831,
      "Ġdiffic": 1832,
      "Ġwrong": 1833,
      "Ġdetail": 1834,
      "Ġcollar": 1835,
      "Ġentire": 1836,
      "Ġgarlic": 1837,
      "ives": 1838,
      "your": 1839,
      "Ġpen": 1840,
      "Ġlock": 1841,
      "aster": 1842,
      "Ġkids": 1843,
      "aps": 1844,
      "Ġsell": 1845,
      "Ġblood": 1846,
      "Ġeverybody": 1847,
      "teen": 1848,
      "Ġpersonal": 1849,
      "Ġplants": 1850,
      "Ġattention": 1851,
      "Ġspecial": 1852,
      "Ġtools": 1853,
      "Ġmask": 1854,
      "Ġrequire": 1855,
      "back": 1856,
      "oid": 1857,
      "Ġtoe": 1858,
      "acket": 1859,
      "Ġclock": 1860,
      "ocol": 1861,
      "Ġyog": 1862,
      "Ġholding": 1863,
      "Ġsitu": 1864,
      "Ġspray": 1865,
      "Ġtravel": 1866,
      "Ġflex": 1867,
      "like": 1868,
      "ule": 1869,
      "Ġter": 1870,
      "Ġaud": 1871,
      "Ġwrap": 1872,
      "Ġfield": 1873,
      "Ġmag": 1874,
      "Ġstone": 1875,
      "Ġass": 1876,
      "Ġbutter": 1877,
      "ables": 1878,
      "Ġactual": 1879,
      "Ġcontact": 1880,
      "Ġcorn": 1881,
      "Ġyellow": 1882,
      "Ġhours": 1883,
      "Ġchicken": 1884,
      "een": 1885,
      "pr": 1886,
      "pect": 1887,
      "sw": 1888,
      "Ġsnow": 1889,
      "Ġsince": 1890,
      "Ġbro": 1891,
      "Ġbike": 1892,
      "ator": 1893,
      "Ġge": 1894,
      "Ġlist": 1895,
      "Ġnut": 1896,
      "Ġwanted": 1897,
      "step": 1898,
      "Ġhear": 1899,
      "Ġadjust": 1900,
      "Ġshowing": 1901,
      "Ġsciss": 1902,
      "Ġpulling": 1903,
      "Ġpoints": 1904,
      "Ġhigher": 1905,
      "Ġstreng": 1906,
      "Ġextend": 1907,
      "Ġfresh": 1908,
      "Ġpurp": 1909,
      "Ġavoid": 1910,
      "Ġprofessional": 1911,
      "after": 1912,
      "ced": 1913,
      "iver": 1914,
      "rom": 1915,
      "wise": 1916,
      "work": 1917,
      "Ġsil": 1918,
      "Ġfly": 1919,
      "Ġdress": 1920,
      "Ġland": 1921,
      "ities": 1922,
      "Ġbed": 1923,
      "Ġstitch": 1924,
      "Ġrout": 1925,
      "Ġupper": 1926,
      "Ġmode": 1927,
      "Ġworld": 1928,
      "Ġscore": 1929,
      "ilet": 1930,
      "Ġinstead": 1931,
      "Ġfamily": 1932,
      "Ġopposite": 1933,
      "every": 1934,
      "ob": 1935,
      "inal": 1936,
      "Ġok": 1937,
      "Ġtom": 1938,
      "Ġpal": 1939,
      "Ġduring": 1940,
      "Ġorange": 1941,
      "Ġchang": 1942,
      "ills": 1943,
      "ized": 1944,
      "Ġstrip": 1945,
      "Ġinstall": 1946,
      "Ġquickly": 1947,
      "Ġcircle": 1948,
      "Ġwaist": 1949,
      "az": 1950,
      "man": 1951,
      "ny": 1952,
      "ted": 1953,
      "Ġaff": 1954,
      "remember": 1955,
      "Ġhitting": 1956,
      "Ġgently": 1957,
      "Ġpet": 1958,
      "led": 1959,
      "ants": 1960,
      "sel": 1961,
      "Ġshop": 1962,
      "Ġorgan": 1963,
      "Ġchocol": 1964,
      "tern": 1965,
      "unk": 1966,
      "Ġworry": 1967,
      "Ġplayers": 1968,
      "Ġcream": 1969,
      "Ġmedium": 1970,
      "Ġdemonstrate": 1971,
      "Ġfurther": 1972,
      "Ġyoga": 1973,
      "ior": 1974,
      "oke": 1975,
      "uct": 1976,
      "Ġtherap": 1977,
      "Ġbab": 1978,
      "Ġfavor": 1979,
      "Ġdam": 1980,
      "llo": 1981,
      "ited": 1982,
      "Ġabs": 1983,
      "Ġcold": 1984,
      "Ġseat": 1985,
      "Ġslip": 1986,
      "Ġgrip": 1987,
      "Ġcarry": 1988,
      "Ġintern": 1989,
      "Ġfoundation": 1990,
      "Ġelbow": 1991,
      "Ġwonder": 1992,
      "con": 1993,
      "Ġsep": 1994,
      "Ġswe": 1995,
      "eric": 1996,
      "arch": 1997,
      "itive": 1998,
      "Ġwithin": 1999,
      "Ġwants": 2000,
      "imp": 2001,
      "ilar": 2002,
      "Ġflip": 2003,
      "Ġdrive": 2004,
      "Ġquart": 2005,
      "next": 2006,
      "Ġsteps": 2007,
      "Ġcleaning": 2008,
      "Ġstanding": 2009,
      "Ġcombin": 2010,
      "Ġdifficult": 2011,
      "Ġsepar": 2012,
      "light": 2013,
      "Ġtal": 2014,
      "Ġtank": 2015,
      "oun": 2016,
      "Ġbunch": 2017,
      "Ġloose": 2018,
      "Ġmach": 2019,
      "Ġbead": 2020,
      "Ġrot": 2021,
      "Ġshr": 2022,
      "ify": 2023,
      "Ġabove": 2024,
      "Ġplate": 2025,
      "Ġflavor": 2026,
      "Ġcontain": 2027,
      "Ġ10": 2028,
      "Ġsimilar": 2029,
      "Ġharder": 2030,
      "Ġpushing": 2031,
      "Ġspecific": 2032,
      "Ġflowers": 2033,
      "Ġfair": 2034,
      "Ġgold": 2035,
      "ases": 2036,
      "iding": 2037,
      "ooked": 2038,
      "Ġneg": 2039,
      "Ġcost": 2040,
      "Ġanywhere": 2041,
      "Ġguide": 2042,
      "Ġsetting": 2043,
      "Ġswim": 2044,
      "Ġyear": 2045,
      "Ġdrawing": 2046,
      "Ġinvol": 2047,
      "Ġlog": 2048,
      "Ġisn": 2049,
      "Ġiss": 2050,
      "Ġrod": 2051,
      "Ġneedle": 2052,
      "Ġparty": 2053,
      "Ġholes": 2054,
      "Ġsmell": 2055,
      "Ġthinking": 2056,
      "Ġbigger": 2057,
      "Ġdecor": 2058,
      "Ġscrew": 2059,
      "Ġsleep": 2060,
      "car": 2061,
      "come": 2062,
      "mb": 2063,
      "Ġterm": 2064,
      "Ġaf": 2065,
      "iny": 2066,
      "Ġband": 2067,
      "Ġhope": 2068,
      "Ġfaster": 2069,
      "ening": 2070,
      "Ġink": 2071,
      "Ġegg": 2072,
      "Ġevent": 2073,
      "sol": 2074,
      "see": 2075,
      "Ġliqu": 2076,
      "ime": 2077,
      "Ġallows": 2078,
      "ume": 2079,
      "Ġsecure": 2080,
      "Ġcirc": 2081,
      "Ġinteresting": 2082,
      "Ġbattery": 2083,
      "Ġbenef": 2084,
      "au": 2085,
      "bas": 2086,
      "ex": 2087,
      "top": 2088,
      "Ġut": 2089,
      "Ġvers": 2090,
      "Ġcame": 2091,
      "Ġgirl": 2092,
      "Ġlid": 2093,
      "Ġmention": 2094,
      "Ġsteel": 2095,
      "Ġrather": 2096,
      "Ġshap": 2097,
      "Ġsoon": 2098,
      "Ġlean": 2099,
      "Ġproject": 2100,
      "Ġyard": 2101,
      "Ġguit": 2102,
      "Ġunderstand": 2103,
      "Ġchildren": 2104,
      "gram": 2105,
      "Ġnecessarily": 2106,
      "Ġbaby": 2107,
      "Ġtalked": 2108,
      "ey": 2109,
      "Ġ6": 2110,
      "Ġing": 2111,
      "Ġtips": 2112,
      "Ġmet": 2113,
      "Ġchin": 2114,
      "Ġcore": 2115,
      "Ġexc": 2116,
      "Ġprogram": 2117,
      "Ġflash": 2118,
      "Ġsew": 2119,
      "ored": 2120,
      "Ġdrain": 2121,
      "Ġballs": 2122,
      "Ġturning": 2123,
      "Ġsave": 2124,
      "Ġserve": 2125,
      "Ġseconds": 2126,
      "Ġminute": 2127,
      "Ġthought": 2128,
      "Ġfilm": 2129,
      "Ġwords": 2130,
      "Ġessent": 2131,
      "aj": 2132,
      "lier": 2133,
      "may": 2134,
      "Ġtension": 2135,
      "Ġtoilet": 2136,
      "Ġbone": 2137,
      "Ġhop": 2138,
      "Ġdish": 2139,
      "Ġstain": 2140,
      "Ġmold": 2141,
      "Ġnear": 2142,
      "iling": 2143,
      "Ġflu": 2144,
      "ational": 2145,
      "Ġprin": 2146,
      "Ġends": 2147,
      "Ġbuying": 2148,
      "encil": 2149,
      "Ġcommun": 2150,
      "Ġdollars": 2151,
      "Ġchocolate": 2152,
      "old": 2153,
      "vis": 2154,
      "zy": 2155,
      "Ġfash": 2156,
      "Ġwebs": 2157,
      "Ġrib": 2158,
      "ilt": 2159,
      "Ġchop": 2160,
      "Ġflower": 2161,
      "pping": 2162,
      "Ġself": 2163,
      "Ġselect": 2164,
      "hello": 2165,
      "Ġsays": 2166,
      "Ġsafe": 2167,
      "Ġplayer": 2168,
      "Ġservice": 2169,
      "Ġsalt": 2170,
      "Ġposture": 2171,
      "Ġequip": 2172,
      "Ġclimbing": 2173,
      "iod": 2174,
      "ler": 2175,
      "Ġ(": 2176,
      "Ġag": 2177,
      "Ġgone": 2178,
      "Ġmount": 2179,
      "ability": 2180,
      "Ġboom": 2181,
      "ared": 2182,
      "Ġameric": 2183,
      "Ġsaw": 2184,
      "Ġknot": 2185,
      "Ġjuice": 2186,
      "Ġrolling": 2187,
      "Ġspring": 2188,
      "Ġphotography": 2189,
      "Ġdegree": 2190,
      "Ġscissors": 2191,
      "selves": 2192,
      "Ġmachine": 2193,
      "Ġtiss": 2194,
      "Ġthirty": 2195,
      "Ġpencil": 2196,
      "Ġdent": 2197,
      "Ġdance": 2198,
      "Ġmess": 2199,
      "ets": 2200,
      "Ġdrib": 2201,
      "Ġfeels": 2202,
      "Ġwrite": 2203,
      "Ġwearing": 2204,
      "Ġfinished": 2205,
      "Ġbeginning": 2206,
      "ency": 2207,
      "Ġexperience": 2208,
      "Ġsituation": 2209,
      "Ġpurpose": 2210,
      "aw": 2211,
      "over": 2212,
      "ycle": 2213,
      "Ġtent": 2214,
      "Ġbor": 2215,
      "Ġbath": 2216,
      "Ġda": 2217,
      "ites": 2218,
      "Ġlive": 2219,
      "Ġshad": 2220,
      "Ġank": 2221,
      "Ġanim": 2222,
      "rodu": 2223,
      "Ġmakeup": 2224,
      "Ġplaces": 2225,
      "Ġspend": 2226,
      "Ġprov": 2227,
      "Ġseen": 2228,
      "Ġdead": 2229,
      "Ġbub": 2230,
      "Ġlighter": 2231,
      "Ġresp": 2232,
      "Ġgiving": 2233,
      "Ġshoes": 2234,
      "maybe": 2235,
      "oom": 2236,
      "oice": 2237,
      "sp": 2238,
      "Ġdeck": 2239,
      "thod": 2240,
      "Ġstate": 2241,
      "Ġstance": 2242,
      "Ġheight": 2243,
      "aker": 2244,
      "Ġmethod": 2245,
      "Ġworth": 2246,
      "Ġappro": 2247,
      "Ġopening": 2248,
      "angle": 2249,
      "Ġearlier": 2250,
      "Ġdeterm": 2251,
      "Ġfilter": 2252,
      "Ġmonth": 2253,
      "Ġdegrees": 2254,
      "Ġreturn": 2255,
      "Ġvideo": 2256,
      "Ġexplain": 2257,
      "Ġfavorite": 2258,
      "Ġguitar": 2259,
      "\".": 2260,
      "hand": 2261,
      "uce": 2262,
      "view": 2263,
      "Ġtot": 2264,
      "Ġpast": 2265,
      "isting": 2266,
      "Ġnin": 2267,
      "Ġrece": 2268,
      "iron": 2269,
      "Ġorig": 2270,
      "ified": 2271,
      "Ġspl": 2272,
      "Ġmeet": 2273,
      "pped": 2274,
      "Ġbright": 2275,
      "Ġthroughout": 2276,
      "Ġfoam": 2277,
      "Ġeveryone": 2278,
      "Ġletters": 2279,
      "izes": 2280,
      "Ġcoun": 2281,
      "Ġthrowing": 2282,
      "Ġstandard": 2283,
      "Ġdecide": 2284,
      "Ġobject": 2285,
      "Ġstores": 2286,
      "Ġmusic": 2287,
      "Ġpurch": 2288,
      "Ġload": 2289,
      "Ġdistance": 2290,
      "Ġmoment": 2291,
      "basically": 2292,
      "Ġingred": 2293,
      "Ġfluid": 2294,
      "hy": 2295,
      "oe": 2296,
      "put": 2297,
      "Ġtap": 2298,
      "Ġocc": 2299,
      "atic": 2300,
      "Ġce": 2301,
      "Ġple": 2302,
      "Ġfacing": 2303,
      "Ġdirt": 2304,
      "ana": 2305,
      "Ġitem": 2306,
      "arning": 2307,
      "Ġrat": 2308,
      "Ġsoil": 2309,
      "ulation": 2310,
      "aken": 2311,
      "Ġkeeps": 2312,
      "Ġqual": 2313,
      "Ġtypically": 2314,
      "ivid": 2315,
      "Ġwindow": 2316,
      "Ġdepends": 2317,
      "Ġmaintain": 2318,
      "Ġbooks": 2319,
      "Ġjeans": 2320,
      "Ġwomen": 2321,
      "cara": 2322,
      "Ġequipment": 2323,
      "\",": 2324,
      "cause": 2325,
      "nis": 2326,
      "viron": 2327,
      "Ġwent": 2328,
      "Ġhat": 2329,
      "Ġfir": 2330,
      "Ġmist": 2331,
      "Ġmaj": 2332,
      "usually": 2333,
      "ley": 2334,
      "Ġclient": 2335,
      "Ġprop": 2336,
      "which": 2337,
      "Ġvol": 2338,
      "Ġblow": 2339,
      "Ġenviron": 2340,
      "Ġbucket": 2341,
      "Ġsmoke": 2342,
      "Ġdefense": 2343,
      "ults": 2344,
      "Ġattack": 2345,
      "anced": 2346,
      "Ġmascara": 2347,
      "Ġraw": 2348,
      "Ġmarket": 2349,
      "Ġbowl": 2350,
      "Ġweek": 2351,
      "Ġfashion": 2352,
      "Ġmajor": 2353,
      "Ġenvironment": 2354,
      "bles": 2355,
      "ground": 2356,
      "lace": 2357,
      "Ġbent": 2358,
      "Ġlose": 2359,
      "Ġmult": 2360,
      "those": 2361,
      "Ġham": 2362,
      "chan": 2363,
      "Ġlif": 2364,
      "Ġleather": 2365,
      "Ġbecom": 2366,
      "Ġhandy": 2367,
      "Ġwouldn": 2368,
      "Ġpartner": 2369,
      "Ġskills": 2370,
      "Ġgray": 2371,
      "Ġoption": 2372,
      "Ġjoint": 2373,
      "Ġlayer": 2374,
      "Ġavail": 2375,
      "Ġsqueeze": 2376,
      "Ġfriends": 2377,
      "Ġconnect": 2378,
      "Ġseparate": 2379,
      "Ġmentioned": 2380,
      "iate": 2381,
      "Ġtie": 2382,
      "Ġaut": 2383,
      "Ġsens": 2384,
      "Ġid": 2385,
      "Ġcow": 2386,
      "Ġcity": 2387,
      "Ġhurt": 2388,
      "Ġgift": 2389,
      "Ġpa": 2390,
      "Ġpeel": 2391,
      "Ġdro": 2392,
      "Ġdial": 2393,
      "ony": 2394,
      "ises": 2395,
      "Ġwid": 2396,
      "Ġstory": 2397,
      "ung": 2398,
      "Ġnicely": 2399,
      "Ġsuper": 2400,
      "Ġ15": 2401,
      "Ġ20": 2402,
      "Ġtennis": 2403,
      "Ġtrail": 2404,
      "Ġbulb": 2405,
      "Ġquestions": 2406,
      "can": 2407,
      "lies": 2408,
      "Ġ9": 2409,
      "Ġtuck": 2410,
      "Ġbur": 2411,
      "Ġcake": 2412,
      "Ġcro": 2413,
      "Ġfro": 2414,
      "Ġdust": 2415,
      "Ġdip": 2416,
      "Ġmust": 2417,
      "onent": 2418,
      "iter": 2419,
      "Ġrain": 2420,
      "ili": 2421,
      "Ġlearning": 2422,
      "Ġmyself": 2423,
      "Ġmechan": 2424,
      "Ġtexture": 2425,
      "Ġflor": 2426,
      "Ġbased": 2427,
      "Ġcompet": 2428,
      "ibly": 2429,
      "Ġphone": 2430,
      "Ġhappy": 2431,
      "Ġinstance": 2432,
      "Ġconsist": 2433,
      "Ġaccount": 2434,
      "Ġpitcher": 2435,
      "Ġstrength": 2436,
      "Ġroute": 2437,
      "Ġpalm": 2438,
      "Ġquarter": 2439,
      "Ġcounter": 2440,
      "dit": 2441,
      "gest": 2442,
      "iving": 2443,
      "yes": 2444,
      "Ġ-": 2445,
      "Ġest": 2446,
      "Ġtaken": 2447,
      "Ġhum": 2448,
      "Ġpink": 2449,
      "Ġfix": 2450,
      "Ġmen": 2451,
      "ane": 2452,
      "Ġbeer": 2453,
      "Ġstates": 2454,
      "Ġrough": 2455,
      "Ġaren": 2456,
      "Ġkite": 2457,
      "stick": 2458,
      "Ġoutf": 2459,
      "Ġsomewhere": 2460,
      "Ġaltern": 2461,
      "Ġbackwards": 2462,
      "Ġspread": 2463,
      "Ġbrake": 2464,
      "Ġskirt": 2465,
      "Ġapplic": 2466,
      "Ġcredit": 2467,
      "Ġextre": 2468,
      "Ġindivid": 2469,
      "Ġwalking": 2470,
      "Ġriding": 2471,
      "Ġbuilding": 2472,
      "Ġtreatment": 2473,
      "Ġnormally": 2474,
      "Ġrelaxed": 2475,
      "Ġeffective": 2476,
      "Ġcaus": 2477,
      "Ġvegetables": 2478,
      "Ġterms": 2479,
      "Ġwonderful": 2480,
      "Ġavailable": 2481,
      "aur": 2482,
      "por": 2483,
      "Ġtun": 2484,
      "Ġther": 2485,
      "Ġwar": 2486,
      "Ġbid": 2487,
      "Ġdig": 2488,
      "Ġmiss": 2489,
      "aring": 2490,
      "Ġshamp": 2491,
      "Ġsoc": 2492,
      "ipe": 2493,
      "Ġseam": 2494,
      "Ġothers": 2495,
      "agon": 2496,
      "izing": 2497,
      "Ġturns": 2498,
      "Ġguard": 2499,
      "Ġperform": 2500,
      "Ġfeeling": 2501,
      "Ġmuscle": 2502,
      "Ġcheese": 2503,
      "Ġrubber": 2504,
      "Ġhealthy": 2505,
      "Ġnegative": 2506,
      "da": 2507,
      "iest": 2508,
      "ka": 2509,
      "ned": 2510,
      "of": 2511,
      "Ġtar": 2512,
      "Ġtree": 2513,
      "Ġtaste": 2514,
      "Ġwave": 2515,
      "Ġpub": 2516,
      "Ġpark": 2517,
      "orm": 2518,
      "Ġincl": 2519,
      "Ġrem": 2520,
      "ida": 2521,
      "iment": 2522,
      "Ġnote": 2523,
      "Ġlemon": 2524,
      "ulate": 2525,
      "Ġsugg": 2526,
      "Ġmovements": 2527,
      "Ġnumb": 2528,
      "Ġelements": 2529,
      "Ġideas": 2530,
      "Ġcups": 2531,
      "Ġcreating": 2532,
      "however": 2533,
      "Ġcooking": 2534,
      "Ġincre": 2535,
      "Ġgeneral": 2536,
      "Ġmoisture": 2537,
      "Ġelectric": 2538,
      "Ġfairly": 2539,
      "Ġwebsite": 2540,
      "Ġwidth": 2541,
      "Ġextreme": 2542,
      "Ġsuggest": 2543,
      "co": 2544,
      "cre": 2545,
      "ender": 2546,
      "time": 2547,
      "Ġver": 2548,
      "Ġtoss": 2549,
      "Ġpound": 2550,
      "Ġdang": 2551,
      "asing": 2552,
      "ution": 2553,
      "oof": 2554,
      "add": 2555,
      "Ġabsol": 2556,
      "Ġcocon": 2557,
      "Ġspark": 2558,
      "Ġvod": 2559,
      "Ġfeed": 2560,
      "Ġsuc": 2561,
      "Ġcompany": 2562,
      "Ġapprop": 2563,
      "Ġrecord": 2564,
      "ances": 2565,
      "Ġwatching": 2566,
      "Ġtransfer": 2567,
      "Ġvariety": 2568,
      "Ġgenerally": 2569,
      "Ġvegetable": 2570,
      "Ġmicrow": 2571,
      "Ġmodel": 2572,
      "Ġcoconut": 2573,
      "Ġappropri": 2574,
      "even": 2575,
      "look": 2576,
      "ph": 2577,
      "ral": 2578,
      "sy": 2579,
      "Ġtall": 2580,
      "Ġaware": 2581,
      "inse": 2582,
      "Ġill": 2583,
      "Ġbac": 2584,
      "Ġcell": 2585,
      "Ġhi": 2586,
      "Ġhing": 2587,
      "Ġfake": 2588,
      "Ġlap": 2589,
      "Ġmor": 2590,
      "Ġgoal": 2591,
      "Ġinner": 2592,
      "asting": 2593,
      "ght": 2594,
      "Ġrange": 2595,
      "Ġrinse": 2596,
      "ided": 2597,
      "irth": 2598,
      "Ġkill": 2599,
      "Ġchem": 2600,
      "Ġclick": 2601,
      "Ġexcess": 2602,
      "Ġthemselves": 2603,
      "Ġconcer": 2604,
      "Ġbolt": 2605,
      "Ġvit": 2606,
      "Ġsaying": 2607,
      "Ġopt": 2608,
      "Ġcord": 2609,
      "Ġbottle": 2610,
      "Ġbreaking": 2611,
      "Ġdrag": 2612,
      "Ġwriting": 2613,
      "Ġrelation": 2614,
      "Ġlearned": 2615,
      "ancing": 2616,
      "Ġaccur": 2617,
      "Ġdirectly": 2618,
      "Ġbelieve": 2619,
      "Ġstroke": 2620,
      "Ġwinter": 2621,
      "Ġcloser": 2622,
      "Ġdamage": 2623,
      "Ġcombination": 2624,
      "Ġtissue": 2625,
      "Ġident": 2626,
      "Ġshampoo": 2627,
      "haps": 2628,
      "iers": 2629,
      "ude": 2630,
      "Ġage": 2631,
      "rel": 2632,
      "Ġsor": 2633,
      "Ġsizes": 2634,
      "Ġbirth": 2635,
      "att": 2636,
      "Ġcab": 2637,
      "Ġfight": 2638,
      "Ġmi": 2639,
      "iced": 2640,
      "etic": 2641,
      "Ġemp": 2642,
      "Ġears": 2643,
      "Ġredu": 2644,
      "Ġrad": 2645,
      "Ġrule": 2646,
      "Ġshirt": 2647,
      "ures": 2648,
      "Ġchr": 2649,
      "Ġtract": 2650,
      "Ġtrue": 2651,
      "Ġflour": 2652,
      "Ġknows": 2653,
      "iger": 2654,
      "Ġprim": 2655,
      "ired": 2656,
      "Ġacid": 2657,
      "Ġadding": 2658,
      "Ġguess": 2659,
      "Ġsweep": 2660,
      "Ġphys": 2661,
      "els": 2662,
      "Ġinstr": 2663,
      "Ġbaseball": 2664,
      "Ġfret": 2665,
      "Ġnorth": 2666,
      "Ġcreates": 2667,
      "welry": 2668,
      "Ġexpert": 2669,
      "Ġsolid": 2670,
      "Ġheels": 2671,
      "Ġbelow": 2672,
      "Ġtomato": 2673,
      "Ġquality": 2674,
      "Ġautom": 2675,
      "Ġvodka": 2676,
      "hydr": 2677,
      "uit": 2678,
      "Ġthr": 2679,
      "Ġsour": 2680,
      "vered": 2681,
      "Ġnap": 2682,
      "icing": 2683,
      "Ġbeak": 2684,
      "Ġwedd": 2685,
      "eds": 2686,
      "eter": 2687,
      "Ġrace": 2688,
      "Ġupon": 2689,
      "Ġchance": 2690,
      "Ġchord": 2691,
      "Ġsport": 2692,
      "Ġslice": 2693,
      "Ġsuit": 2694,
      "Ġstrings": 2695,
      "Ġlighting": 2696,
      "Ġearly": 2697,
      "Ġwheels": 2698,
      "Ġsnake": 2699,
      "Ġlengthen": 2700,
      "Ġdollar": 2701,
      "Ġjewelry": 2702,
      "Ġquestion": 2703,
      "Ġvalue": 2704,
      "Ġbeads": 2705,
      "Ġshadow": 2706,
      "Ġfirm": 2707,
      "Ġlifting": 2708,
      "Ġmicrowave": 2709,
      "Ġappropriate": 2710,
      "Ġsorry": 2711,
      "dom": 2712,
      "from": 2713,
      "Ġtu": 2714,
      "Ġaust": 2715,
      "Ġthous": 2716,
      "Ġsink": 2717,
      "Ġtoward": 2718,
      "Ġtone": 2719,
      "Ġpage": 2720,
      "Ġdim": 2721,
      "Ġmap": 2722,
      "asp": 2723,
      "Ġstage": 2724,
      "Ġstock": 2725,
      "Ġrese": 2726,
      "Ġur": 2727,
      "Ġshut": 2728,
      "Ġcovered": 2729,
      "Ġplus": 2730,
      "Ġtri": 2731,
      "Ġspots": 2732,
      "Ġclosed": 2733,
      "Ġtele": 2734,
      "Ġflo": 2735,
      "Ġbrace": 2736,
      "Ġdel": 2737,
      "Ġfeature": 2738,
      "aging": 2739,
      "izz": 2740,
      "before": 2741,
      "Ġ18": 2742,
      "Ġperiod": 2743,
      "Ġrepe": 2744,
      "Ġrepair": 2745,
      "Ġcrack": 2746,
      "ression": 2747,
      "Ġshots": 2748,
      "Ġmixed": 2749,
      "Ġpopular": 2750,
      "Ġtripod": 2751,
      "Ġdetermine": 2752,
      "Ġflorida": 2753,
      "Ġsuccess": 2754,
      "Ġchemical": 2755,
      "gen": 2756,
      "kin": 2757,
      "Ġtrap": 2758,
      "Ġthigh": 2759,
      "Ġcamp": 2760,
      "Ġgra": 2761,
      "orn": 2762,
      "ories": 2763,
      "orpor": 2764,
      "Ġinj": 2765,
      "ised": 2766,
      "ette": 2767,
      "Ġrop": 2768,
      "Ġcannot": 2769,
      "Ġmoves": 2770,
      "Ġchall": 2771,
      "Ġhowever": 2772,
      "Ġflush": 2773,
      "Ġknown": 2774,
      "aged": 2775,
      "ails": 2776,
      "Ġcontr": 2777,
      "Ġperhaps": 2778,
      "Ġstress": 2779,
      "Ġpressing": 2780,
      "Ġextension": 2781,
      "Ġsticks": 2782,
      "Ġcourt": 2783,
      "Ġjoh": 2784,
      "Ġimmed": 2785,
      "Ġcoverage": 2786,
      "Ġpicking": 2787,
      "Ġcreated": 2788,
      "Ġfoods": 2789,
      "Ġincorpor": 2790,
      "Ġclothes": 2791,
      "Ġportion": 2792,
      "Ġpresent": 2793,
      "Ġcorners": 2794,
      "Ġabsor": 2795,
      "Ġshrimp": 2796,
      "Ġliquid": 2797,
      "Ġdribble": 2798,
      "Ġankle": 2799,
      "Ġnumbers": 2800,
      "Ġabsolute": 2801,
      "Ġrelationsh": 2802,
      "Ġbracelet": 2803,
      "bon": 2804,
      "dge": 2805,
      "king": 2806,
      "lift": 2807,
      "more": 2808,
      "nch": 2809,
      "ym": 2810,
      "Ġoven": 2811,
      "Ġoper": 2812,
      "Ġbones": 2813,
      "Ġhydr": 2814,
      "Ġpath": 2815,
      "Ġmax": 2816,
      "ism": 2817,
      "Ġwipe": 2818,
      "Ġstar": 2819,
      "aced": 2820,
      "Ġforce": 2821,
      "Ġliz": 2822,
      "Ġansw": 2823,
      "Ġsoda": 2824,
      "eech": 2825,
      "Ġlikely": 2826,
      "Ġalright": 2827,
      "Ġspoon": 2828,
      "Ġspeech": 2829,
      "ections": 2830,
      "Ġaction": 2831,
      "Ġroad": 2832,
      "Ġbuilt": 2833,
      "Ġglove": 2834,
      "Ġstrike": 2835,
      "Ġsheet": 2836,
      "Ġbringing": 2837,
      "Ġunless": 2838,
      "Ġcurl": 2839,
      "Ġcurling": 2840,
      "Ġzone": 2841,
      "Ġsupply": 2842,
      "Ġopponent": 2843,
      "Ġdiam": 2844,
      "Ġartist": 2845,
      "Ġperfectly": 2846,
      "Ġelbows": 2847,
      "Ġfriend": 2848,
      "Ġgloss": 2849,
      "Ġamerican": 2850,
      "Ġdaily": 2851,
      "ding": 2852,
      "hold": 2853,
      "iber": 2854,
      "pt": 2855,
      "vas": 2856,
      "ying": 2857,
      "Ġ$": 2858,
      "inate": 2859,
      "Ġow": 2860,
      "Ġyoua": 2861,
      "erv": 2862,
      "erous": 2863,
      "Ġgro": 2864,
      "Ġgames": 2865,
      "Ġpine": 2866,
      "Ġdate": 2867,
      "Ġlamp": 2868,
      "Ġmart": 2869,
      "Ġmill": 2870,
      "Ġnet": 2871,
      "Ġbeat": 2872,
      "verse": 2873,
      "Ġforget": 2874,
      "ident": 2875,
      "ifically": 2876,
      "itted": 2877,
      "ctor": 2878,
      "ateg": 2879,
      "Ġseeing": 2880,
      "Ġuses": 2881,
      "Ġsearch": 2882,
      "Ġkinda": 2883,
      "Ġsky": 2884,
      "Ġcuts": 2885,
      "Ġyes": 2886,
      "Ġcleaner": 2887,
      "ibility": 2888,
      "Ġresist": 2889,
      "Ġsquat": 2890,
      "Ġimag": 2891,
      "Ġcert": 2892,
      "ancy": 2893,
      "Ġspeaking": 2894,
      "Ġpotato": 2895,
      "Ġnaturally": 2896,
      "Ġlaying": 2897,
      "Ġmotor": 2898,
      "Ġbreathe": 2899,
      "Ġcertainly": 2900,
      "Ġvarious": 2901,
      "Ġbreathing": 2902,
      "Ġinterested": 2903,
      "Ġtechniques": 2904,
      "Ġtricks": 2905,
      "Ġstrokes": 2906,
      "Ġslee": 2907,
      "oosing": 2908,
      "Ġaudition": 2909,
      "Ġaffect": 2910,
      "Ġsweet": 2911,
      "Ġcontainer": 2912,
      "Ġshapes": 2913,
      "Ġoccur": 2914,
      "Ġbecomes": 2915,
      "Ġtarget": 2916,
      "sych": 2917,
      "brow": 2918,
      "ci": 2919,
      "fl": 2920,
      "have": 2921,
      "zing": 2922,
      "Ġet": 2923,
      "Ġtrou": 2924,
      "Ġtread": 2925,
      "Ġtiny": 2926,
      "ret": 2927,
      "Ġsections": 2928,
      "Ġpages": 2929,
      "Ġfa": 2930,
      "ote": 2931,
      "always": 2932,
      "Ġrul": 2933,
      "Ġjab": 2934,
      "ustr": 2935,
      "Ġforty": 2936,
      "ode": 2937,
      "Ġtrad": 2938,
      "Ġconst": 2939,
      "Ġworkout": 2940,
      "ffe": 2941,
      "Ġshower": 2942,
      "Ġgrass": 2943,
      "Ġcarp": 2944,
      "Ġlightly": 2945,
      "Ġhighlight": 2946,
      "Ġbrew": 2947,
      "Ġjoe": 2948,
      "Ġintrodu": 2949,
      "Ġdesig": 2950,
      "Ġeyebrow": 2951,
      "Ġstays": 2952,
      "ivity": 2953,
      "Ġshoe": 2954,
      "Ġmixing": 2955,
      "Ġmaster": 2956,
      "Ġmeaning": 2957,
      "Ġapplying": 2958,
      "Ġmedical": 2959,
      "Ġpossibly": 2960,
      "Ġblocks": 2961,
      "Ġsched": 2962,
      "Ġengine": 2963,
      "Ġplane": 2964,
      "Ġpatient": 2965,
      "Ġfifteen": 2966,
      "Ġgear": 2967,
      "Ġinternet": 2968,
      "Ġcommunic": 2969,
      "Ġingredients": 2970,
      "Ġvitam": 2971,
      "Ġoptions": 2972,
      "Ġwedding": 2973,
      "Ġaustin": 2974,
      "Ġanswer": 2975,
      "Ġowner": 2976,
      "five": 2977,
      "fact": 2978,
      "iately": 2979,
      "tle": 2980,
      "try": 2981,
      "Ġtough": 2982,
      "inhale": 2983,
      "Ġsou": 2984,
      "Ġsat": 2985,
      "Ġoh": 2986,
      "Ġoily": 2987,
      "Ġbaking": 2988,
      "Ġbounce": 2989,
      "Ġcand": 2990,
      "ero": 2991,
      "ert": 2992,
      "Ġped": 2993,
      "Ġdin": 2994,
      "Ġdre": 2995,
      "Ġdating": 2996,
      "Ġdancing": 2997,
      "though": 2998,
      "ict": 2999,
      "Ġkay": 3000,
      "Ġaside": 3001,
      "Ġabdom": 3002,
      "Ġlitter": 3003,
      "cell": 3004,
      "Ġbackground": 3005,
      "Ġplug": 3006,
      "Ġpliers": 3007,
      "Ġmem": 3008,
      "Ġconcent": 3009,
      "Ġprefer": 3010,
      "Ġoffice": 3011,
      "Ġtook": 3012,
      "Ġfem": 3013,
      "Ġshowed": 3014,
      "Ġyet": 3015,
      "Ġfinding": 3016,
      "Ġadded": 3017,
      "Ġturned": 3018,
      "Ġeasiest": 3019,
      "oli": 3020,
      "Ġtouching": 3021,
      "Ġwindows": 3022,
      "Ġspecifically": 3023,
      "Ġopposed": 3024,
      "welve": 3025,
      "Ġraise": 3026,
      "Ġwait": 3027,
      "Ġbirds": 3028,
      "Ġphotographer": 3029,
      "Ġenglish": 3030,
      "Ġprepare": 3031,
      "Ġissues": 3032,
      "Ġbenefits": 3033,
      "Ġessentially": 3034,
      "Ġanimal": 3035,
      "Ġtotally": 3036,
      "Ġpurchase": 3037,
      "Ġitems": 3038,
      "Ġextremely": 3039,
      "Ġtractor": 3040,
      "Ġimmediately": 3041,
      "lo": 3042,
      "py": 3043,
      "wood": 3044,
      "ye": 3045,
      "Ġtre": 3046,
      "Ġtwelve": 3047,
      "Ġsum": 3048,
      "Ġwand": 3049,
      "Ġwra": 3050,
      "Ġton": 3051,
      "Ġcable": 3052,
      "Ġcott": 3053,
      "ery": 3054,
      "ering": 3055,
      "Ġfan": 3056,
      "Ġloos": 3057,
      "Ġliter": 3058,
      "anch": 3059,
      "ened": 3060,
      "orter": 3061,
      "Ġinit": 3062,
      "Ġnon": 3063,
      "key": 3064,
      "Ġstom": 3065,
      "Ġstamp": 3066,
      "aling": 3067,
      "Ġund": 3068,
      "Ġkitch": 3069,
      "eeper": 3070,
      "aming": 3071,
      "Ġclips": 3072,
      "Ġflav": 3073,
      "Ġsend": 3074,
      "Ġview": 3075,
      "Ġarch": 3076,
      "itional": 3077,
      "Ġcontract": 3078,
      "Ġpercent": 3079,
      "Ġlights": 3080,
      "Ġbreast": 3081,
      "Ġdogs": 3082,
      "Ġzip": 3083,
      "Ġzoom": 3084,
      "Ġindic": 3085,
      "ique": 3086,
      "Ġwooden": 3087,
      "Ġcollect": 3088,
      "Ġstudio": 3089,
      "Ġattached": 3090,
      "Ġliner": 3091,
      "Ġswimming": 3092,
      "Ġinvolved": 3093,
      "Ġmetal": 3094,
      "iliar": 3095,
      "Ġbacon": 3096,
      "Ġlaptop": 3097,
      "Ġmorning": 3098,
      "cr": 3099,
      "fly": 3100,
      "oll": 3101,
      "ost": 3102,
      "set": 3103,
      "Ġounce": 3104,
      "ina": 3105,
      "Ġsan": 3106,
      "Ġir": 3107,
      "Ġwing": 3108,
      "Ġtown": 3109,
      "Ġbi": 3110,
      "Ġcooked": 3111,
      "Ġpep": 3112,
      "Ġpsych": 3113,
      "Ġdeeper": 3114,
      "Ġlab": 3115,
      "thank": 3116,
      "Ġinde": 3117,
      "Ġbeef": 3118,
      "Ġev": 3119,
      "Ġdoctor": 3120,
      "Ġrip": 3121,
      "Ġcanoe": 3122,
      "Ġlim": 3123,
      "start": 3124,
      "ecting": 3125,
      "Ġaspect": 3126,
      "epend": 3127,
      "raid": 3128,
      "abil": 3129,
      "aks": 3130,
      "Ġmeat": 3131,
      "Ġseems": 3132,
      "Ġanyway": 3133,
      "Ġdriving": 3134,
      "Ġblades": 3135,
      "Ġenc": 3136,
      "Ġbud": 3137,
      "nel": 3138,
      "Ġgrad": 3139,
      "Ġstruct": 3140,
      "Ġsets": 3141,
      "Ġ19": 3142,
      "Ġunited": 3143,
      "Ġyeah": 3144,
      "Ġreplace": 3145,
      "Ġcrown": 3146,
      "Ġlipstick": 3147,
      "Ġ30": 3148,
      "Ġweights": 3149,
      "Ġpicked": 3150,
      "Ġcircles": 3151,
      "Ġreasons": 3152,
      "Ġprotection": 3153,
      "Ġclothing": 3154,
      "Ġspinning": 3155,
      "Ġcommand": 3156,
      "Ġthicker": 3157,
      "Ġleaf": 3158,
      "Ġadvanced": 3159,
      "Ġcorrectly": 3160,
      "Ġimprov": 3161,
      "Ġscratch": 3162,
      "Ġscrub": 3163,
      "Ġmagn": 3164,
      "Ġsilver": 3165,
      "ounces": 3166,
      "Ġafraid": 3167,
      "Ġbubbles": 3168,
      "Ġninety": 3169,
      "Ġoriginal": 3170,
      "Ġapplication": 3171,
      "Ġpublic": 3172,
      "Ġmotorc": 3173,
      "Ġtrouble": 3174,
      "Ġkitchen": 3175,
      "cing": 3176,
      "dy": 3177,
      "ged": 3178,
      "lv": 3179,
      "rier": 3180,
      "sl": 3181,
      "son": 3182,
      "ufact": 3183,
      "xas": 3184,
      "yle": 3185,
      "Ġ--": 3186,
      "Ġaid": 3187,
      "inals": 3188,
      "Ġsense": 3189,
      "Ġhors": 3190,
      "Ġgym": 3191,
      "Ġpool": 3192,
      "Ġita": 3193,
      "Ġonion": 3194,
      "Ġshake": 3195,
      "entle": 3196,
      "Ġouter": 3197,
      "Ġneat": 3198,
      "Ġchee": 3199,
      "Ġchoosing": 3200,
      "Ġcoach": 3201,
      "Ġwhenever": 3202,
      "Ġclamp": 3203,
      "Ġtends": 3204,
      "Ġtexas": 3205,
      "Ġpoin": 3206,
      "Ġpocket": 3207,
      "Ġneeded": 3208,
      "Ġconce": 3209,
      "Ġseason": 3210,
      "umes": 3211,
      "Ġotherwise": 3212,
      "Ġbasis": 3213,
      "hey": 3214,
      "Ġprice": 3215,
      "arent": 3216,
      "Ġletter": 3217,
      "Ġqueen": 3218,
      "Ġscale": 3219,
      "Ġski": 3220,
      "Ġcute": 3221,
      "Ġacne": 3222,
      "Ġpulled": 3223,
      "Ġcompl": 3224,
      "Ġdefender": 3225,
      "Ġtelling": 3226,
      "Ġresults": 3227,
      "Ġcurve": 3228,
      "Ġeleven": 3229,
      "Ġsupplies": 3230,
      "Ġinterview": 3231,
      "Ġfits": 3232,
      "Ġsolution": 3233,
      "Ġadvant": 3234,
      "rench": 3235,
      "Ġsubject": 3236,
      "Ġnecessary": 3237,
      "Ġtherapy": 3238,
      "Ġprinting": 3239,
      "Ġmonths": 3240,
      "Ġmultip": 3241,
      "Ġoutfit": 3242,
      "Ġhinge": 3243,
      "Ġconcentr": 3244,
      "Ġstomach": 3245,
      "olley": 3246,
      "ha": 3247,
      "iec": 3248,
      "ker": 3249,
      "many": 3250,
      "nam": 3251,
      "pers": 3252,
      "ring": 3253,
      "rant": 3254,
      "vices": 3255,
      "watch": 3256,
      "yl": 3257,
      "zer": 3258,
      "Ġer": 3259,
      "rent": 3260,
      "Ġba": 3261,
      "Ġbacter": 3262,
      "Ġcage": 3263,
      "Ġgain": 3264,
      "Ġpill": 3265,
      "Ġpants": 3266,
      "Ġlate": 3267,
      "Ġmud": 3268,
      "Ġnar": 3269,
      "Ġonline": 3270,
      "Ġbeach": 3271,
      "asana": 3272,
      "ales": 3273,
      "Ġride": 3274,
      "Ġcock": 3275,
      "apan": 3276,
      "Ġseal": 3277,
      "Ġbrand": 3278,
      "Ġdelic": 3279,
      "Ġletting": 3280,
      "Ġscrap": 3281,
      "Ġtopic": 3282,
      "Ġmanufact": 3283,
      "osing": 3284,
      "Ġ100": 3285,
      "Ġeyel": 3286,
      "Ġbread": 3287,
      "Ġeduc": 3288,
      "Ġoils": 3289,
      "Ġsticking": 3290,
      "Ġexpensive": 3291,
      "Ġrestaur": 3292,
      "Ġdrops": 3293,
      "Ġbeauty": 3294,
      "ribut": 3295,
      "Ġwashing": 3296,
      "Ġespres": 3297,
      "Ġpads": 3298,
      "Ġpaddle": 3299,
      "Ġpictures": 3300,
      "Ġheavier": 3301,
      "Ġgrowing": 3302,
      "Ġdirections": 3303,
      "Ġstudents": 3304,
      "Ġshooting": 3305,
      "Ġmaterials": 3306,
      "Ġbulbs": 3307,
      "Ġinfection": 3308,
      "Ġfifty": 3309,
      "Ġaudience": 3310,
      "Ġhopefully": 3311,
      "Ġprovide": 3312,
      "Ġdropping": 3313,
      "Ġindividual": 3314,
      "Ġabsolutely": 3315,
      "Ġschedule": 3316,
      "cellent": 3317,
      "Ġbudget": 3318,
      "Ġconceal": 3319,
      "Ġespresso": 3320,
      "bit": 3321,
      "cept": 3322,
      "ixt": 3323,
      "met": 3324,
      "Ġtack": 3325,
      "Ġtrop": 3326,
      "Ġturt": 3327,
      "Ġach": 3328,
      "Ġsad": 3329,
      "Ġtong": 3330,
      "Ġbic": 3331,
      "Ġcrab": 3332,
      "Ġhur": 3333,
      "Ġhous": 3334,
      "Ġgentle": 3335,
      "Ġfence": 3336,
      "Ġlat": 3337,
      "lection": 3338,
      "isk": 3339,
      "Ġweb": 3340,
      "Ġstability": 3341,
      "erence": 3342,
      "Ġrhy": 3343,
      "Ġjour": 3344,
      "itter": 3345,
      "Ġheard": 3346,
      "urse": 3347,
      "Ġchoice": 3348,
      "Ġclients": 3349,
      "ortun": 3350,
      "apple": 3351,
      "Ġteles": 3352,
      "Ġflag": 3353,
      "Ġbrid": 3354,
      "Ġvest": 3355,
      "Ġcolored": 3356,
      "Ġyork": 3357,
      "Ġstepping": 3358,
      "Ġcleans": 3359,
      "Ġsauce": 3360,
      "Ġbiggest": 3361,
      "Ġstraighten": 3362,
      "Ġstuck": 3363,
      "Ġfinal": 3364,
      "Ġrepres": 3365,
      "Ġsyn": 3366,
      "Ġcovering": 3367,
      "Ġhoriz": 3368,
      "Ġopportun": 3369,
      "Ġpins": 3370,
      "Ġdealing": 3371,
      "Ġdealer": 3372,
      "Ġsnap": 3373,
      "Ġthickness": 3374,
      "Ġcontinu": 3375,
      "Ġfamiliar": 3376,
      "bring": 3377,
      "Ġcraw": 3378,
      "Ġgloves": 3379,
      "Ġeggs": 3380,
      "Ġmountain": 3381,
      "Ġsplit": 3382,
      "Ġceiling": 3383,
      "Ġsoccer": 3384,
      "Ġmixture": 3385,
      "Ġnapkin": 3386,
      "Ġcotton": 3387,
      "Ġtelesc": 3388,
      ",\"": 3389,
      "aze": 3390,
      "col": 3391,
      "gn": 3392,
      "ging": 3393,
      "give": 3394,
      "ts": 3395,
      "uish": 3396,
      "Ġounces": 3397,
      "Ġtan": 3398,
      "Ġsixt": 3399,
      "Ġcases": 3400,
      "Ġfu": 3401,
      "Ġlens": 3402,
      "thetic": 3403,
      "Ġrich": 3404,
      "verage": 3405,
      "Ġjapan": 3406,
      "Ġsoap": 3407,
      "Ġneut": 3408,
      "Ġfruit": 3409,
      "Ġplaced": 3410,
      "Ġmelt": 3411,
      "Ġhanded": 3412,
      "Ġdevice": 3413,
      "Ġboil": 3414,
      "Ġdrip": 3415,
      "Ġprom": 3416,
      "ought": 3417,
      "Ġamaz": 3418,
      "Ġshell": 3419,
      "Ġdispl": 3420,
      "Ġfiner": 3421,
      "Ġcentered": 3422,
      "ressive": 3423,
      "Ġimages": 3424,
      "Ġcurly": 3425,
      "Ġcompleted": 3426,
      "Ġbags": 3427,
      "Ġcontroll": 3428,
      "Ġdiet": 3429,
      "Ġdesigned": 3430,
      "Ġexercises": 3431,
      "Ġhuge": 3432,
      "Ġnails": 3433,
      "Ġfalling": 3434,
      "Ġscreen": 3435,
      "Ġpatterns": 3436,
      "Ġclassic": 3437,
      "Ġimprove": 3438,
      "Ġmicro": 3439,
      "Ġassist": 3440,
      "Ġlisten": 3441,
      "Ġeventually": 3442,
      "Ġapproach": 3443,
      "Ġreduce": 3444,
      "Ġresearch": 3445,
      "Ġpineapple": 3446,
      "ffeine": 3447,
      "Ġbacteria": 3448,
      "Ġmanufacture": 3449,
      "Ġconcealer": 3450,
      "Ġrhyth": 3451,
      "Ġhorizont": 3452,
      "ae": 3453,
      "lied": 3454,
      "ox": 3455,
      "piec": 3456,
      "sure": 3457,
      "tw": 3458,
      "vot": 3459,
      "water": 3460,
      "Ġtiger": 3461,
      "Ġtoy": 3462,
      "Ġhill": 3463,
      "Ġdirty": 3464,
      "llie": 3465,
      "Ġlas": 3466,
      "oring": 3467,
      "Ġinte": 3468,
      "ising": 3469,
      "Ġnine": 3470,
      "Ġnames": 3471,
      "icles": 3472,
      "ased": 3473,
      "Ġwider": 3474,
      "Ġstem": 3475,
      "Ġsteep": 3476,
      "Ġjacket": 3477,
      "Ġcanvas": 3478,
      "soci": 3479,
      "chet": 3480,
      "Ġlime": 3481,
      "Ġsha": 3482,
      "Ġassoci": 3483,
      "ury": 3484,
      "eption": 3485,
      "Ġspir": 3486,
      "Ġspare": 3487,
      "ulse": 3488,
      "ulated": 3489,
      "Ġanymore": 3490,
      "Ġbump": 3491,
      "Ġlets": 3492,
      "ief": 3493,
      "Ġarom": 3494,
      "osis": 3495,
      "Ġholds": 3496,
      "Ġcrease": 3497,
      "Ġhardware": 3498,
      "ometer": 3499,
      "Ġfunction": 3500,
      "Ġkicking": 3501,
      "Ġjumping": 3502,
      "Ġcurrent": 3503,
      "Ġdetect": 3504,
      "Ġsupposed": 3505,
      "Ġraised": 3506,
      "Ġcatching": 3507,
      "Ġbarrel": 3508,
      "Ġdarker": 3509,
      "Ġteaching": 3510,
      "Ġcaptain": 3511,
      "Ġloops": 3512,
      "Ġtransition": 3513,
      "Ġrocking": 3514,
      "Ġportal": 3515,
      "Ġcountry": 3516,
      "Ġantib": 3517,
      "Ġchanging": 3518,
      "Ġissue": 3519,
      "Ġcircular": 3520,
      "Ġutil": 3521,
      "Ġessential": 3522,
      "Ġcauses": 3523,
      "Ġdangerous": 3524,
      "Ġaccurate": 3525,
      "Ġthousand": 3526,
      "Ġgrocer": 3527,
      "Ġnarrow": 3528,
      "Ġneutral": 3529,
      "bl": 3530,
      "bee": 3531,
      "bby": 3532,
      "coh": 3533,
      "ivers": 3534,
      "ky": 3535,
      "land": 3536,
      "off": 3537,
      "ram": 3538,
      "Ġtab": 3539,
      "Ġtub": 3540,
      "Ġthir": 3541,
      "Ġpatch": 3542,
      "Ġpars": 3543,
      "Ġdice": 3544,
      "Ġlav": 3545,
      "onna": 3546,
      "oms": 3547,
      "icient": 3548,
      "ask": 3549,
      "Ġstir": 3550,
      "acy": 3551,
      "Ġrear": 3552,
      "sec": 3553,
      "Ġshift": 3554,
      "Ġshorter": 3555,
      "Ġmoder": 3556,
      "ura": 3557,
      "ural": 3558,
      "Ġleash": 3559,
      "Ġplain": 3560,
      "Ġplenty": 3561,
      "Ġexf": 3562,
      "Ġputs": 3563,
      "Ġpolish": 3564,
      "why": 3565,
      "while": 3566,
      "tinguish": 3567,
      "Ġdram": 3568,
      "Ġrob": 3569,
      "Ġshouldn": 3570,
      "Ġsliding": 3571,
      "Ġpivot": 3572,
      "osure": 3573,
      "Ġshelf": 3574,
      "Ġperman": 3575,
      "Ġreport": 3576,
      "Ġcardboard": 3577,
      "Ġfunny": 3578,
      "Ġexpect": 3579,
      "Ġdecided": 3580,
      "Ġrelative": 3581,
      "shirt": 3582,
      "Ġpassing": 3583,
      "Ġtense": 3584,
      "Ġfully": 3585,
      "Ġspeak": 3586,
      "Ġstretching": 3587,
      "Ġpotent": 3588,
      "Ġfrench": 3589,
      "Ġtighten": 3590,
      "Ġmeasuring": 3591,
      "Ġolder": 3592,
      "Ġlocation": 3593,
      "Ġpinch": 3594,
      "Ġmeasurement": 3595,
      "Ġpadd": 3596,
      "Ġ45": 3597,
      "Ġallowed": 3598,
      "Ġrounded": 3599,
      "Ġrocks": 3600,
      "Ġclubs": 3601,
      "Ġmoistur": 3602,
      "Ġsounds": 3603,
      "ology": 3604,
      "Ġtraveling": 3605,
      "Ġnutr": 3606,
      "Ġflying": 3607,
      "obviously": 3608,
      "Ġgolden": 3609,
      "Ġbathroom": 3610,
      "Ġmomentum": 3611,
      "Ġplease": 3612,
      "Ġmistake": 3613,
      "Ġhammer": 3614,
      "Ġbirthday": 3615,
      "Ġsports": 3616,
      "Ġurine": 3617,
      "Ġrepeat": 3618,
      "Ġjohn": 3619,
      "Ġrelationship": 3620,
      "Ġcertified": 3621,
      "Ġindex": 3622,
      "Ġachieve": 3623,
      "Ġtongue": 3624,
      "Ġgrocery": 3625,
      "cohol": 3626,
      "Ġthirteen": 3627,
      ".,": 3628,
      "?\"": 3629,
      "ear": 3630,
      "gl": 3631,
      "hip": 3632,
      "nice": 3633,
      "uth": 3634,
      "upp": 3635,
      "Ġtur": 3636,
      "Ġsick": 3637,
      "Ġia": 3638,
      "Ġox": 3639,
      "Ġyoung": 3640,
      "Ġbind": 3641,
      "erry": 3642,
      "Ġhist": 3643,
      "Ġgas": 3644,
      "Ġpump": 3645,
      "Ġfac": 3646,
      "Ġfiber": 3647,
      "ller": 3648,
      "Ġlic": 3649,
      "Ġlad": 3650,
      "onge": 3651,
      "isbee": 3652,
      "Ġhaven": 3653,
      "Ġbeans": 3654,
      "Ġwild": 3655,
      "acked": 3656,
      "Ġrect": 3657,
      "Ġrim": 3658,
      "Ġjaw": 3659,
      "Ġliving": 3660,
      "Ġkid": 3661,
      "Ġsold": 3662,
      "imately": 3663,
      "Ġmother": 3664,
      "Ġfrisbee": 3665,
      "Ġdona": 3666,
      "Ġspades": 3667,
      "Ġexcellent": 3668,
      "Ġteap": 3669,
      "Ġpores": 3670,
      "Ġtwice": 3671,
      "Ġanyone": 3672,
      "Ġseated": 3673,
      "Ġoverhead": 3674,
      "Ġdehydr": 3675,
      "umbs": 3676,
      "Ġbond": 3677,
      "Ġvan": 3678,
      "actually": 3679,
      "Ġgotten": 3680,
      "rought": 3681,
      "Ġbuck": 3682,
      "Ġsudd": 3683,
      "izer": 3684,
      "Ġgrain": 3685,
      "Ġgrows": 3686,
      "Ġacry": 3687,
      "iled": 3688,
      "Ġcompan": 3689,
      "Ġknob": 3690,
      "Ġruns": 3691,
      "Ġpersonally": 3692,
      "Ġquicker": 3693,
      "Ġgiven": 3694,
      "Ġaccent": 3695,
      "Ġchecking": 3696,
      "Ġarts": 3697,
      "Ġfingert": 3698,
      "Ġengage": 3699,
      "Ġvariation": 3700,
      "Ġinfl": 3701,
      "brush": 3702,
      "Ġleader": 3703,
      "Ġhanging": 3704,
      "Ġwoman": 3705,
      "Ġmagic": 3706,
      "Ġstrengthen": 3707,
      "Ġtherapist": 3708,
      "Ġreceive": 3709,
      "Ġjoints": 3710,
      "Ġpaul": 3711,
      "Ġchrist": 3712,
      "Ġtriangle": 3713,
      "Ġ180": 3714,
      "Ġabsorb": 3715,
      "Ġconstant": 3716,
      "Ġpepper": 3717,
      "Ġhorses": 3718,
      "Ġmultiple": 3719,
      "Ġopportunity": 3720,
      "Ġtelescope": 3721,
      "Ġrhythm": 3722,
      "Ġsudden": 3723,
      "Ġacrylic": 3724,
      "20": 3725,
      "bal": 3726,
      "gs": 3727,
      "ken": 3728,
      "po": 3729,
      "press": 3730,
      "tical": 3731,
      "uction": 3732,
      "Ġaverage": 3733,
      "ined": 3734,
      "ination": 3735,
      "inary": 3736,
      "Ġwaste": 3737,
      "Ġol": 3738,
      "Ġollie": 3739,
      "Ġbrought": 3740,
      "Ġcats": 3741,
      "Ġgonna": 3742,
      "Ġfut": 3743,
      "Ġdamp": 3744,
      "Ġdiv": 3745,
      "Ġmine": 3746,
      "Ġmich": 3747,
      "used": 3748,
      "lex": 3749,
      "allel": 3750,
      "Ġrent": 3751,
      "Ġreverse": 3752,
      "Ġracket": 3753,
      "Ġriver": 3754,
      "ster": 3755,
      "Ġsoak": 3756,
      "imum": 3757,
      "roll": 3758,
      "ourage": 3759,
      "Ġcho": 3760,
      "Ġchose": 3761,
      "Ġalign": 3762,
      "Ġtrade": 3763,
      "Ġsponge": 3764,
      "Ġprog": 3765,
      "unately": 3766,
      "Ġconstr": 3767,
      "Ġboots": 3768,
      "Ġvolley": 3769,
      "Ġwherever": 3770,
      "Ġeveryday": 3771,
      "Ġeverywhere": 3772,
      "Ġcomplic": 3773,
      "Ġbottles": 3774,
      "Ġstreet": 3775,
      "Ġtells": 3776,
      "Ġserious": 3777,
      "....": 3778,
      "Ġreps": 3779,
      "mostat": 3780,
      "Ġpracticing": 3781,
      "Ġcovers": 3782,
      "Ġfinishing": 3783,
      "Ġindoor": 3784,
      "tenance": 3785,
      "Ġlocked": 3786,
      "Ġenter": 3787,
      "Ġgarage": 3788,
      "Ġmarks": 3789,
      "Ġmarker": 3790,
      "Ġrefer": 3791,
      "notice": 3792,
      "Ġinsp": 3793,
      "Ġadvice": 3794,
      "Ġtires": 3795,
      "Ġlaw": 3796,
      "Ġcaffeine": 3797,
      "Ġbraid": 3798,
      "Ġbrakes": 3799,
      "Ġconditioning": 3800,
      "Ġbasketball": 3801,
      "Ġstraps": 3802,
      "Ġparallel": 3803,
      "Ġtorso": 3804,
      "Ġcraft": 3805,
      "Ġrequirements": 3806,
      "Ġflexibility": 3807,
      "Ġhearing": 3808,
      "Ġextended": 3809,
      "Ġlogo": 3810,
      "vision": 3811,
      "Ġdentist": 3812,
      "Ġpaid": 3813,
      "Ġ90": 3814,
      "Ġthermostat": 3815,
      "Ġincrease": 3816,
      "Ġbolts": 3817,
      "Ġincorporate": 3818,
      "Ġcarpet": 3819,
      "Ġflavors": 3820,
      "Ġstructure": 3821,
      "Ġsaddle": 3822,
      "Ġlava": 3823,
      "cape": 3824,
      "down": 3825,
      "making": 3826,
      "ns": 3827,
      "par": 3828,
      "tor": 3829,
      "ught": 3830,
      "Ġx": 3831,
      "Ġtrees": 3832,
      "Ġagg": 3833,
      "ining": 3834,
      "inst": 3835,
      "Ġwool": 3836,
      "Ġwrench": 3837,
      "Ġcue": 3838,
      "Ġharn": 3839,
      "Ġpuff": 3840,
      "Ġpipe": 3841,
      "Ġfest": 3842,
      "Ġfitted": 3843,
      "Ġluck": 3844,
      "anut": 3845,
      "Ġgoog": 3846,
      "Ġisol": 3847,
      "Ġnurse": 3848,
      "Ġwea": 3849,
      "ayer": 3850,
      "ache": 3851,
      "Ġreact": 3852,
      "Ġrow": 3853,
      "Ġrate": 3854,
      "Ġrare": 3855,
      "Ġshed": 3856,
      "Ġshim": 3857,
      "Ġshown": 3858,
      "Ġkil": 3859,
      "Ġann": 3860,
      "imeter": 3861,
      "itten": 3862,
      "Ġsomewhat": 3863,
      "Ġcham": 3864,
      "Ġchalk": 3865,
      "Ġchos": 3866,
      "Ġalcohol": 3867,
      "Ġuseful": 3868,
      "Ġtheme": 3869,
      "Ġworked": 3870,
      "Ġtear": 3871,
      "Ġteasp": 3872,
      "Ġseem": 3873,
      "Ġtwisting": 3874,
      "Ġpref": 3875,
      "ument": 3876,
      "Ġvoice": 3877,
      "Ġadap": 3878,
      "Ġpend": 3879,
      "Ġpeanut": 3880,
      "Ġshows": 3881,
      "Ġgroo": 3882,
      "Ġglaze": 3883,
      "Ġaddition": 3884,
      "Ġcars": 3885,
      "Ġthank": 3886,
      "Ġcompost": 3887,
      "Ġapplied": 3888,
      "Ġsticky": 3889,
      "Ġresc": 3890,
      "Ġrealize": 3891,
      "Ġdryer": 3892,
      "Ġproduce": 3893,
      "Ġstands": 3894,
      "Ġcarefully": 3895,
      "Ġkicks": 3896,
      "Ġmedic": 3897,
      "Ġdiagon": 3898,
      "Ġcheap": 3899,
      "Ġfilling": 3900,
      "000": 3901,
      "Ġpunches": 3902,
      "Ġvariations": 3903,
      "Ġcaught": 3904,
      "Ġconditions": 3905,
      "uffle": 3906,
      "Ġsqueezing": 3907,
      "Ġrequires": 3908,
      "Ġchanged": 3909,
      "Ġinstalling": 3910,
      "Ġrotate": 3911,
      "Ġexcept": 3912,
      "Ġstained": 3913,
      "Ġbubble": 3914,
      "Ġsensitive": 3915,
      "Ġcrochet": 3916,
      "Ġpounds": 3917,
      "Ġfeatures": 3918,
      "Ġcontrast": 3919,
      "Ġcheek": 3920,
      "Ġadvantage": 3921,
      "Ġjourn": 3922,
      "Ġsynthetic": 3923,
      "Ġamazing": 3924,
      "Ġdisplay": 3925,
      "Ġhorizontal": 3926,
      "second": 3927,
      "Ġpermanent": 3928,
      "Ġvolleyball": 3929,
      "Ġharness": 3930,
      "Ġteaspoon": 3931,
      "bra": 3932,
      "bling": 3933,
      "iet": 3934,
      "mar": 3935,
      "mill": 3936,
      "pull": 3937,
      "rac": 3938,
      "rical": 3939,
      "typ": 3940,
      "val": 3941,
      "Ġaper": 3942,
      "Ġsouth": 3943,
      "Ġwagon": 3944,
      "Ġbare": 3945,
      "atically": 3946,
      "Ġpupp": 3947,
      "Ġfist": 3948,
      "Ġdur": 3949,
      "Ġgoals": 3950,
      "enge": 3951,
      "Ġthata": 3952,
      "usse": 3953,
      "lete": 3954,
      "icy": 3955,
      "Ġstation": 3956,
      "Ġrust": 3957,
      "Ġrusse": 3958,
      "idence": 3959,
      "Ġshine": 3960,
      "Ġanch": 3961,
      "Ġasse": 3962,
      "odies": 3963,
      "Ġchamp": 3964,
      "Ġnotch": 3965,
      "Ġcopy": 3966,
      "open": 3967,
      "wear": 3968,
      "abet": 3969,
      "icks": 3970,
      "que": 3971,
      "Ġpol": 3972,
      "Ġflame": 3973,
      "Ġoverall": 3974,
      "Ġactiv": 3975,
      "istic": 3976,
      "Ġvint": 3977,
      "Ġdrug": 3978,
      "Ġballoon": 3979,
      "Ġensure": 3980,
      "Ġfoil": 3981,
      "Ġrober": 3982,
      "bell": 3983,
      "Ġhelping": 3984,
      "Ġhelpful": 3985,
      "Ġmanage": 3986,
      "oses": 3987,
      "Ġaddress": 3988,
      "Ġopin": 3989,
      "arsh": 3990,
      "Ġhighest": 3991,
      "Ġstraw": 3992,
      "Ġbreed": 3993,
      "ashes": 3994,
      "Ġsylv": 3995,
      "Ġpainted": 3996,
      "Ġtouches": 3997,
      "Ġlifted": 3998,
      "Ġdecis": 3999,
      "Ġfishing": 4000,
      "Ġstaying": 4001,
      "fortunately": 4002,
      "Ġearth": 4003,
      "Ġremoving": 4004,
      "Ġfrequ": 4005,
      "Ġangry": 4006,
      "Ġboxes": 4007,
      "Ġmiles": 4008,
      "Ġmaintenance": 4009,
      "Ġphoto": 4010,
      "Ġprote": 4011,
      "Ġsteady": 4012,
      "Ġcheer": 4013,
      "Ġbleed": 4014,
      "Ġsalmon": 4015,
      "Ġfalls": 4016,
      "Ġsystems": 4017,
      "Ġmonolog": 4018,
      "Ġgrowth": 4019,
      "Ġreading": 4020,
      "Ġreaching": 4021,
      "Ġprepared": 4022,
      "everything": 4023,
      "Ġchanges": 4024,
      "ifying": 4025,
      "exhale": 4026,
      "Ġversion": 4027,
      "Ġleaning": 4028,
      "Ġchina": 4029,
      "Ġcommunity": 4030,
      "Ġdental": 4031,
      "Ġfrost": 4032,
      "Ġtune": 4033,
      "Ġwarrant": 4034,
      "Ġcabin": 4035,
      "Ġphysical": 4036,
      "Ġtube": 4037,
      "Ġthighs": 4038,
      "Ġdiamond": 4039,
      "Ġdesigner": 4040,
      "Ġfemale": 4041,
      "Ġturtle": 4042,
      "piece": 4043,
      "Ġcompanies": 4044,
      "Ġolive": 4045,
      "Ġfuture": 4046,
      "Ġchoices": 4047,
      "Ġgoogle": 4048,
      "Ġchosen": 4049,
      "Ġaperture": 4050,
      "Ġrussell": 4051,
      "Ġvintage": 4052,
      "Ġsylvia": 4053,
      ").": 4054,
      "aff": 4055,
      "ege": 4056,
      "gener": 4057,
      "mble": 4058,
      "squ": 4059,
      "same": 4060,
      "wing": 4061,
      "ycles": 4062,
      "zor": 4063,
      "Ġvel": 4064,
      "Ġtau": 4065,
      "Ġath": 4066,
      "inally": 4067,
      "Ġbill": 4068,
      "Ġcry": 4069,
      "Ġpor": 4070,
      "Ġpig": 4071,
      "Ġpaste": 4072,
      "Ġpulse": 4073,
      "Ġfal": 4074,
      "Ġded": 4075,
      "Ġdest": 4076,
      "Ġdough": 4077,
      "Ġgoss": 4078,
      "using": 4079,
      "ister": 4080,
      "itical": 4081,
      "Ġweak": 4082,
      "Ġstim": 4083,
      "Ġstap": 4084,
      "Ġstable": 4085,
      "Ġstove": 4086,
      "Ġjer": 4087,
      "ighth": 4088,
      "Ġumb": 4089,
      "Ġlikes": 4090,
      "Ġshark": 4091,
      "Ġsock": 4092,
      "Ġmov": 4093,
      "Ġnotes": 4094,
      "Ġtherefore": 4095,
      "Ġplacing": 4096,
      "Ġtrust": 4097,
      "Ġextinguish": 4098,
      "Ġproced": 4099,
      "Ġconven": 4100,
      "Ġbranch": 4101,
      "umber": 4102,
      "Ġdried": 4103,
      "Ġadult": 4104,
      "inkle": 4105,
      "agne": 4106,
      "Ġquiet": 4107,
      "Ġscal": 4108,
      "Ġscul": 4109,
      "Ġscoop": 4110,
      "Ġskill": 4111,
      "iesel": 4112,
      "Ġstri": 4113,
      "Ġstrips": 4114,
      "ensity": 4115,
      "ensions": 4116,
      "rape": 4117,
      "Ġadds": 4118,
      "Ġopens": 4119,
      "Ġguest": 4120,
      "Ġbasics": 4121,
      "ups": 4122,
      "Ġjudge": 4123,
      "Ġwritten": 4124,
      "Ġunit": 4125,
      "Ġphase": 4126,
      "Ġroller": 4127,
      "Ġcrank": 4128,
      "Ġnature": 4129,
      "bson": 4130,
      "Ġboards": 4131,
      "Ġangles": 4132,
      "Ġcreature": 4133,
      "Ġcollege": 4134,
      "Ġrazor": 4135,
      "Ġstyles": 4136,
      "Ġefficient": 4137,
      "ribe": 4138,
      "Ġdealers": 4139,
      "Ġreflect": 4140,
      "Ġbuttons": 4141,
      "Ġmonit": 4142,
      "Ġinsulation": 4143,
      "Ġhappening": 4144,
      "Ġ50": 4145,
      "Ġconfident": 4146,
      "Ġgroups": 4147,
      "Ġequal": 4148,
      "Ġcrazy": 4149,
      "Ġweeks": 4150,
      "Ġaccessories": 4151,
      "Ġdetails": 4152,
      "Ġclocks": 4153,
      "Ġbroken": 4154,
      "Ġsweat": 4155,
      "imples": 4156,
      "Ġprograms": 4157,
      "Ġanimals": 4158,
      "Ġproport": 4159,
      "Ġcompetition": 4160,
      "Ġsuccessful": 4161,
      "Ġchallenge": 4162,
      "Ġmartial": 4163,
      "Ġresistance": 4164,
      "Ġimagine": 4165,
      "Ġsatur": 4166,
      "Ġdinner": 4167,
      "Ġsummer": 4168,
      "Ġloosen": 4169,
      "Ġliterally": 4170,
      "Ġpointing": 4171,
      "Ġassistant": 4172,
      "Ġmanufacturer": 4173,
      "Ġaroma": 4174,
      "Ġfingertips": 4175,
      "Ġconstantly": 4176,
      "Ġaggressive": 4177,
      "Ġfestiv": 4178,
      "Ġrobert": 4179,
      "generally": 4180,
      "Ġfalse": 4181,
      "ai": 4182,
      "book": 4183,
      "each": 4184,
      "her": 4185,
      "nces": 4186,
      "rit": 4187,
      "rick": 4188,
      "ration": 4189,
      "ries": 4190,
      "sion": 4191,
      "scre": 4192,
      "tive": 4193,
      "wall": 4194,
      "word": 4195,
      "Ġ,": 4196,
      "Ġtact": 4197,
      "Ġaim": 4198,
      "Ġthor": 4199,
      "Ġthumbs": 4200,
      "iner": 4201,
      "oud": 4202,
      "Ġwings": 4203,
      "Ġtold": 4204,
      "Ġbart": 4205,
      "Ġbull": 4206,
      "Ġbought": 4207,
      "Ġcart": 4208,
      "Ġcult": 4209,
      "Ġcateg": 4210,
      "Ġcode": 4211,
      "Ġhen": 4212,
      "Ġhoney": 4213,
      "Ġgel": 4214,
      "Ġpee": 4215,
      "Ġpie": 4216,
      "Ġparent": 4217,
      "Ġfail": 4218,
      "Ġfile": 4219,
      "Ġmul": 4220,
      "Ġmug": 4221,
      "onents": 4222,
      "isp": 4223,
      "icer": 4224,
      "icip": 4225,
      "Ġwhit": 4226,
      "Ġweeds": 4227,
      "Ġstiff": 4228,
      "Ġstabil": 4229,
      "Ġru": 4230,
      "Ġrum": 4231,
      "stre": 4232,
      "stay": 4233,
      "rogen": 4234,
      "Ġupside": 4235,
      "Ġmod": 4236,
      "iforn": 4237,
      "itty": 4238,
      "Ġchip": 4239,
      "Ġnoticed": 4240,
      "Ġalone": 4241,
      "Ġalthough": 4242,
      "weight": 4243,
      "Ġspill": 4244,
      "ablish": 4245,
      "ulum": 4246,
      "Ġclap": 4247,
      "icking": 4248,
      "mpt": 4249,
      "atever": 4250,
      "Ġpoles": 4251,
      "Ġprevious": 4252,
      "whatever": 4253,
      "Ġoffense": 4254,
      "Ġsea": 4255,
      "Ġdriver": 4256,
      "Ġroots": 4257,
      "ager": 4258,
      "Ġsund": 4259,
      "ization": 4260,
      "Ġscen": 4261,
      "Ġcoloring": 4262,
      "Ġtypical": 4263,
      "Ġstrain": 4264,
      "Ġevening": 4265,
      "Ġsale": 4266,
      "force": 4267,
      "avid": 4268,
      "Ġhighly": 4269,
      "Ġdefensive": 4270,
      "Ġposes": 4271,
      "Ġrolls": 4272,
      "amples": 4273,
      "Ġjobs": 4274,
      "Ġresid": 4275,
      "Ġresult": 4276,
      "rican": 4277,
      "Ġsquash": 4278,
      "Ġelim": 4279,
      "Ġsits": 4280,
      "Ġgrease": 4281,
      "Ġelev": 4282,
      "Ġbehav": 4283,
      "Ġbreaks": 4284,
      "Ġlayers": 4285,
      "clock": 4286,
      "ences": 4287,
      "Ġdefinition": 4288,
      "Ġparticularly": 4289,
      "Ġwalls": 4290,
      "Ġridge": 4291,
      "Ġwasher": 4292,
      "Ġremoved": 4293,
      "Ġlost": 4294,
      "Ġbarrier": 4295,
      "Ġflowing": 4296,
      "Ġ40": 4297,
      "Ġexperiment": 4298,
      "Ġleaving": 4299,
      "Ġdistribut": 4300,
      "Ġrecommended": 4301,
      "place": 4302,
      "Ġcaliforn": 4303,
      "Ġeffects": 4304,
      "Ġforehand": 4305,
      "Ġchains": 4306,
      "Ġtrimming": 4307,
      "Ġtriple": 4308,
      "Ġpackage": 4309,
      "Ġsteaming": 4310,
      "Ġconnection": 4311,
      "Ġpanel": 4312,
      "Ġbutterfly": 4313,
      "Ġbedroom": 4314,
      "Ġorganic": 4315,
      "Ġbenefit": 4316,
      "Ġversus": 4317,
      "Ġgirls": 4318,
      "Ġyards": 4319,
      "Ġribbon": 4320,
      "Ġborder": 4321,
      "Ġrespons": 4322,
      "Ġapprox": 4323,
      "Ġdialog": 4324,
      "Ġinclud": 4325,
      "Ġfighting": 4326,
      "Ġtelevision": 4327,
      "Ġfaith": 4328,
      "Ġtraditional": 4329,
      "Ġhighlights": 4330,
      "Ġeyebrows": 4331,
      "Ġcommunication": 4332,
      "yeah": 4333,
      "Ġdelicious": 4334,
      "Ġrestaurant": 4335,
      "Ġhistory": 4336,
      "Ġrectangle": 4337,
      "Ġchamber": 4338,
      "Ġopinion": 4339,
      "Ġmonologue": 4340,
      "Ġtaught": 4341,
      "Ġcryst": 4342,
      "Ġgossip": 4343,
      "Ġscalp": 4344,
      "Ġcalifornia": 4345,
      "bed": 4346,
      "cut": 4347,
      "ception": 4348,
      "cribe": 4349,
      "ded": 4350,
      "four": 4351,
      "hope": 4352,
      "haling": 4353,
      "kind": 4354,
      "pro": 4355,
      "page": 4356,
      "pret": 4357,
      "ses": 4358,
      "ygen": 4359,
      "zen": 4360,
      "Ġaw": 4361,
      "Ġaqu": 4362,
      "inch": 4363,
      "inated": 4364,
      "rew": 4365,
      "Ġsus": 4366,
      "Ġsession": 4367,
      "Ġwake": 4368,
      "Ġwound": 4369,
      "Ġbunk": 4370,
      "atform": 4371,
      "atives": 4372,
      "Ġpap": 4373,
      "Ġpimples": 4374,
      "Ġfitting": 4375,
      "Ġden": 4376,
      "lla": 4377,
      "Ġled": 4378,
      "Ġlun": 4379,
      "Ġlosing": 4380,
      "Ġmc": 4381,
      "Ġmood": 4382,
      "anna": 4383,
      "arse": 4384,
      "ita": 4385,
      "Ġnational": 4386,
      "Ġbell": 4387,
      "Ġwhip": 4388,
      "Ġweed": 4389,
      "Ġweather": 4390,
      "ays": 4391,
      "asion": 4392,
      "Ġeating": 4393,
      "allon": 4394,
      "Ġreel": 4395,
      "Ġrack": 4396,
      "Ġrose": 4397,
      "vert": 4398,
      "aked": 4399,
      "anda": 4400,
      "Ġlives": 4401,
      "Ġshade": 4402,
      "Ġken": 4403,
      "Ġasked": 4404,
      "Ġoutd": 4405,
      "Ġhem": 4406,
      "urity": 4407,
      "Ġcharm": 4408,
      "Ġallerg": 4409,
      "cel": 4410,
      "Ġcoord": 4411,
      "Ġcoarse": 4412,
      "Ġplatform": 4413,
      "ops": 4414,
      "Ġclown": 4415,
      "Ġexam": 4416,
      "apply": 4417,
      "Ġmel": 4418,
      "Ġbron": 4419,
      "Ġknowing": 4420,
      "Ġdemo": 4421,
      "Ġboot": 4422,
      "Ġboiling": 4423,
      "Ġdrum": 4424,
      "Ġhairs": 4425,
      "Ġprior": 4426,
      "Ġencl": 4427,
      "Ġfol": 4428,
      "Ġfear": 4429,
      "Ġslack": 4430,
      "Ġsmok": 4431,
      "uel": 4432,
      "Ġscar": 4433,
      "Ġwasn": 4434,
      "Ġevenly": 4435,
      "Ġcarbon": 4436,
      "Ġsetup": 4437,
      "Ġperf": 4438,
      "Ġknots": 4439,
      "Ġminor": 4440,
      "Ġhits": 4441,
      "Ġexpress": 4442,
      "Ġproperty": 4443,
      "Ġdepth": 4444,
      "Ġsurv": 4445,
      "Ġstretches": 4446,
      "Ġzero": 4447,
      "Ġbegins": 4448,
      "Ġmotions": 4449,
      "Ġdesigns": 4450,
      "going": 4451,
      "Ġgarment": 4452,
      "Ġsalon": 4453,
      "Ġfolded": 4454,
      "Ġcharge": 4455,
      "plant": 4456,
      "Ġsunscre": 4457,
      "Ġplanning": 4458,
      "Ġcalf": 4459,
      "Ġcalm": 4460,
      "Ġtired": 4461,
      "Ġstudy": 4462,
      "Ġstroller": 4463,
      "Ġdrills": 4464,
      "Ġforearm": 4465,
      "Ġcommonly": 4466,
      "Ġprotected": 4467,
      "Ġgardening": 4468,
      "people": 4469,
      "Ġbench": 4470,
      "Ġvideograph": 4471,
      "Ġterr": 4472,
      "Ġafford": 4473,
      "Ġshopping": 4474,
      "Ġshaped": 4475,
      "Ġingredient": 4476,
      "Ġmistakes": 4477,
      "Ġdropped": 4478,
      "Ġestablish": 4479,
      "Ġtherm": 4480,
      "Ġinclude": 4481,
      "Ġremain": 4482,
      "Ġconcerned": 4483,
      "Ġthrown": 4484,
      "Ġsource": 4485,
      "Ġropes": 4486,
      "Ġchalleng": 4487,
      "Ġhydrating": 4488,
      "Ġsleeve": 4489,
      "Ġrules": 4490,
      "Ġvitamins": 4491,
      "Ġmemory": 4492,
      "Ġwrapped": 4493,
      "Ġencourage": 4494,
      "Ġmotorcycle": 4495,
      "Ġcompliment": 4496,
      "Ġmodern": 4497,
      "Ġpotential": 4498,
      "Ġoxygen": 4499,
      "Ġteapot": 4500,
      "point": 4501,
      "Ġcomplicated": 4502,
      "Ġkiln": 4503,
      "Ġchampagne": 4504,
      "Ġathlet": 4505,
      "Ġextinguisher": 4506,
      "Ġthorough": 4507,
      "Ġsunscreen": 4508,
      "bie": 4509,
      "cip": 4510,
      "fire": 4511,
      "ga": 4512,
      "lers": 4513,
      "min": 4514,
      "oot": 4515,
      "pit": 4516,
      "port": 4517,
      "rie": 4518,
      "ued": 4519,
      "uate": 4520,
      "Ġtile": 4521,
      "Ġtumb": 4522,
      "really": 4523,
      "Ġtodd": 4524,
      "inger": 4525,
      "Ġban": 4526,
      "Ġboo": 4527,
      "Ġgap": 4528,
      "Ġgun": 4529,
      "Ġgum": 4530,
      "Ġgage": 4531,
      "Ġgather": 4532,
      "Ġfant": 4533,
      "Ġfancy": 4534,
      "Ġdy": 4535,
      "Ġdot": 4536,
      "Ġdie": 4537,
      "Ġlub": 4538,
      "Ġlands": 4539,
      "Ġlung": 4540,
      "Ġlying": 4541,
      "Ġmast": 4542,
      "Ġmale": 4543,
      "Ġinfect": 4544,
      "Ġbear": 4545,
      "ett": 4546,
      "Ġep": 4547,
      "Ġeighth": 4548,
      "allow": 4549,
      "Ġforms": 4550,
      "Ġking": 4551,
      "Ġkit": 4552,
      "Ġkitty": 4553,
      "Ġanal": 4554,
      "ams": 4555,
      "ament": 4556,
      "Ġability": 4557,
      "Ġhey": 4558,
      "artment": 4559,
      "ilities": 4560,
      "Ġfrag": 4561,
      "Ġcoated": 4562,
      "Ġcoats": 4563,
      "Ġplank": 4564,
      "opard": 4565,
      "Ġtried": 4566,
      "ula": 4567,
      "Ġmeal": 4568,
      "Ġpole": 4569,
      "Ġconcept": 4570,
      "Ġanytime": 4571,
      "Ġoffer": 4572,
      "Ġbracket": 4573,
      "Ġknowled": 4574,
      "Ġdew": 4575,
      "Ġdelete": 4576,
      "uments": 4577,
      "Ġboats": 4578,
      "illa": 4579,
      "Ġvib": 4580,
      "reeze": 4581,
      "Ġpeach": 4582,
      "Ġenem": 4583,
      "Ġfoll": 4584,
      "Ġfelt": 4585,
      "Ġslower": 4586,
      "Ġtops": 4587,
      "Ġskate": 4588,
      "Ġcutters": 4589,
      "ney": 4590,
      "Ġmanual": 4591,
      "Ġcarol": 4592,
      "Ġcomponents": 4593,
      "forward": 4594,
      "Ġknock": 4595,
      "Ġcleaned": 4596,
      "whenever": 4597,
      "Ġfourth": 4598,
      "Ġsecurity": 4599,
      "Ġuncom": 4600,
      "Ġdefend": 4601,
      "Ġdisap": 4602,
      "Ġpositive": 4603,
      "Ġfinally": 4604,
      "Ġrept": 4605,
      "Ġrealtor": 4606,
      "Ġbrushes": 4607,
      "Ġdrying": 4608,
      "Ġobvious": 4609,
      "Ġsurround": 4610,
      "Ġsurpr": 4611,
      "Ġconsum": 4612,
      "udge": 4613,
      "ography": 4614,
      "especially": 4615,
      "Ġpurple": 4616,
      "Ġdiabet": 4617,
      "Ġlevels": 4618,
      "Ġloss": 4619,
      "Ġfilled": 4620,
      "Ġlesson": 4621,
      "Ġeighty": 4622,
      "Ġteacher": 4623,
      "Ġtransl": 4624,
      "Ġdistract": 4625,
      "Ġclearly": 4626,
      "Ġmatches": 4627,
      "Ġinsert": 4628,
      "Ġtricky": 4629,
      "Ġstronger": 4630,
      "Ġcalc": 4631,
      "Ġlazy": 4632,
      "Ġfollowing": 4633,
      "Ġanti": 4634,
      "Ġvisit": 4635,
      "Ġsupporting": 4636,
      "Ġbroad": 4637,
      "Ġnuts": 4638,
      "Ġinvolves": 4639,
      "Ġdecorate": 4640,
      "Ġevents": 4641,
      "Ġutah": 4642,
      "Ġsewing": 4643,
      "Ġamerica": 4644,
      "Ġspending": 4645,
      "Ġconnected": 4646,
      "Ġmechanic": 4647,
      "Ġconsistency": 4648,
      "Ġquarterback": 4649,
      "Ġcells": 4650,
      "Ġidentify": 4651,
      "Ġinstruct": 4652,
      "Ġtomatoes": 4653,
      "Ġdimension": 4654,
      "Ġchemicals": 4655,
      "Ġtreadmill": 4656,
      "Ġvitamin": 4657,
      "Ġkayak": 4658,
      "Ġabdominal": 4659,
      "load": 4660,
      "Ġpsycholog": 4661,
      "Ġpillow": 4662,
      "Ġcockpit": 4663,
      "Ġhouses": 4664,
      "oxide": 4665,
      "two": 4666,
      "Ġintegr": 4667,
      "Ġshaft": 4668,
      "Ġnutrients": 4669,
      "Ġbinding": 4670,
      "Ġdehydrated": 4671,
      "Ġconstruction": 4672,
      "instead": 4673,
      "Ġrescue": 4674,
      "Ġwarranty": 4675,
      "Ġsculp": 4676,
      "Ġproportion": 4677,
      "Ġhenna": 4678,
      "Ġeliminate": 4679,
      "Ġknowledge": 4680,
      "Ġdiabetes": 4681,
      "bage": 4682,
      "cd": 4683,
      "did": 4684,
      "depend": 4685,
      "hee": 4686,
      "ham": 4687,
      "iat": 4688,
      "loy": 4689,
      "mas": 4690,
      "mun": 4691,
      "mail": 4692,
      "oss": 4693,
      "pack": 4694,
      "ried": 4695,
      "rots": 4696,
      "ta": 4697,
      "turn": 4698,
      "tail": 4699,
      "tuce": 4700,
      "vd": 4701,
      "Ġtv": 4702,
      "Ġtill": 4703,
      "Ġago": 4704,
      "reg": 4705,
      "Ġsite": 4706,
      "Ġwish": 4707,
      "Ġtox": 4708,
      "Ġbound": 4709,
      "Ġbands": 4710,
      "Ġbiod": 4711,
      "Ġbodies": 4712,
      "Ġcas": 4713,
      "Ġcakes": 4714,
      "Ġhon": 4715,
      "Ġhyp": 4716,
      "Ġharsh": 4717,
      "Ġgrape": 4718,
      "Ġpest": 4719,
      "Ġpace": 4720,
      "Ġpizz": 4721,
      "Ġfurn": 4722,
      "Ġfuel": 4723,
      "Ġdan": 4724,
      "Ġdull": 4725,
      "Ġdvd": 4726,
      "Ġlump": 4727,
      "Ġmad": 4728,
      "Ġmur": 4729,
      "Ġmull": 4730,
      "Ġmush": 4731,
      "three": 4732,
      "think": 4733,
      "onse": 4734,
      "Ġital": 4735,
      "Ġinvent": 4736,
      "ital": 4737,
      "iture": 4738,
      "Ġbee": 4739,
      "Ġbean": 4740,
      "Ġeu": 4741,
      "Ġstars": 4742,
      "Ġstaff": 4743,
      "Ġrag": 4744,
      "Ġrise": 4745,
      "Ġrings": 4746,
      "Ġjan": 4747,
      "soft": 4748,
      "Ġwanting": 4749,
      "entine": 4750,
      "Ġsofter": 4751,
      "ifting": 4752,
      "iform": 4753,
      "Ġoutline": 4754,
      "Ġheld": 4755,
      "ils": 4756,
      "Ġleopard": 4757,
      "Ġwilling": 4758,
      "Ġcomed": 4759,
      "Ġspa": 4760,
      "Ġflight": 4761,
      "Ġconcre": 4762,
      "Ġanybody": 4763,
      "Ġbite": 4764,
      "Ġsequ": 4765,
      "Ġsevent": 4766,
      "Ġoverl": 4767,
      "Ġpriv": 4768,
      "ished": 4769,
      "Ġbuff": 4770,
      "Ġquad": 4771,
      "Ġscoring": 4772,
      "Ġskip": 4773,
      "Ġyoy": 4774,
      "Ġgrand": 4775,
      "Ġstrateg": 4776,
      "Ġpile": 4777,
      "ogn": 4778,
      "Ġmostly": 4779,
      "Ġappear": 4780,
      "Ġpointed": 4781,
      "Ġuniform": 4782,
      "Ġdisks": 4783,
      "Ġserving": 4784,
      "Ġresin": 4785,
      "Ġresour": 4786,
      "Ġvend": 4787,
      "Ġpositions": 4788,
      "Ġintensity": 4789,
      "Ġcrunch": 4790,
      "Ġdecent": 4791,
      "Ġhomework": 4792,
      "Ġelement": 4793,
      "Ġwires": 4794,
      "Ġnecklace": 4795,
      "Ġresting": 4796,
      "Ġaccept": 4797,
      "Ġindepend": 4798,
      "iquette": 4799,
      "Ġcreative": 4800,
      "Ġmainly": 4801,
      "Ġeffort": 4802,
      "Ġcloves": 4803,
      "Ġgrabbing": 4804,
      "Ġwaiting": 4805,
      "elle": 4806,
      "Ġprints": 4807,
      "Ġprinted": 4808,
      "Ġjean": 4809,
      "does": 4810,
      "Ġbalanced": 4811,
      "Ġlau": 4812,
      "Ġhappened": 4813,
      "Ġfleas": 4814,
      "Ġconflic": 4815,
      "Ġwrists": 4816,
      "Ġpaying": 4817,
      "Ġtemperatures": 4818,
      "Ġvision": 4819,
      "Ġvisual": 4820,
      "ccoli": 4821,
      "Ġbroccoli": 4822,
      "Ġlanding": 4823,
      "Ġdecoration": 4824,
      "Ġdecorative": 4825,
      "Ġscrews": 4826,
      "Ġankles": 4827,
      "Ġrespond": 4828,
      "Ġtotal": 4829,
      "Ġobjects": 4830,
      "Ġvolcan": 4831,
      "Ġhamstr": 4832,
      "Ġtrailer": 4833,
      "Ġalternative": 4834,
      "Ġmissing": 4835,
      "Ġvertical": 4836,
      "Ġprimarily": 4837,
      "Ġautomatically": 4838,
      "Ġfloat": 4839,
      "Ġdeliver": 4840,
      "Ġroping": 4841,
      "ptu": 4842,
      "flow": 4843,
      "Ġetiquette": 4844,
      "Ġsoup": 4845,
      "Ġcandle": 4846,
      "Ġabdominals": 4847,
      "slide": 4848,
      "Ġerr": 4849,
      "Ġtrophy": 4850,
      "Ġbridge": 4851,
      "Ġrepresent": 4852,
      "Ġsixteen": 4853,
      "Ġcontrolled": 4854,
      "Ġlasso": 4855,
      "Ġrelatively": 4856,
      "glass": 4857,
      "Ġturkey": 4858,
      "Ġladies": 4859,
      "Ġmichelle": 4860,
      "Ġdecision": 4861,
      "Ġmonitor": 4862,
      "Ġcategory": 4863,
      "Ġbehavior": 4864,
      "Ġapproximately": 4865,
      "Ġdialogue": 4866,
      "Ġlunge": 4867,
      "Ġvideographer": 4868,
      "Ġsculpture": 4869,
      "Ġfurniture": 4870,
      "Ġmuller": 4871,
      "Ġconcrete": 4872,
      "Ġyoyo": 4873,
      "aid": 4874,
      "bone": 4875,
      "cross": 4876,
      "drop": 4877,
      "david": 4878,
      "either": 4879,
      "food": 4880,
      "has": 4881,
      "ias": 4882,
      "lines": 4883,
      "night": 4884,
      "ners": 4885,
      "ole": 4886,
      "pend": 4887,
      "sim": 4888,
      "since": 4889,
      "ugg": 4890,
      "wart": 4891,
      "zz": 4892,
      "Ġ0": 4893,
      "Ġtour": 4894,
      "Ġtaper": 4895,
      "Ġtug": 4896,
      "Ġace": 4897,
      "Ġauth": 4898,
      "Ġcoo": 4899,
      "Ġcush": 4900,
      "Ġcuff": 4901,
      "Ġcasting": 4902,
      "Ġgeck": 4903,
      "Ġgerm": 4904,
      "Ġpil": 4905,
      "Ġpong": 4906,
      "Ġdue": 4907,
      "Ġlooked": 4908,
      "Ġmac": 4909,
      "Ġmaker": 4910,
      "esh": 4911,
      "itivity": 4912,
      "Ġnone": 4913,
      "icep": 4914,
      "Ġstur": 4915,
      "Ġstones": 4916,
      "Ġretain": 4917,
      "Ġdoors": 4918,
      "Ġracing": 4919,
      "Ġroof": 4920,
      "Ġrisk": 4921,
      "Ġult": 4922,
      "chil": 4923,
      "Ġshare": 4924,
      "Ġshred": 4925,
      "Ġanth": 4926,
      "Ġmoon": 4927,
      "Ġaspar": 4928,
      "amic": 4929,
      "urch": 4930,
      "urance": 4931,
      "thern": 4932,
      "inder": 4933,
      "their": 4934,
      "Ġtricep": 4935,
      "Ġclump": 4936,
      "Ġexisting": 4937,
      "Ġmeant": 4938,
      "Ġworse": 4939,
      "Ġtiming": 4940,
      "things": 4941,
      "pper": 4942,
      "Ġpreviously": 4943,
      "whether": 4944,
      "Ġsean": 4945,
      "Ġbrain": 4946,
      "Ġkept": 4947,
      "Ġactive": 4948,
      "Ġbobby": 4949,
      "ocross": 4950,
      "Ġvary": 4951,
      "Ġbass": 4952,
      "Ġbloom": 4953,
      "Ġadults": 4954,
      "Ġimprom": 4955,
      "Ġimpression": 4956,
      "irect": 4957,
      "agus": 4958,
      "Ġlettuce": 4959,
      "Ġhol": 4960,
      "Ġhobson": 4961,
      "Ġsmash": 4962,
      "Ġscent": 4963,
      "Ġimportance": 4964,
      "otherwise": 4965,
      "osition": 4966,
      "Ġplays": 4967,
      "kets": 4968,
      "Ġcompass": 4969,
      "Ġapple": 4970,
      "aled": 4971,
      "Ġknives": 4972,
      "Ġdisp": 4973,
      "rope": 4974,
      "Ġrespect": 4975,
      "Ġrecogn": 4976,
      "Ġcritical": 4977,
      "Ġsympt": 4978,
      "Ġimmun": 4979,
      "Ġspecies": 4980,
      "Ġze": 4981,
      "Ġcollection": 4982,
      "boy": 4983,
      "Ġmotocross": 4984,
      "Ġlocated": 4985,
      "Ġsegments": 4986,
      "riage": 4987,
      "Ġwashed": 4988,
      "Ġfitness": 4989,
      "Ġstewart": 4990,
      "Ġchew": 4991,
      "Ġstuffed": 4992,
      "Ġhookah": 4993,
      "Ġcookies": 4994,
      "Ġmarked": 4995,
      "Ġjeff": 4996,
      "Ġadvance": 4997,
      "Ġlaura": 4998,
      "Ġfocused": 4999,
      "coming": 5000,
      "Ġbending": 5001,
      "Ġsubtle": 5002,
      "Ġclassroom": 5003,
      "Ġpreparing": 5004,
      "Ġcomputers": 5005,
      "Ġprotects": 5006,
      "Ġthinner": 5007,
      "Ġemail": 5008,
      "Ġthreads": 5009,
      "Ġblended": 5010,
      "Ġgrinder": 5011,
      "Ġtorch": 5012,
      "Ġlined": 5013,
      "Ġvalve": 5014,
      "Ġmasking": 5015,
      "Ġclockwise": 5016,
      "Ġflexible": 5017,
      "Ġcarrying": 5018,
      "Ġcostume": 5019,
      "Ġafrican": 5020,
      "Ġprincip": 5021,
      "Ġmaintaining": 5022,
      "Ġvolume": 5023,
      "Ġsensitivity": 5024,
      "Ġconsistent": 5025,
      "Ġestate": 5026,
      "Ġsparkling": 5027,
      "Ġemploy": 5028,
      "Ġsources": 5029,
      "Ġdiameter": 5030,
      "Ġruler": 5031,
      "Ġdrew": 5032,
      "Ġassociation": 5033,
      "Ġexfoli": 5034,
      "Ġadaptive": 5035,
      "Ġdiagonal": 5036,
      "Ġactivities": 5037,
      "Ġdedic": 5038,
      "Ġmulch": 5039,
      "Ġresidue": 5040,
      "Ġoutdoor": 5041,
      "Ġdynam": 5042,
      "Ġlubric": 5043,
      "Ġenemy": 5044,
      "depending": 5045,
      "Ġvolcano": 5046,
      "chilad": 5047,
      "Ġasparagus": 5048,
      "Ġimpromptu": 5049,
      "aves": 5050,
      "bre": 5051,
      "dem": 5052,
      "find": 5053,
      "fish": 5054,
      "got": 5055,
      "iot": 5056,
      "iable": 5057,
      "joe": 5058,
      "last": 5059,
      "nia": 5060,
      "pensive": 5061,
      "rot": 5062,
      "rup": 5063,
      "Ġtin": 5064,
      "Ġtang": 5065,
      "Ġtatt": 5066,
      "rest": 5067,
      "Ġsen": 5068,
      "Ġsake": 5069,
      "Ġsample": 5070,
      "Ġwines": 5071,
      "Ġtoen": 5072,
      "Ġyouth": 5073,
      "ndar": 5074,
      "Ġbes": 5075,
      "Ġcale": 5076,
      "Ġcyl": 5077,
      "erve": 5078,
      "Ġhar": 5079,
      "Ġhose": 5080,
      "Ġhyd": 5081,
      "Ġgips": 5082,
      "Ġgels": 5083,
      "Ġdat": 5084,
      "Ġdise": 5085,
      "Ġlady": 5086,
      "Ġmail": 5087,
      "arant": 5088,
      "arian": 5089,
      "Ġbevel": 5090,
      "Ġwel": 5091,
      "Ġwig": 5092,
      "acle": 5093,
      "ighb": 5094,
      "Ġuh": 5095,
      "Ġshiny": 5096,
      "Ġshuffle": 5097,
      "Ġkle": 5098,
      "ami": 5099,
      "Ġneighb": 5100,
      "Ġchise": 5101,
      "Ġchances": 5102,
      "Ġchurch": 5103,
      "raw": 5104,
      "Ġlever": 5105,
      "gehee": 5106,
      "Ġspicy": 5107,
      "about": 5108,
      "Ġdownward": 5109,
      "ulations": 5110,
      "aky": 5111,
      "Ġourselves": 5112,
      "Ġconvers": 5113,
      "Ġconno": 5114,
      "Ġprec": 5115,
      "Ġsex": 5116,
      "Ġseed": 5117,
      "Ġseeds": 5118,
      "Ġselection": 5119,
      "Ġbrun": 5120,
      "Ġbrayer": 5121,
      "Ġboy": 5122,
      "Ġven": 5123,
      "Ġvall": 5124,
      "Ġvent": 5125,
      "Ġvict": 5126,
      "Ġsideways": 5127,
      "Ġadh": 5128,
      "Ġimple": 5129,
      "Ġimpact": 5130,
      "Ġpear": 5131,
      "Ġpron": 5132,
      "Ġherbal": 5133,
      "Ġenchilad": 5134,
      "inks": 5135,
      "Ġbudd": 5136,
      "Ġsling": 5137,
      "Ġholly": 5138,
      "iel": 5139,
      "Ġsuck": 5140,
      "berry": 5141,
      "Ġgrout": 5142,
      "enses": 5143,
      "Ġconte": 5144,
      "Ġcontent": 5145,
      "Ġplayed": 5146,
      "Ġpulls": 5147,
      "Ġ12": 5148,
      "Ġperpend": 5149,
      "ketch": 5150,
      "Ġappet": 5151,
      "Ġswirl": 5152,
      "tell": 5153,
      "Ġcouch": 5154,
      "Ġcrew": 5155,
      "Ġbrings": 5156,
      "Ġfourteen": 5157,
      "Ġstream": 5158,
      "Ġhardness": 5159,
      "Ġunique": 5160,
      "airs": 5161,
      "Ġextensions": 5162,
      "Ġserves": 5163,
      "Ġminer": 5164,
      "Ġminus": 5165,
      "Ġbottoms": 5166,
      "Ġdrawn": 5167,
      "Ġresume": 5168,
      "Ġnews": 5169,
      "Ġnewsp": 5170,
      "Ġdrywall": 5171,
      "Ġelastic": 5172,
      "Ġdescribe": 5173,
      "Ġ25": 5174,
      "Ġsymb": 5175,
      "Ġpaints": 5176,
      "Ġafterwards": 5177,
      "Ġobst": 5178,
      "Ġpasses": 5179,
      "Ġpassed": 5180,
      "Ġpassword": 5181,
      "Ġspeaker": 5182,
      "Ġcomplex": 5183,
      "Ġknew": 5184,
      "Ġsorts": 5185,
      "something": 5186,
      "box": 5187,
      "close": 5188,
      "Ġsprings": 5189,
      "Ġtrainer": 5190,
      "Ġtrainers": 5191,
      "Ġhousehold": 5192,
      "Ġmeasured": 5193,
      "Ġfreeze": 5194,
      "Ġfreezer": 5195,
      "Ġrubbing": 5196,
      "Ġsnug": 5197,
      "Ġcommerc": 5198,
      "Ġcooling": 5199,
      "Ġincome": 5200,
      "ification": 5201,
      "Ġjackie": 5202,
      "Ġallowing": 5203,
      "Ġvehicles": 5204,
      "Ġlaid": 5205,
      "Ġflea": 5206,
      "Ġdrinks": 5207,
      "Ġcustomers": 5208,
      "Ġdeeply": 5209,
      "Ġconfused": 5210,
      "Ġconfidence": 5211,
      "Ġdemonstration": 5212,
      "Ġbatteries": 5213,
      "Ġvideos": 5214,
      "Ġapartment": 5215,
      "Ġsharpening": 5216,
      "Ġdeveloped": 5217,
      "Ġelectron": 5218,
      "Ġsituations": 5219,
      "Ġmagaz": 5220,
      "Ġpurposes": 5221,
      "everybody": 5222,
      "Ġstripes": 5223,
      "Ġinstalled": 5224,
      "Ġdamaged": 5225,
      "ounced": 5226,
      "Ġsmells": 5227,
      "Ġterminal": 5228,
      "Ġterminals": 5229,
      "Ġsecurely": 5230,
      "Ġchinese": 5231,
      "Ġwebsites": 5232,
      "Ġagent": 5233,
      "Ġagree": 5234,
      "Ġtissues": 5235,
      "Ġdribbling": 5236,
      "Ġborn": 5237,
      "Ġbecoming": 5238,
      "Ġhuman": 5239,
      "Ġhumor": 5240,
      "Ġseams": 5241,
      "phone": 5242,
      "Ġillustr": 5243,
      "Ġradi": 5244,
      "Ġradio": 5245,
      "Ġinstrument": 5246,
      "Ġtelephone": 5247,
      "Ġcampfire": 5248,
      "Ġgrav": 5249,
      "Ġinjury": 5250,
      "Ġmaximum": 5251,
      "Ġmartin": 5252,
      "Ġmillimeter": 5253,
      "Ġdesigning": 5254,
      "Ġtreble": 5255,
      "crip": 5256,
      "Ġbicycle": 5257,
      "Ġdetector": 5258,
      "Ġutilizing": 5259,
      "Ġpaddling": 5260,
      "Ġfacial": 5261,
      "Ġlicense": 5262,
      "Ġprogress": 5263,
      "Ġlucky": 5264,
      "Ġpreference": 5265,
      "Ġpendulum": 5266,
      "Ġjournals": 5267,
      "Ġpuppy": 5268,
      "Ġdurable": 5269,
      "Ġstationary": 5270,
      "Ġfrequently": 5271,
      "Ġprotein": 5272,
      "Ġumbre": 5273,
      "Ġstrikes": 5274,
      "stream": 5275,
      "hopefully": 5276,
      "Ġmcgehee": 5277,
      "Ġchallenging": 5278,
      "Ġreptile": 5279,
      "Ġbiodiesel": 5280,
      "Ġpizza": 5281,
      "Ġcushion": 5282,
      "Ġpilates": 5283,
      "Ġshredded": 5284,
      "Ġcalendar": 5285,
      "Ġgipson": 5286,
      "Ġchisel": 5287,
      "Ġhollywood": 5288,
      "Ġperpendicular": 5289,
      "Ġsymbol": 5290,
      "bound": 5291,
      "cage": 5292,
      "gee": 5293,
      "grab": 5294,
      "ja": 5295,
      "jo": 5296,
      "kn": 5297,
      "lor": 5298,
      "lar": 5299,
      "nosis": 5300,
      "sa": 5301,
      "su": 5302,
      "uable": 5303,
      "vide": 5304,
      "walk": 5305,
      "yard": 5306,
      "Ġtit": 5307,
      "Ġtast": 5308,
      "Ġtag": 5309,
      "Ġtied": 5310,
      "Ġtables": 5311,
      "Ġax": 5312,
      "Ġthai": 5313,
      "ino": 5314,
      "oul": 5315,
      "Ġsized": 5316,
      "Ġsketch": 5317,
      "Ġocd": 5318,
      "Ġbun": 5319,
      "Ġbars": 5320,
      "atile": 5321,
      "Ġcd": 5322,
      "Ġcel": 5323,
      "erly": 5324,
      "Ġhood": 5325,
      "Ġhats": 5326,
      "Ġgen": 5327,
      "Ġgave": 5328,
      "Ġgina": 5329,
      "Ġpy": 5330,
      "Ġpure": 5331,
      "Ġdut": 5332,
      "Ġlake": 5333,
      "Ġlatch": 5334,
      "Ġmr": 5335,
      "Ġmis": 5336,
      "Ġmal": 5337,
      "Ġmild": 5338,
      "Ġmouse": 5339,
      "Ġinex": 5340,
      "uses": 5341,
      "usion": 5342,
      "leave": 5343,
      "isse": 5344,
      "arms": 5345,
      "itas": 5346,
      "Ġnav": 5347,
      "omnia": 5348,
      "Ġhale": 5349,
      "icial": 5350,
      "ician": 5351,
      "Ġwhisk": 5352,
      "Ġweap": 5353,
      "Ġwedge": 5354,
      "asm": 5355,
      "Ġeast": 5356,
      "Ġwife": 5357,
      "acqu": 5358,
      "acock": 5359,
      "alty": 5360,
      "Ġreward": 5361,
      "Ġrender": 5362,
      "Ġreview": 5363,
      "Ġcanal": 5364,
      "ustry": 5365,
      "sey": 5366,
      "iday": 5367,
      "Ġlie": 5368,
      "Ġshin": 5369,
      "Ġshore": 5370,
      "Ġshaking": 5371,
      "Ġkings": 5372,
      "ado": 5373,
      "iments": 5374,
      "roy": 5375,
      "Ġheating": 5376,
      "uries": 5377,
      "Ġchan": 5378,
      "Ġchame": 5379,
      "ctions": 5380,
      "ards": 5381,
      "Ġplum": 5382,
      "Ġbutt": 5383,
      "Ġtrace": 5384,
      "Ġtrig": 5385,
      "Ġexec": 5386,
      "Ġextern": 5387,
      "akie": 5388,
      "Ġmemb": 5389,
      "Ġteas": 5390,
      "Ġtext": 5391,
      "Ġflies": 5392,
      "Ġflute": 5393,
      "Ġcone": 5394,
      "Ġsem": 5395,
      "Ġsewn": 5396,
      "Ġdebr": 5397,
      "Ġactivity": 5398,
      "Ġboss": 5399,
      "Ġvoc": 5400,
      "Ġvase": 5401,
      "Ġdries": 5402,
      "Ġblot": 5403,
      "Ġblank": 5404,
      "Ġimposs": 5405,
      "Ġparticip": 5406,
      "inkles": 5407,
      "Ġroast": 5408,
      "Ġfeather": 5409,
      "Ġarc": 5410,
      "Ġarg": 5411,
      "never": 5412,
      "Ġyol": 5413,
      "Ġstrange": 5414,
      "osaur": 5415,
      "Ġease": 5416,
      "Ġeaster": 5417,
      "oliate": 5418,
      "Ġshel": 5419,
      "Ġsheets": 5420,
      "Ġguarant": 5421,
      "Ġnoise": 5422,
      "Ġperception": 5423,
      "Ġperoxide": 5424,
      "Ġfootball": 5425,
      "Ġsecret": 5426,
      "Ġhandspr": 5427,
      "Ġunivers": 5428,
      "Ġmini": 5429,
      "Ġpushed": 5430,
      "Ġrepl": 5431,
      "Ġrecre": 5432,
      "Ġrecipe": 5433,
      "Ġclipper": 5434,
      "Ġintake": 5435,
      "Ġdesired": 5436,
      "Ġcareer": 5437,
      "Ġexpand": 5438,
      "Ġexposure": 5439,
      "Ġplanted": 5440,
      "issa": 5441,
      "ggle": 5442,
      "Ġconserv": 5443,
      "Ġindustry": 5444,
      "welcome": 5445,
      "Ġboxing": 5446,
      "Ġmeasurements": 5447,
      "Ġirons": 5448,
      "Ġlob": 5449,
      "Ġbarbie": 5450,
      "Ġtreats": 5451,
      "Ġloved": 5452,
      "Ġmarkers": 5453,
      "Ġreference": 5454,
      "Ġsalad": 5455,
      "Ġmarriage": 5456,
      "acterial": 5457,
      "Ġtesting": 5458,
      "Ġbusy": 5459,
      "Ġdrinking": 5460,
      "Ġclasses": 5461,
      "Ġsqueegee": 5462,
      "Ġsigns": 5463,
      "Ġclimb": 5464,
      "Ġtowels": 5465,
      "Ġessay": 5466,
      "Ġlining": 5467,
      "Ġvaluable": 5468,
      "Ġteams": 5469,
      "swing": 5470,
      "Ġroutine": 5471,
      "Ġpalms": 5472,
      "Ġinternational": 5473,
      "Ġrotation": 5474,
      "Ġcontainers": 5475,
      "Ġmolds": 5476,
      "Ġribcage": 5477,
      "Ġselecting": 5478,
      "Ġboomer": 5479,
      "Ġmessage": 5480,
      "Ġresponse": 5481,
      "Ġninja": 5482,
      "Ġsplash": 5483,
      "Ġoccasion": 5484,
      "Ġcowboy": 5485,
      "Ġcroc": 5486,
      "Ġempty": 5487,
      "Ġthousands": 5488,
      "Ġrelationships": 5489,
      "Ġpotatoes": 5490,
      "Ġsleeves": 5491,
      "Ġintroduce": 5492,
      "Ġwrapping": 5493,
      "Ġaspects": 5494,
      "abilities": 5495,
      "Ġeyeliner": 5496,
      "Ġeducation": 5497,
      "Ġcleansing": 5498,
      "Ġrepresents": 5499,
      "Ġcontinuing": 5500,
      "color": 5501,
      "Ġmicrosoft": 5502,
      "Ġantibacterial": 5503,
      "Ġparsons": 5504,
      "Ġdramatic": 5505,
      "Ġchristmas": 5506,
      "Ġanchor": 5507,
      "Ġassemble": 5508,
      "Ġjersey": 5509,
      "Ġmovie": 5510,
      "Ġsaturated": 5511,
      "Ġbartender": 5512,
      "Ġparents": 5513,
      "Ġsundae": 5514,
      "forcement": 5515,
      "Ġbunker": 5516,
      "Ġsurvive": 5517,
      "Ġthermometer": 5518,
      "Ġathletic": 5519,
      "Ġskateboard": 5520,
      "Ġdisappe": 5521,
      "Ġhypnosis": 5522,
      "Ġoverlap": 5523,
      "Ġresources": 5524,
      "Ġconflict": 5525,
      "Ġhamstrings": 5526,
      "Ġauthor": 5527,
      "Ġsturdy": 5528,
      "Ġanthony": 5529,
      "Ġsymptoms": 5530,
      "Ġzebra": 5531,
      "Ġdynamic": 5532,
      "demo": 5533,
      "Ġtattoo": 5534,
      "Ġvalley": 5535,
      "video": 5536,
      "Ġcelery": 5537,
      "Ġinexpensive": 5538,
      "Ġchamele": 5539,
      "Ġmembers": 5540,
      "Ġdebris": 5541,
      "Ġimpossible": 5542,
      "Ġhandspring": 5543,
      "11": 5544,
      "ael": 5545,
      "crow": 5546,
      "eu": 5547,
      "equ": 5548,
      "gu": 5549,
      "house": 5550,
      "iven": 5551,
      "ians": 5552,
      "know": 5553,
      "lvis": 5554,
      "mit": 5555,
      "push": 5556,
      "paper": 5557,
      "ril": 5558,
      "rance": 5559,
      "riger": 5560,
      "sing": 5561,
      "ties": 5562,
      "wash": 5563,
      "yan": 5564,
      "yond": 5565,
      "Ġ.": 5566,
      "Ġes": 5567,
      "Ġtilt": 5568,
      "inct": 5569,
      "oupage": 5570,
      "resh": 5571,
      "Ġsail": 5572,
      "Ġwal": 5573,
      "Ġwatt": 5574,
      "Ġodd": 5575,
      "Ġcass": 5576,
      "Ġhide": 5577,
      "Ġgib": 5578,
      "Ġgraph": 5579,
      "Ġgallon": 5580,
      "Ġpause": 5581,
      "Ġfilet": 5582,
      "Ġdab": 5583,
      "Ġdumb": 5584,
      "Ġduck": 5585,
      "Ġlust": 5586,
      "Ġlack": 5587,
      "Ġment": 5588,
      "Ġmort": 5589,
      "Ġmaps": 5590,
      "onn": 5591,
      "veen": 5592,
      "itude": 5593,
      "itrogen": 5594,
      "Ġnick": 5595,
      "Ġnerv": 5596,
      "Ġhaz": 5597,
      "Ġhabit": 5598,
      "Ġonions": 5599,
      "icycle": 5600,
      "Ġyours": 5601,
      "Ġeld": 5602,
      "Ġstan": 5603,
      "Ġstack": 5604,
      "utions": 5605,
      "alf": 5606,
      "although": 5607,
      "Ġremed": 5608,
      "Ġrebound": 5609,
      "Ġrand": 5610,
      "Ġrows": 5611,
      "Ġrug": 5612,
      "Ġruss": 5613,
      "antic": 5614,
      "Ġjar": 5615,
      "Ġjail": 5616,
      "Ġcanad": 5617,
      "idered": 5618,
      "Ġship": 5619,
      "Ġshield": 5620,
      "Ġkiss": 5621,
      "Ġkits": 5622,
      "ading": 5623,
      "ecked": 5624,
      "Ġupwards": 5625,
      "Ġash": 5626,
      "ifreeze": 5627,
      "Ġabstr": 5628,
      "geon": 5629,
      "teri": 5630,
      "Ġcopper": 5631,
      "Ġbacking": 5632,
      "Ġbackside": 5633,
      "Ġbackpack": 5634,
      "Ġbackswing": 5635,
      "Ġtray": 5636,
      "Ġtruck": 5637,
      "ulous": 5638,
      "Ġworn": 5639,
      "Ġworms": 5640,
      "Ġtender": 5641,
      "Ġpoor": 5642,
      "Ġpoker": 5643,
      "Ġflaming": 5644,
      "Ġpregn": 5645,
      "Ġseats": 5646,
      "Ġbrief": 5647,
      "illed": 5648,
      "Ġvac": 5649,
      "Ġvine": 5650,
      "Ġbash": 5651,
      "Ġdifferences": 5652,
      "Ġblush": 5653,
      "Ġpelvis": 5654,
      "Ġbug": 5655,
      "Ġbugs": 5656,
      "Ġscall": 5657,
      "Ġarr": 5658,
      "Ġglitter": 5659,
      "Ġmanner": 5660,
      "ola": 5661,
      "Ġcarbo": 5662,
      "iley": 5663,
      "Ġwhoever": 5664,
      "Ġcouldn": 5665,
      "Ġnobody": 5666,
      "Ġunderwear": 5667,
      "Ġlineback": 5668,
      "Ġending": 5669,
      "Ġended": 5670,
      "Ġheads": 5671,
      "Ġcompress": 5672,
      "Ġcomprom": 5673,
      "Ġcompared": 5674,
      "Ġswamp": 5675,
      "Ġholder": 5676,
      "Ġplacement": 5677,
      "Ġsimpl": 5678,
      "Ġcoral": 5679,
      "Ġpresses": 5680,
      "lets": 5681,
      "Ġwrinkles": 5682,
      "Ġunicycle": 5683,
      "ibilities": 5684,
      "Ġserp": 5685,
      "Ġminim": 5686,
      "Ġrepet": 5687,
      "Ġreprodu": 5688,
      "Ġcardio": 5689,
      "Ġthrows": 5690,
      "Ġrealistic": 5691,
      "Ġvet": 5692,
      "Ġintim": 5693,
      "Ġcriss": 5694,
      "Ġcrisp": 5695,
      "Ġpractition": 5696,
      "Ġdecoupage": 5697,
      "shot": 5698,
      "Ġdepartment": 5699,
      "fortable": 5700,
      "Ġjumps": 5701,
      "Ġceramic": 5702,
      "Ġdeterg": 5703,
      "Ġclosely": 5704,
      "Ġaccum": 5705,
      "Ġaccord": 5706,
      "Ġmasks": 5707,
      "Ġindustr": 5708,
      "Ġstyl": 5709,
      "Ġtrained": 5710,
      "Ġwalks": 5711,
      "Ġwarming": 5712,
      "Ġtechnically": 5713,
      "Ġtreating": 5714,
      "Ġblender": 5715,
      "anything": 5716,
      "Ġtailslide": 5717,
      "Ġcontrols": 5718,
      "Ġcookie": 5719,
      "Ġasking": 5720,
      "Ġexperi": 5721,
      "Ġphotographic": 5722,
      "Ġbreaths": 5723,
      "Ġcoolant": 5724,
      "Ġfabulous": 5725,
      "Ġsolutions": 5726,
      "Ġprofile": 5727,
      "Ġrelaxing": 5728,
      "Ġreleasing": 5729,
      "Ġinspect": 5730,
      "Ġinsomnia": 5731,
      "Ġstrongly": 5732,
      "Ġcalip": 5733,
      "Ġfocusing": 5734,
      "Ġshooter": 5735,
      "Ġforest": 5736,
      "Ġburning": 5737,
      "Ġinfant": 5738,
      "Ġemerg": 5739,
      "Ġcounts": 5740,
      "Ġhearts": 5741,
      "Ġleading": 5742,
      "Ġimprovis": 5743,
      "Ġantifreeze": 5744,
      "Ġtorque": 5745,
      "Ġvisible": 5746,
      "Ġ720": 5747,
      "Ġdiscussed": 5748,
      "Ġelectrical": 5749,
      "Ġmouthpiece": 5750,
      "Ġfatig": 5751,
      "Ġfifth": 5752,
      "Ġclosing": 5753,
      "Ġlocks": 5754,
      "Ġlocking": 5755,
      "Ġrequired": 5756,
      "Ġassess": 5757,
      "print": 5758,
      "Ġscissor": 5759,
      "Ġextending": 5760,
      "Ġinternal": 5761,
      "Ġcombinations": 5762,
      "Ġguideline": 5763,
      "Ġsleeping": 5764,
      "Ġafro": 5765,
      "Ġliquor": 5766,
      "Ġcirculation": 5767,
      "Ġversatile": 5768,
      "Ġexciting": 5769,
      "Ġnearby": 5770,
      "Ġsafely": 5771,
      "Ġpostures": 5772,
      "Ġprovides": 5773,
      "Ġstatement": 5774,
      "Ġpurchasing": 5775,
      "Ġblowing": 5776,
      "Ġmechanics": 5777,
      "Ġcompetitive": 5778,
      "Ġcaused": 5779,
      "Ġparking": 5780,
      "Ġrecords": 5781,
      "Ġcabbage": 5782,
      "Ġmiami": 5783,
      "hydrates": 5784,
      "Ġbracelets": 5785,
      "Ġoccurs": 5786,
      "Ġsouthern": 5787,
      "Ġdinosaur": 5788,
      "Ġmember": 5789,
      "Ġstamps": 5790,
      "Ġbreasts": 5791,
      "Ġsolutionz": 5792,
      "Ġconcentrate": 5793,
      "Ġbait": 5794,
      "Ġbailey": 5795,
      "Ġcocktail": 5796,
      "Ġhousing": 5797,
      "Ġcrawling": 5798,
      "Ġsixty": 5799,
      "Ġjapanese": 5800,
      "Ġspirit": 5801,
      "Ġparsley": 5802,
      "Ġvanveen": 5803,
      "Ġrenting": 5804,
      "Ġrarely": 5805,
      "Ġgroove": 5806,
      "marine": 5807,
      "typically": 5808,
      "Ġcabinet": 5809,
      "Ġporcel": 5810,
      "Ġdestroy": 5811,
      "Ġprocedure": 5812,
      "Ġconvenient": 5813,
      "Ġguests": 5814,
      "Ġbullet": 5815,
      "Ġruin": 5816,
      "pretty": 5817,
      "Ġmelissa": 5818,
      "Ġenclosure": 5819,
      "Ġfolks": 5820,
      "Ġperfume": 5821,
      "Ġtumbling": 5822,
      "Ġcarolina": 5823,
      "Ġeurope": 5824,
      "Ġseventy": 5825,
      "simply": 5826,
      "Ġgecko": 5827,
      "Ġtoenails": 5828,
      "Ġconnoisse": 5829,
      "Ġpronounced": 5830,
      "Ġcommercial": 5831,
      "Ġgravity": 5832,
      "Ġumbrella": 5833,
      "Ġconservative": 5834,
      "Ġgibson": 5835,
      "Ġnervous": 5836,
      "Ġelderly": 5837,
      "Ġrandom": 5838,
      "Ġabstract": 5839,
      "Ġdetergent": 5840,
      "Ġporcelain": 5841,
      "Ġconnoisseur": 5842,
      "40": 5843,
      "50": 5844,
      "band": 5845,
      "bur": 5846,
      "bott": 5847,
      "cular": 5848,
      "dr": 5849,
      "den": 5850,
      "diff": 5851,
      "field": 5852,
      "hin": 5853,
      "hill": 5854,
      "li": 5855,
      "lim": 5856,
      "mers": 5857,
      "mare": 5858,
      "mix": 5859,
      "non": 5860,
      "nic": 5861,
      "nut": 5862,
      "noon": 5863,
      "number": 5864,
      "oors": 5865,
      "part": 5866,
      "pract": 5867,
      "ru": 5868,
      "rome": 5869,
      "rate": 5870,
      "tip": 5871,
      "under": 5872,
      "uary": 5873,
      "vals": 5874,
      "ww": 5875,
      "Ġtask": 5876,
      "Ġticks": 5877,
      "Ġthreat": 5878,
      "infect": 5879,
      "ounder": 5880,
      "Ġtheater": 5881,
      "Ġsne": 5882,
      "Ġwest": 5883,
      "Ġwok": 5884,
      "Ġwww": 5885,
      "Ġod": 5886,
      "Ġoce": 5887,
      "Ġtoys": 5888,
      "ndament": 5889,
      "Ġboun": 5890,
      "Ġcact": 5891,
      "Ġcrap": 5892,
      "Ġcub": 5893,
      "Ġcrop": 5894,
      "Ġgau": 5895,
      "Ġpale": 5896,
      "Ġpork": 5897,
      "Ġpony": 5898,
      "Ġfarm": 5899,
      "Ġfaces": 5900,
      "Ġfakie": 5901,
      "Ġdand": 5902,
      "Ġdots": 5903,
      "Ġdump": 5904,
      "Ġlunch": 5905,
      "Ġloud": 5906,
      "Ġmer": 5907,
      "Ġmats": 5908,
      "Ġmature": 5909,
      "orage": 5910,
      "orary": 5911,
      "Ġinse": 5912,
      "user": 5913,
      "left": 5914,
      "ison": 5915,
      "isco": 5916,
      "itect": 5917,
      "itives": 5918,
      "Ġnood": 5919,
      "Ġnunch": 5920,
      "Ġnitrogen": 5921,
      "omy": 5922,
      "kew": 5923,
      "Ġhay": 5924,
      "iction": 5925,
      "Ġbeyond": 5926,
      "eties": 5927,
      "Ġstorage": 5928,
      "acity": 5929,
      "utter": 5930,
      "almost": 5931,
      "Ġdoc": 5932,
      "Ġrating": 5933,
      "Ġracqu": 5934,
      "Ġjog": 5935,
      "Ġjunk": 5936,
      "check": 5937,
      "change": 5938,
      "Ġkung": 5939,
      "stop": 5940,
      "Ġorient": 5941,
      "rol": 5942,
      "Ġupgr": 5943,
      "eeze": 5944,
      "amm": 5945,
      "ured": 5946,
      "uren": 5947,
      "Ġchap": 5948,
      "Ġchoke": 5949,
      "Ġframes": 5950,
      "Ġleag": 5951,
      "terior": 5952,
      "Ġcoars": 5953,
      "ipt": 5954,
      "Ġbacks": 5955,
      "Ġspider": 5956,
      "ulty": 5957,
      "Ġcla": 5958,
      "Ġclog": 5959,
      "Ġclasp": 5960,
      "Ġexamples": 5961,
      "Ġneedles": 5962,
      "Ġflick": 5963,
      "Ġsealed": 5964,
      "Ġdev": 5965,
      "Ġdean": 5966,
      "Ġacts": 5967,
      "Ġactors": 5968,
      "Ġboa": 5969,
      "Ġbonds": 5970,
      "Ġviny": 5971,
      "Ġkeeper": 5972,
      "Ġblond": 5973,
      "Ġblows": 5974,
      "Ġdifferently": 5975,
      "Ġparting": 5976,
      "Ġhero": 5977,
      "Ġherbs": 5978,
      "Ġslides": 5979,
      "Ġslices": 5980,
      "ypt": 5981,
      "Ġscare": 5982,
      "Ġscient": 5983,
      "Ġscroll": 5984,
      "Ġskull": 5985,
      "Ġwatering": 5986,
      "Ġglow": 5987,
      "Ġpierc": 5988,
      "Ġcontour": 5989,
      "Ġmanip": 5990,
      "Ġlegal": 5991,
      "ended": 5992,
      "move": 5993,
      "Ġcarrier": 5994,
      "Ġsettle": 5995,
      "Ġlighten": 5996,
      "Ġcompare": 5997,
      "Ġswiss": 5998,
      "Ġjud": 5999,
      "Ġunf": 6000,
      "Ġunfortunately": 6001,
      "Ġdisinfect": 6002,
      "Ġservices": 6003,
      "Ġhimself": 6004,
      "Ġstunt": 6005,
      "Ġbuyer": 6006,
      "Ġfung": 6007,
      "Ġglasses": 6008,
      "Ġcrust": 6009,
      "Ġexpression": 6010,
      "Ġtouched": 6011,
      "Ġafternoon": 6012,
      "Ġsurger": 6013,
      "Ġflatten": 6014,
      "Ġfuller": 6015,
      "Ġconsidered": 6016,
      "Ġeleg": 6017,
      "Ġregulations": 6018,
      "Ġpotty": 6019,
      "Ġzop": 6020,
      "Ġfreest": 6021,
      "Ġindirect": 6022,
      "Ġindoors": 6023,
      "Ġtighter": 6024,
      "Ġairpl": 6025,
      "both": 6026,
      "Ġmotiv": 6027,
      "Ġpops": 6028,
      "Ġcombine": 6029,
      "Ġmedia": 6030,
      "Ġchef": 6031,
      "Ġstuffing": 6032,
      "Ġstopping": 6033,
      "Ġtreated": 6034,
      "Ġbleach": 6035,
      "Ġmassaging": 6036,
      "anyway": 6037,
      "Ġrefract": 6038,
      "Ġrefriger": 6039,
      "Ġphotographing": 6040,
      "Ġeighteen": 6041,
      "Ġdistinct": 6042,
      "Ġincred": 6043,
      "ificant": 6044,
      "Ġreleased": 6045,
      "Ġpowerful": 6046,
      "Ġstudent": 6047,
      "Ġlauren": 6048,
      "Ġapril": 6049,
      "Ġvarieties": 6050,
      "Ġsmoothly": 6051,
      "Ġforehead": 6052,
      "Ġsubst": 6053,
      "Ġsubmarine": 6054,
      "Ġhooping": 6055,
      "Ġconditioner": 6056,
      "Ġtoothbrush": 6057,
      "Ġsignificant": 6058,
      "Ġemot": 6059,
      "Ġmatte": 6060,
      "Ġantique": 6061,
      "Ġgrinding": 6062,
      "Ġdeveloper": 6063,
      "Ġdiscussing": 6064,
      "Ġhanger": 6065,
      "Ġconnecting": 6066,
      "Ġclosest": 6067,
      "Ġentirely": 6068,
      "Ġpenalty": 6069,
      "Ġpersonality": 6070,
      "pray": 6071,
      "Ġgeography": 6072,
      "Ġsilent": 6073,
      "Ġcreamy": 6074,
      "Ġshrug": 6075,
      "Ġcamel": 6076,
      "Ġunderstanding": 6077,
      "Ġexcuse": 6078,
      "Ġthoughts": 6079,
      "Ġchopped": 6080,
      "Ġmounting": 6081,
      "Ġshadows": 6082,
      "Ġmethods": 6083,
      "Ġexplained": 6084,
      "Ġoriginally": 6085,
      "Ġvolt": 6086,
      "Ġmulti": 6087,
      "Ġburnt": 6088,
      "Ġfrozen": 6089,
      "Ġhumid": 6090,
      "Ġalternating": 6091,
      "Ġdigital": 6092,
      "Ġpublish": 6093,
      "Ġparker": 6094,
      "Ġsparks": 6095,
      "Ġfeeding": 6096,
      "Ġillness": 6097,
      "Ġhinges": 6098,
      "Ġconcern": 6099,
      "Ġconcerns": 6100,
      "Ġdragon": 6101,
      "Ġaccuracy": 6102,
      "Ġemphas": 6103,
      "Ġprimer": 6104,
      "Ġautomatic": 6105,
      "Ġinjuries": 6106,
      "Ġjohanna": 6107,
      "Ġmillion": 6108,
      "Ġetc": 6109,
      "Ġbrewing": 6110,
      "Ġintroduction": 6111,
      "erole": 6112,
      "Ġdream": 6113,
      "Ġunders": 6114,
      "Ġarchitect": 6115,
      "Ġindicates": 6116,
      "Ġirrit": 6117,
      "having": 6118,
      "Ġrestaurants": 6119,
      "Ġcrawl": 6120,
      "Ġfundament": 6121,
      "Ġsteeping": 6122,
      "Ġassociated": 6123,
      "Ġutilize": 6124,
      "Ġexfoliate": 6125,
      "Ġbuckle": 6126,
      "Ġshimmy": 6127,
      "Ġgrooves": 6128,
      "Ġmedicine": 6129,
      "Ġbleeding": 6130,
      "squeeze": 6131,
      "Ġsocks": 6132,
      "Ġfestival": 6133,
      "Ġscene": 6134,
      "probably": 6135,
      "Ġbronzer": 6136,
      "Ġexpressions": 6137,
      "Ġgums": 6138,
      "Ġlungs": 6139,
      "Ġuncomfortable": 6140,
      "Ġhonest": 6141,
      "Ġitalian": 6142,
      "Ġprivate": 6143,
      "Ġappearance": 6144,
      "Ġvendors": 6145,
      "Ġindependent": 6146,
      "Ġimmune": 6147,
      "Ġdata": 6148,
      "Ġwelcome": 6149,
      "Ġklein": 6150,
      "Ġneighbor": 6151,
      "Ġnewspaper": 6152,
      "Ġmartini": 6153,
      "cription": 6154,
      "Ġtrigger": 6155,
      "Ġexternal": 6156,
      "Ġsemi": 6157,
      "Ġcasserole": 6158,
      "Ġdumbbell": 6159,
      "Ġmortg": 6160,
      "Ġcarbohydrates": 6161,
      "Ġserpentine": 6162,
      "Ġaccording": 6163,
      "Ġocean": 6164,
      "Ġcactus": 6165,
      "Ġinsect": 6166,
      "Ġnunchuck": 6167,
      "Ġracquet": 6168,
      "Ġairplane": 6169,
      "cro": 6170,
      "cur": 6171,
      "draw": 6172,
      "eight": 6173,
      "fin": 6174,
      "gy": 6175,
      "gle": 6176,
      "gae": 6177,
      "gypt": 6178,
      "his": 6179,
      "hood": 6180,
      "lock": 6181,
      "ma": 6182,
      "mone": 6183,
      "nger": 6184,
      "oft": 6185,
      "pat": 6186,
      "pies": 6187,
      "poon": 6188,
      "sm": 6189,
      "say": 6190,
      "unt": 6191,
      "uage": 6192,
      "van": 6193,
      "will": 6194,
      "xed": 6195,
      "zes": 6196,
      "Ġq": 6197,
      "Ġamp": 6198,
      "Ġages": 6199,
      "Ġthro": 6200,
      "rease": 6201,
      "Ġtheory": 6202,
      "Ġsight": 6203,
      "Ġsoo": 6204,
      "Ġsif": 6205,
      "Ġicon": 6206,
      "Ġward": 6207,
      "yout": 6208,
      "Ġyounger": 6209,
      "ndrome": 6210,
      "Ġbust": 6211,
      "atory": 6212,
      "Ġcrow": 6213,
      "Ġhus": 6214,
      "Ġginger": 6215,
      "Ġpers": 6216,
      "Ġfib": 6217,
      "Ġding": 6218,
      "Ġdav": 6219,
      "Ġdave": 6220,
      "Ġandrew": 6221,
      "Ġlang": 6222,
      "Ġlats": 6223,
      "Ġlashes": 6224,
      "Ġmile": 6225,
      "Ġmash": 6226,
      "Ġmales": 6227,
      "thy": 6228,
      "thus": 6229,
      "Ġgogg": 6230,
      "esome": 6231,
      "lebr": 6232,
      "isy": 6233,
      "ario": 6234,
      "itals": 6235,
      "Ġnil": 6236,
      "Ġnyl": 6237,
      "Ġnicer": 6238,
      "ico": 6239,
      "Ġbends": 6240,
      "asive": 6241,
      "Ġeaves": 6242,
      "Ġegypt": 6243,
      "Ġwiggle": 6244,
      "acting": 6245,
      "alon": 6246,
      "Ġrein": 6247,
      "Ġrely": 6248,
      "erent": 6249,
      "Ġrom": 6250,
      "Ġratch": 6251,
      "Ġjim": 6252,
      "Ġshock": 6253,
      "Ġshifting": 6254,
      "Ġkar": 6255,
      "adays": 6256,
      "Ġsocket": 6257,
      "Ġupward": 6258,
      "eem": 6259,
      "Ġoutward": 6260,
      "Ġoutdo": 6261,
      "aint": 6262,
      "Ġchecked": 6263,
      "Ġfrizz": 6264,
      "Ġfrustr": 6265,
      "geous": 6266,
      "ceed": 6267,
      "Ġmyrick": 6268,
      "Ġtrib": 6269,
      "Ġtrash": 6270,
      "Ġtruth": 6271,
      "Ġspaces": 6272,
      "ules": 6273,
      "ulating": 6274,
      "Ġclin": 6275,
      "Ġclove": 6276,
      "Ġclues": 6277,
      "Ġexterior": 6278,
      "Ġworst": 6279,
      "Ġpoly": 6280,
      "Ġflatter": 6281,
      "Ġflows": 6282,
      "Ġflounder": 6283,
      "Ġconcl": 6284,
      "Ġconvert": 6285,
      "Ġseas": 6286,
      "Ġbrow": 6287,
      "Ġbrad": 6288,
      "Ġbrands": 6289,
      "Ġovercome": 6290,
      "Ġdevices": 6291,
      "Ġactions": 6292,
      "umin": 6293,
      "ummy": 6294,
      "Ġboas": 6295,
      "Ġdrives": 6296,
      "Ġgotta": 6297,
      "Ġblad": 6298,
      "Ġblah": 6299,
      "Ġadmin": 6300,
      "Ġimpress": 6301,
      "Ġpeg": 6302,
      "Ġprone": 6303,
      "Ġproof": 6304,
      "ires": 6305,
      "Ġenlar": 6306,
      "Ġenforcement": 6307,
      "Ġfellow": 6308,
      "Ġslop": 6309,
      "Ġslab": 6310,
      "Ġslap": 6311,
      "Ġsmith": 6312,
      "izers": 6313,
      "izzy": 6314,
      "Ġyarn": 6315,
      "Ġgran": 6316,
      "Ġgrid": 6317,
      "Ġgrade": 6318,
      "Ġimportantly": 6319,
      "Ġclew": 6320,
      "Ġcalling": 6321,
      "Ġmango": 6322,
      "Ġmaneu": 6323,
      "Ġadditional": 6324,
      "Ġshears": 6325,
      "Ġmoved": 6326,
      "Ġperm": 6327,
      "otted": 6328,
      "Ġpretend": 6329,
      "Ġfootage": 6330,
      "Ġfootwork": 6331,
      "Ġhighway": 6332,
      "Ġcreme": 6333,
      "Ġcrevices": 6334,
      "Ġcorro": 6335,
      "Ġbreve": 6336,
      "Ġopened": 6337,
      "ibles": 6338,
      "Ġphob": 6339,
      "Ġdisabilities": 6340,
      "Ġextract": 6341,
      "Ġminimum": 6342,
      "Ġrolled": 6343,
      "Ġcenters": 6344,
      "Ġjoin": 6345,
      "Ġhalfway": 6346,
      "ricia": 6347,
      "Ġfunnel": 6348,
      "Ġrecover": 6349,
      "Ġclippers": 6350,
      "Ġproduction": 6351,
      "Ġsquad": 6352,
      "Ġintense": 6353,
      "Ġcrush": 6354,
      "Ġcrash": 6355,
      "Ġcruc": 6356,
      "Ġexposed": 6357,
      "Ġsyndrome": 6358,
      "Ġgreens": 6359,
      "Ġobl": 6360,
      "Ġattract": 6361,
      "Ġrelated": 6362,
      "Ġpicks": 6363,
      "Ġnative": 6364,
      "Ġconsult": 6365,
      "Ġfarther": 6366,
      "Ġlargest": 6367,
      "Ġregard": 6368,
      "Ġregist": 6369,
      "Ġpotting": 6370,
      "Ġzap": 6371,
      "Ġsupple": 6372,
      "clean": 6373,
      "Ġinterior": 6374,
      "Ġintervals": 6375,
      "Ġmixer": 6376,
      "Ġcomfortably": 6377,
      "Ġtightly": 6378,
      "Ġbeginner": 6379,
      "Ġwoods": 6380,
      "Ġraft": 6381,
      "Ġstyling": 6382,
      "Ġdiag": 6383,
      "Ġdiving": 6384,
      "rior": 6385,
      "Ġblocking": 6386,
      "Ġbuilds": 6387,
      "Ġtreatments": 6388,
      "Ġtabletop": 6389,
      "Ġspins": 6390,
      "Ġentry": 6391,
      "Ġformal": 6392,
      "Ġsurfaces": 6393,
      "Ġwaves": 6394,
      "Ġsnout": 6395,
      "Ġsnack": 6396,
      "Ġrefere": 6397,
      "Ġreflection": 6398,
      "Ġreflex": 6399,
      "Ġcooker": 6400,
      "Ġcommands": 6401,
      "Ġcapable": 6402,
      "Ġfolds": 6403,
      "Ġclearwater": 6404,
      "Ġcooler": 6405,
      "Ġfastest": 6406,
      "Ġdirector": 6407,
      "Ġcalves": 6408,
      "Ġrounds": 6409,
      "Ġpunching": 6410,
      "Ġfactor": 6411,
      "Ġreadily": 6412,
      "Ġdrilling": 6413,
      "ucked": 6414,
      "nov": 6415,
      "Ġtoothp": 6416,
      "Ġmatt": 6417,
      "Ġmirrors": 6418,
      "Ġblending": 6419,
      "Ġhangover": 6420,
      "Ġaccessory": 6421,
      "Ġdifficulty": 6422,
      "Ġselling": 6423,
      "Ġspecialty": 6424,
      "Ġspecialize": 6425,
      "Ġassign": 6426,
      "proof": 6427,
      "switch": 6428,
      "Ġsnowman": 6429,
      "everyone": 6430,
      "Ġaffili": 6431,
      "Ġfavorites": 6432,
      "Ġabscess": 6433,
      "Ġcosts": 6434,
      "Ġcostumes": 6435,
      "Ġeggplant": 6436,
      "Ġbeneficial": 6437,
      "augh": 6438,
      "Ġ60": 6439,
      "Ġsewer": 6440,
      "Ġdrainage": 6441,
      "Ġselected": 6442,
      "Ġcelebr": 6443,
      "Ġratio": 6444,
      "Ġburrow": 6445,
      "Ġmechanical": 6446,
      "Ġalternate": 6447,
      "Ġeffectively": 6448,
      "Ġsocial": 6449,
      "Ġchris": 6450,
      "Ġphysician": 6451,
      "Ġrepeats": 6452,
      "Ġrepairs": 6453,
      "Ġoperation": 6454,
      "Ġartists": 6455,
      "Ġfriendly": 6456,
      "Ġcommunicate": 6457,
      "Ġinitiate": 6458,
      "Ġflavored": 6459,
      "Ġviewer": 6460,
      "crib": 6461,
      "Ġsanit": 6462,
      "Ġlimit": 6463,
      "Ġlimited": 6464,
      "Ġgraduate": 6465,
      "Ġscrape": 6466,
      "Ġtropical": 6467,
      "Ġflags": 6468,
      "Ġcleanser": 6469,
      "Ġmountains": 6470,
      "Ġlenses": 6471,
      "Ġintell": 6472,
      "Ġtabs": 6473,
      "Ġvanilla": 6474,
      "Ġstrengthening": 6475,
      "Ġinspired": 6476,
      "Ġreaction": 6477,
      "type": 6478,
      "Ġvelcro": 6479,
      "Ġstimulate": 6480,
      "Ġdealership": 6481,
      "Ġfestivals": 6482,
      "Ġstrainer": 6483,
      "Ġcrystal": 6484,
      "Ġawesome": 6485,
      "Ġsmoking": 6486,
      "Ġremaining": 6487,
      "Ġfantastic": 6488,
      "Ġlandscape": 6489,
      "Ġinfected": 6490,
      "Ġanaly": 6491,
      "Ġinstructor": 6492,
      "Ġpsychologist": 6493,
      "Ġinvented": 6494,
      "Ġerror": 6495,
      "Ġdedicated": 6496,
      "Ġcylinder": 6497,
      "Ġprecise": 6498,
      "Ġbruni": 6499,
      "Ġimplement": 6500,
      "Ġminerals": 6501,
      "Ġmagazines": 6502,
      "Ġtablespoon": 6503,
      "Ġuniversity": 6504,
      "Ġrepetition": 6505,
      "Ġintimid": 6506,
      "Ġemergency": 6507,
      "bottoms": 6508,
      "different": 6509,
      "practice": 6510,
      "Ġbouncing": 6511,
      "Ġupgrade": 6512,
      "Ġleague": 6513,
      "Ġvinyl": 6514,
      "Ġsurgery": 6515,
      "Ġelegant": 6516,
      "Ġrefrigerator": 6517,
      "Ġthroat": 6518,
      "Ġandrews": 6519,
      "Ġlanguage": 6520,
      "Ġgoggles": 6521,
      "Ġnylon": 6522,
      "Ġratchet": 6523,
      "Ġoutdoors": 6524,
      "Ġtribal": 6525,
      "Ġcrucial": 6526,
      "ben": 6527,
      "bow": 6528,
      "bro": 6529,
      "bul": 6530,
      "cap": 6531,
      "corn": 6532,
      "dic": 6533,
      "ders": 6534,
      "finally": 6535,
      "iated": 6536,
      "jab": 6537,
      "ls": 6538,
      "lids": 6539,
      "mat": 6540,
      "mother": 6541,
      "mails": 6542,
      "nes": 6543,
      "pass": 6544,
      "produ": 6545,
      "parent": 6546,
      "sc": 6547,
      "sal": 6548,
      "till": 6549,
      "uals": 6550,
      "vine": 6551,
      "vable": 6552,
      "win": 6553,
      "wow": 6554,
      "would": 6555,
      "wire": 6556,
      "yc": 6557,
      "yer": 6558,
      "yal": 6559,
      "zky": 6560,
      "Ġ[": 6561,
      "Ġought": 6562,
      "Ġted": 6563,
      "Ġtut": 6564,
      "Ġtil": 6565,
      "Ġtick": 6566,
      "Ġtaut": 6567,
      "Ġtarp": 6568,
      "Ġtucked": 6569,
      "rec": 6570,
      "real": 6571,
      "reach": 6572,
      "reitas": 6573,
      "Ġsab": 6574,
      "Ġswell": 6575,
      "Ġsamples": 6576,
      "Ġskew": 6577,
      "Ġwise": 6578,
      "ndry": 6579,
      "inge": 6580,
      "Ġbang": 6581,
      "Ġbaked": 6582,
      "ators": 6583,
      "Ġcure": 6584,
      "Ġcil": 6585,
      "Ġcich": 6586,
      "Ġcav": 6587,
      "Ġcape": 6588,
      "Ġcric": 6589,
      "Ġcycle": 6590,
      "erk": 6591,
      "eras": 6592,
      "Ġhooked": 6593,
      "Ġhung": 6594,
      "Ġgin": 6595,
      "Ġgir": 6596,
      "Ġpant": 6597,
      "Ġply": 6598,
      "Ġpod": 6599,
      "Ġpist": 6600,
      "Ġfet": 6601,
      "Ġfool": 6602,
      "Ġfumes": 6603,
      "Ġferry": 6604,
      "Ġfoul": 6605,
      "Ġdunk": 6606,
      "llip": 6607,
      "Ġlare": 6608,
      "Ġlint": 6609,
      "Ġlinks": 6610,
      "Ġmural": 6611,
      "ona": 6612,
      "enade": 6613,
      "org": 6614,
      "orrow": 6615,
      "lec": 6616,
      "arr": 6617,
      "aration": 6618,
      "arium": 6619,
      "Ġnip": 6620,
      "Ġhalo": 6621,
      "ici": 6622,
      "Ġbees": 6623,
      "Ġwed": 6624,
      "eteen": 6625,
      "Ġster": 6626,
      "Ġstakes": 6627,
      "Ġstirr": 6628,
      "Ġrehe": 6629,
      "Ġresol": 6630,
      "Ġreapply": 6631,
      "Ġrap": 6632,
      "Ġrush": 6633,
      "Ġrats": 6634,
      "Ġraces": 6635,
      "antro": 6636,
      "outs": 6637,
      "Ġjig": 6638,
      "Ġcans": 6639,
      "Ġfork": 6640,
      "Ġfort": 6641,
      "ional": 6642,
      "char": 6643,
      "Ġkry": 6644,
      "Ġkyle": 6645,
      "stic": 6646,
      "still": 6647,
      "enter": 6648,
      "Ġsole": 6649,
      "Ġmob": 6650,
      "Ġmolec": 6651,
      "ifer": 6652,
      "ifier": 6653,
      "ittle": 6654,
      "Ġsomehow": 6655,
      "Ġheated": 6656,
      "ilies": 6657,
      "Ġtheya": 6658,
      "Ġchi": 6659,
      "Ġchoo": 6660,
      "Ġchron": 6661,
      "Ġcherry": 6662,
      "Ġalt": 6663,
      "Ġalter": 6664,
      "Ġalmo": 6665,
      "Ġframing": 6666,
      "Ġfriction": 6667,
      "Ġleak": 6668,
      "Ġatl": 6669,
      "Ġatte": 6670,
      "Ġcoating": 6671,
      "Ġcogn": 6672,
      "ipes": 6673,
      "Ġbackward": 6674,
      "Ġbackhand": 6675,
      "Ġbackyard": 6676,
      "Ġplumb": 6677,
      "Ġcomic": 6678,
      "Ġtries": 6679,
      "abol": 6680,
      "ulsion": 6681,
      "Ġclar": 6682,
      "Ġexit": 6683,
      "Ġbecame": 6684,
      "Ġpros": 6685,
      "Ġputt": 6686,
      "mph": 6687,
      "Ġuser": 6688,
      "Ġtimer": 6689,
      "Ġflop": 6690,
      "Ġfluff": 6691,
      "Ġflesh": 6692,
      "Ġhandling": 6693,
      "Ġhandler": 6694,
      "Ġoffers": 6695,
      "Ġoffset": 6696,
      "igation": 6697,
      "uming": 6698,
      "Ġbother": 6699,
      "Ġnowadays": 6700,
      "Ġblind": 6701,
      "Ġadequ": 6702,
      "Ġhasn": 6703,
      "Ġimper": 6704,
      "Ġpeacock": 6705,
      "Ġprices": 6706,
      "ishes": 6707,
      "Ġenh": 6708,
      "Ġslant": 6709,
      "Ġhost": 6710,
      "Ġhollow": 6711,
      "Ġsuff": 6712,
      "Ġsuction": 6713,
      "Ġquit": 6714,
      "Ġskim": 6715,
      "Ġcutter": 6716,
      "being": 6717,
      "bean": 6718,
      "Ġyank": 6719,
      "Ġwaterproof": 6720,
      "Ġgrown": 6721,
      "Ġstrand": 6722,
      "Ġstrict": 6723,
      "itionally": 6724,
      "Ġcontam": 6725,
      "Ġcontribut": 6726,
      "Ġmanna": 6727,
      "Ġmanager": 6728,
      "Ġadditives": 6729,
      "ogy": 6730,
      "Ġbetting": 6731,
      "Ġunderco": 6732,
      "Ġgreatest": 6733,
      "Ġ11": 6734,
      "Ġ14": 6735,
      "Ġendurance": 6736,
      "Ġheadstand": 6737,
      "Ġheadshot": 6738,
      "Ġcompact": 6739,
      "Ġcomposition": 6740,
      "Ġswab": 6741,
      "Ġholdem": 6742,
      "avy": 6743,
      "Ġskinny": 6744,
      "Ġcleanse": 6745,
      "ersonal": 6746,
      "Ġrunner": 6747,
      "Ġstraightening": 6748,
      "Ġhardest": 6749,
      "Ġedible": 6750,
      "Ġdefreitas": 6751,
      "Ġserved": 6752,
      "Ġrollers": 6753,
      "Ġdrawer": 6754,
      "Ġdrawings": 6755,
      "tainment": 6756,
      "Ġcentral": 6757,
      "Ġcentury": 6758,
      "Ġbrushed": 6759,
      "Ġnewer": 6760,
      "rict": 6761,
      "arnish": 6762,
      "Ġproducer": 6763,
      "Ġdesire": 6764,
      "Ġexpenses": 6765,
      "Ġplanting": 6766,
      "Ġ28": 6767,
      "Ġ200": 6768,
      "Ġgreg": 6769,
      "Ġlifts": 6770,
      "Ġdecrease": 6771,
      "Ġproperties": 6772,
      "shuffle": 6773,
      "Ġdepot": 6774,
      "Ġcentering": 6775,
      "Ġcenterpiece": 6776,
      "Ġcurved": 6777,
      "gging": 6778,
      "Ġcompleting": 6779,
      "Ġneckline": 6780,
      "Ġmiddleweight": 6781,
      "Ġaccom": 6782,
      "Ġinterf": 6783,
      "Ġinteract": 6784,
      "Ġideal": 6785,
      "udes": 6786,
      "string": 6787,
      "Ġpurse": 6788,
      "Ġboxer": 6789,
      "Ġboxers": 6790,
      "enced": 6791,
      "Ġraising": 6792,
      "Ġcombing": 6793,
      "ermaid": 6794,
      "Ġpossibilities": 6795,
      "Ġartific": 6796,
      "Ġfilt": 6797,
      "Ġfiles": 6798,
      "Ġcheat": 6799,
      "Ġhooks": 6800,
      "Ġfingern": 6801,
      "Ġentrance": 6802,
      "Ġformat": 6803,
      "Ġtwisted": 6804,
      "Ġtailor": 6805,
      "Ġmarking": 6806,
      "Ġsalary": 6807,
      "Ġangled": 6808,
      "Ġamounts": 6809,
      "Ġcapacity": 6810,
      "Ġfolding": 6811,
      "Ġtransact": 6812,
      "Ġtransport": 6813,
      "Ġbeautifully": 6814,
      "Ġkeys": 6815,
      "garia": 6816,
      "Ġengaging": 6817,
      "Ġsunny": 6818,
      "Ġtests": 6819,
      "Ġprofess": 6820,
      "Ġmatching": 6821,
      "Ġsoften": 6822,
      "Ġlayout": 6823,
      "Ġscream": 6824,
      "Ġscreaming": 6825,
      "Ġfabrics": 6826,
      "Ġbelie": 6827,
      "Ġstrobe": 6828,
      "Ġfactors": 6829,
      "Ġwins": 6830,
      "Ġportra": 6831,
      "Ġforemost": 6832,
      "Ġforeground": 6833,
      "Ġhealing": 6834,
      "Ġpairing": 6835,
      "Ġcameras": 6836,
      "Ġpreparation": 6837,
      "ucent": 6838,
      "nothing": 6839,
      "Ġ80": 6840,
      "Ġinvest": 6841,
      "Ġembell": 6842,
      "Ġconsideration": 6843,
      "Ġtrimmed": 6844,
      "Ġbaskets": 6845,
      "Ġleads": 6846,
      "Ġparrots": 6847,
      "Ġtendency": 6848,
      "Ġtorn": 6849,
      "Ġvisually": 6850,
      "Ġsharpen": 6851,
      "Ġlincol": 6852,
      "keeping": 6853,
      "ological": 6854,
      "Ġprevention": 6855,
      "Ġaccessible": 6856,
      "Ġsnowboard": 6857,
      "working": 6858,
      "Ġsilk": 6859,
      "Ġdressing": 6860,
      "Ġbeds": 6861,
      "Ġstitching": 6862,
      "Ġtomorrow": 6863,
      "Ġpetals": 6864,
      "Ġsweater": 6865,
      "Ġcombined": 6866,
      "Ġseparated": 6867,
      "Ġmachines": 6868,
      "Ġsettings": 6869,
      "Ġinvolving": 6870,
      "Ġlogs": 6871,
      "Ġdecorating": 6872,
      "Ġcircuit": 6873,
      "Ġprojects": 6874,
      "Ġmeter": 6875,
      "Ġmetabol": 6876,
      "Ġtoilets": 6877,
      "Ġhops": 6878,
      "Ġstainless": 6879,
      "Ġnearly": 6880,
      "Ġprincess": 6881,
      "Ġboring": 6882,
      "Ġexplaining": 6883,
      "Ġnineteen": 6884,
      "Ġreceiver": 6885,
      "Ġmeeting": 6886,
      "Ġloaded": 6887,
      "Ġcement": 6888,
      "Ġfiring": 6889,
      "Ġhurts": 6890,
      "Ġpeeling": 6891,
      "Ġmechanism": 6892,
      "Ġcompete": 6893,
      "Ġesteem": 6894,
      "Ġindividually": 6895,
      "Ġindividuals": 6896,
      "Ġcausing": 6897,
      "Ġtunnel": 6898,
      "Ġwarrior": 6899,
      "Ġbidding": 6900,
      "Ġmissed": 6901,
      "Ġremote": 6902,
      "Ġincreases": 6903,
      "Ġdanger": 6904,
      "Ġkiller": 6905,
      "Ġkilled": 6906,
      "Ġidentified": 6907,
      "Ġprimary": 6908,
      "Ġlengthening": 6909,
      "Ġtuxed": 6910,
      "Ġshutter": 6911,
      "Ġfloating": 6912,
      "Ġinjured": 6913,
      "Ġstressed": 6914,
      "Ġhydrated": 6915,
      "Ġspoons": 6916,
      "Ġglossy": 6917,
      "Ġimaginary": 6918,
      "Ġsatis": 6919,
      "Ġpedal": 6920,
      "Ġkayaks": 6921,
      "Ġlooser": 6922,
      "Ġinitial": 6923,
      "Ġzipper": 6924,
      "Ġpsychology": 6925,
      "Ġlabor": 6926,
      "Ġlabel": 6927,
      "Ġeval": 6928,
      "Ġcanoeing": 6929,
      "Ġgradually": 6930,
      "Ġmagnet": 6931,
      "Ġmotorcycles": 6932,
      "slow": 6933,
      "Ġcheeks": 6934,
      "Ġpointer": 6935,
      "Ġskiing": 6936,
      "Ġadvantages": 6937,
      "Ġeyelashes": 6938,
      "Ġbreading": 6939,
      "Ġtackle": 6940,
      "Ġbicep": 6941,
      "Ġhurting": 6942,
      "Ġcontinuous": 6943,
      "Ġtanning": 6944,
      "Ġpromenade": 6945,
      "Ġcontrolling": 6946,
      "Ġlaser": 6947,
      "Ġspiral": 6948,
      "Ġfunctional": 6949,
      "Ġcurrently": 6950,
      "Ġtransitions": 6951,
      "ramid": 6952,
      "Ġmoisturizing": 6953,
      "Ġmoisturizer": 6954,
      "Ġjawfish": 6955,
      "Ġinflu": 6956,
      "Ġalignment": 6957,
      "Ġshedding": 6958,
      "Ġpendant": 6959,
      "Ġjournal": 6960,
      "Ġassemb": 6961,
      "Ġfrosting": 6962,
      "Ġstapler": 6963,
      "Ġsharks": 6964,
      "Ġconvenience": 6965,
      "Ġmanufacturers": 6966,
      "Ġfailure": 6967,
      "Ġseafood": 6968,
      "Ġelevation": 6969,
      "Ġincluding": 6970,
      "Ġcrystals": 6971,
      "Ġpapay": 6972,
      "Ġallergic": 6973,
      "Ġscarf": 6974,
      "Ġthoroughly": 6975,
      "Ġfollows": 6976,
      "Ġtranslucent": 6977,
      "Ġcalcium": 6978,
      "Ġgrapevine": 6979,
      "Ġdaniel": 6980,
      "Ġmushroom": 6981,
      "Ġsequence": 6982,
      "Ġgrandmother": 6983,
      "Ġstrategy": 6984,
      "Ġlaugh": 6985,
      "ugged": 6986,
      "breaker": 6987,
      "Ġconversation": 6988,
      "Ġvictim": 6989,
      "Ġenchiladas": 6990,
      "Ġcontext": 6991,
      "Ġelectronics": 6992,
      "Ġtitle": 6993,
      "Ġaxle": 6994,
      "Ġpyramid": 6995,
      "Ġduty": 6996,
      "Ġweapon": 6997,
      "asmosis": 6998,
      "Ġchannel": 6999,
      "Ġguarantee": 7000,
      "Ġrecreational": 7001,
      "Ġhazard": 7002,
      "Ġcanadian": 7003,
      "Ġsimpler": 7004,
      "Ġminimize": 7005,
      "Ġpractitioner": 7006,
      "Ġindustrial": 7007,
      "Ġcaliper": 7008,
      "Ġfatigue": 7009,
      "burg": 7010,
      "Ġcraps": 7011,
      "Ġgauge": 7012,
      "Ġnoodles": 7013,
      "Ġscarecrow": 7014,
      "Ġfungus": 7015,
      "Ġfreestyle": 7016,
      "Ġunderside": 7017,
      "Ġmortgage": 7018,
      "Ġmaneuver": 7019,
      "Ġcorrosion": 7020,
      "Ġregistered": 7021,
      "Ġcilantro": 7022,
      "Ġcichlids": 7023,
      "Ġlarew": 7024,
      "Ġundercoat": 7025,
      "Ġartificial": 7026,
      "Ġlincoln": 7027,
      "'.": 7028,
      "60": 7029,
      "ailed": 7030,
      "bac": 7031,
      "bum": 7032,
      "born": 7033,
      "cast": 7034,
      "dere": 7035,
      "during": 7036,
      "fting": 7037,
      "foot": 7038,
      "gars": 7039,
      "graph": 7040,
      "hou": 7041,
      "hands": 7042,
      "ien": 7043,
      "kno": 7044,
      "low": 7045,
      "lay": 7046,
      "lots": 7047,
      "lming": 7048,
      "lasmosis": 7049,
      "mend": 7050,
      "mmet": 7051,
      "pose": 7052,
      "picking": 7053,
      "rist": 7054,
      "rum": 7055,
      "rative": 7056,
      "such": 7057,
      "tr": 7058,
      "talk": 7059,
      "uv": 7060,
      "uly": 7061,
      "uity": 7062,
      "volley": 7063,
      "wr": 7064,
      "wor": 7065,
      "wom": 7066,
      "ya": 7067,
      "ycl": 7068,
      "Ġty": 7069,
      "Ġtic": 7070,
      "Ġtint": 7071,
      "Ġtax": 7072,
      "Ġalex": 7073,
      "innam": 7074,
      "inhaling": 7075,
      "oustic": 7076,
      "Ġsong": 7077,
      "Ġsizz": 7078,
      "Ġig": 7079,
      "Ġign": 7080,
      "Ġwat": 7081,
      "Ġwes": 7082,
      "Ġoly": 7083,
      "Ġoreg": 7084,
      "Ġtobac": 7085,
      "nding": 7086,
      "Ġbush": 7087,
      "Ġbats": 7088,
      "Ġbids": 7089,
      "Ġcu": 7090,
      "Ġcinnam": 7091,
      "Ġhom": 7092,
      "Ġhoc": 7093,
      "Ġhire": 7094,
      "Ġhint": 7095,
      "Ġharm": 7096,
      "Ġgan": 7097,
      "Ġgest": 7098,
      "Ġgaps": 7099,
      "Ġpam": 7100,
      "Ġpup": 7101,
      "Ġparm": 7102,
      "Ġfives": 7103,
      "Ġdom": 7104,
      "Ġdart": 7105,
      "Ġdive": 7106,
      "Ġdors": 7107,
      "Ġdied": 7108,
      "Ġlu": 7109,
      "Ġlace": 7110,
      "Ġmuff": 7111,
      "Ġmadd": 7112,
      "Ġmermaid": 7113,
      "thest": 7114,
      "Ġgod": 7115,
      "Ġgor": 7116,
      "Ġgoto": 7117,
      "ene": 7118,
      "esan": 7119,
      "esus": 7120,
      "orce": 7121,
      "Ġinver": 7122,
      "leep": 7123,
      "Ġnic": 7124,
      "Ġnast": 7125,
      "Ġnerve": 7126,
      "keting": 7127,
      "Ġhairst": 7128,
      "Ġwhites": 7129,
      "Ġweigh": 7130,
      "eters": 7131,
      "asy": 7132,
      "Ġwilming": 7133,
      "Ġsting": 7134,
      "Ġstool": 7135,
      "Ġstacked": 7136,
      "Ġstairs": 7137,
      "acles": 7138,
      "otch": 7139,
      "otive": 7140,
      "ghett": 7141,
      "utes": 7142,
      "uted": 7143,
      "utch": 7144,
      "Ġrake": 7145,
      "Ġram": 7146,
      "Ġrang": 7147,
      "Ġrins": 7148,
      "Ġjen": 7149,
      "Ġjones": 7150,
      "Ġjesus": 7151,
      "Ġcannon": 7152,
      "Ġforced": 7153,
      "Ġlily": 7154,
      "Ġshout": 7155,
      "Ġshades": 7156,
      "Ġshallow": 7157,
      "Ġker": 7158,
      "Ġkites": 7159,
      "Ġorbit": 7160,
      "Ġsore": 7161,
      "Ġups": 7162,
      "Ġupright": 7163,
      "amb": 7164,
      "amas": 7165,
      "iful": 7166,
      "indy": 7167,
      "Ġchun": 7168,
      "Ġchunk": 7169,
      "Ġalive": 7170,
      "Ġalgae": 7171,
      "Ġalumin": 7172,
      "ctors": 7173,
      "Ġcoin": 7174,
      "Ġplatter": 7175,
      "opy": 7176,
      "oplasmosis": 7177,
      "Ġtruly": 7178,
      "Ġspan": 7179,
      "Ġspiced": 7180,
      "Ġdownload": 7181,
      "Ġdownhill": 7182,
      "ersburg": 7183,
      "together": 7184,
      "ulf": 7185,
      "Ġclas": 7186,
      "Ġexh": 7187,
      "Ġexist": 7188,
      "Ġexhaling": 7189,
      "ively": 7190,
      "akers": 7191,
      "Ġputty": 7192,
      "unfortunately": 7193,
      "Ġworried": 7194,
      "Ġpoet": 7195,
      "amel": 7196,
      "Ġhandles": 7197,
      "Ġoffensive": 7198,
      "Ġofficer": 7199,
      "Ġsebum": 7200,
      "Ġbrist": 7201,
      "Ġoverflow": 7202,
      "Ġovernight": 7203,
      "Ġdem": 7204,
      "Ġbases": 7205,
      "Ġwhereas": 7206,
      "Ġtalks": 7207,
      "Ġpeak": 7208,
      "Ġprun": 7209,
      "Ġprayer": 7210,
      "Ġherself": 7211,
      "Ġenamel": 7212,
      "Ġrole": 7213,
      "Ġrobe": 7214,
      "Ġslot": 7215,
      "Ġslick": 7216,
      "Ġslate": 7217,
      "Ġslope": 7218,
      "Ġsuits": 7219,
      "Ġsugars": 7220,
      "Ġsmart": 7221,
      "Ġsmile": 7222,
      "Ġscoot": 7223,
      "Ġcuticle": 7224,
      "beat": 7225,
      "beaut": 7226,
      "Ġgrit": 7227,
      "Ġgrill": 7228,
      "Ġglaz": 7229,
      "Ġglued": 7230,
      "Ġpigeon": 7231,
      "Ġaces": 7232,
      "Ġacoustic": 7233,
      "Ġmanually": 7234,
      "Ġfinds": 7235,
      "osm": 7236,
      "ogen": 7237,
      "Ġshelly": 7238,
      "Ġsauc": 7239,
      "Ġsaved": 7240,
      "Ġcarve": 7241,
      "Ġcarib": 7242,
      "Ġguides": 7243,
      "Ġunderwire": 7244,
      "Ġgreater": 7245,
      "Ġ13": 7246,
      "Ġ16": 7247,
      "Ġperimeter": 7248,
      "Ġappe": 7249,
      "Ġfeelings": 7250,
      "Ġpointy": 7251,
      "Ġsimmer": 7252,
      "Ġknuck": 7253,
      "Ġcreep": 7254,
      "Ġcork": 7255,
      "Ġuno": 7256,
      "Ġunpl": 7257,
      "Ġunlike": 7258,
      "Ġdisk": 7259,
      "Ġserver": 7260,
      "Ġfins": 7261,
      "Ġfinanc": 7262,
      "Ġdrawback": 7263,
      "Ġcourses": 7264,
      "Ġveter": 7265,
      "Ġfunctions": 7266,
      "Ġproduced": 7267,
      "Ġpositioned": 7268,
      "Ġintest": 7269,
      "Ġintention": 7270,
      "Ġdesk": 7271,
      "Ġcru": 7272,
      "Ġexpans": 7273,
      "Ġexposing": 7274,
      "Ġ24": 7275,
      "Ġsymmet": 7276,
      "Ġbasement": 7277,
      "Ġearring": 7278,
      "Ġhorr": 7279,
      "Ġhormone": 7280,
      "feet": 7281,
      "Ġremoval": 7282,
      "Ġzones": 7283,
      "gina": 7284,
      "Ġlastly": 7285,
      "Ġaccident": 7286,
      "Ġintermed": 7287,
      "iques": 7288,
      "Ġairport": 7289,
      "Ġcollars": 7290,
      "ographical": 7291,
      "Ġgreenery": 7292,
      "clancy": 7293,
      "Ġwaxing": 7294,
      "Ġsprint": 7295,
      "Ġsprinkle": 7296,
      "Ġcatches": 7297,
      "Ġprocesses": 7298,
      "Ġpopcorn": 7299,
      "Ġtrapped": 7300,
      "riers": 7301,
      "Ġriders": 7302,
      "Ġmeasures": 7303,
      "Ġsanding": 7304,
      "Ġwarmer": 7305,
      "Ġwarmth": 7306,
      "Ġbuildup": 7307,
      "Ġtechnical": 7308,
      "Ġdiscol": 7309,
      "Ġloves": 7310,
      "Ġhooking": 7311,
      "Ġstops": 7312,
      "Ġfills": 7313,
      "Ġblem": 7314,
      "Ġspinal": 7315,
      "Ġrubbed": 7316,
      "Ġregularly": 7317,
      "Ġdealt": 7318,
      "Ġtailbone": 7319,
      "Ġsnatch": 7320,
      "Ġdoorkno": 7321,
      "Ġcapitals": 7322,
      "Ġshorts": 7323,
      "Ġtempo": 7324,
      "Ġcharms": 7325,
      "Ġengaged": 7326,
      "plish": 7327,
      "Ġsunglass": 7328,
      "Ġcrossing": 7329,
      "Ġjacks": 7330,
      "Ġjacking": 7331,
      "Ġrelaxation": 7332,
      "Ġsmoother": 7333,
      "Ġcalories": 7334,
      "Ġlawn": 7335,
      "Ġtracks": 7336,
      "Ġfamilies": 7337,
      "Ġlateral": 7338,
      "Ġportions": 7339,
      "Ġhundreds": 7340,
      "Ġpaintings": 7341,
      "Ġburns": 7342,
      "Ġburned": 7343,
      "Ġbulgaria": 7344,
      "Ġinfuser": 7345,
      "Ġclimate": 7346,
      "Ġinvite": 7347,
      "Ġpacking": 7348,
      "Ġexplod": 7349,
      "Ġessence": 7350,
      "Ġtorto": 7351,
      "Ġattaches": 7352,
      "Ġweeke": 7353,
      "Ġdevelopment": 7354,
      "Ġsteamer": 7355,
      "Ġchairs": 7356,
      "Ġpanels": 7357,
      "Ġprevents": 7358,
      "Ġfields": 7359,
      "Ġcontacts": 7360,
      "Ġyellowhead": 7361,
      "Ġlistening": 7362,
      "Ġadjustment": 7363,
      "Ġadjustable": 7364,
      "Ġsilhou": 7365,
      "Ġstitches": 7366,
      "Ġmodeling": 7367,
      "Ġpetersburg": 7368,
      "Ġshops": 7369,
      "Ġorganiz": 7370,
      "Ġorganize": 7371,
      "Ġorganized": 7372,
      "Ġorganizing": 7373,
      "Ġslipper": 7374,
      "Ġflipping": 7375,
      "Ġloosely": 7376,
      "Ġcontains": 7377,
      "Ġliquids": 7378,
      "aux": 7379,
      "Ġshaping": 7380,
      "Ġguitars": 7381,
      "Ġexcited": 7382,
      "Ġtensioner": 7383,
      "Ġfashions": 7384,
      "Ġchopping": 7385,
      "Ġflowering": 7386,
      "Ġagents": 7387,
      "Ġpencils": 7388,
      "aws": 7389,
      "Ġboric": 7390,
      "Ġproviding": 7391,
      "Ġdecks": 7392,
      "Ġdetermining": 7393,
      "Ġtapping": 7394,
      "Ġplex": 7395,
      "Ġpleas": 7396,
      "Ġrattle": 7397,
      "Ġmajority": 7398,
      "Ġrains": 7399,
      "Ġfloral": 7400,
      "Ġrougher": 7401,
      "Ġoutfitter": 7402,
      "Ġalternatives": 7403,
      "Ġapplications": 7404,
      "Ġperformance": 7405,
      "Ġvital": 7406,
      "Ġradial": 7407,
      "Ġchrome": 7408,
      "Ġthrust": 7409,
      "Ġsporting": 7410,
      "Ġdimin": 7411,
      "Ġcracker": 7412,
      "Ġtripods": 7413,
      "Ġcamping": 7414,
      "Ġgrabs": 7415,
      "Ġgraham": 7416,
      "Ġincorporated": 7417,
      "Ġpathway": 7418,
      "vascular": 7419,
      "Ġaffects": 7420,
      "Ġfauc": 7421,
      "Ġcarpenter": 7422,
      "Ġcandy": 7423,
      "Ġpediat": 7424,
      "Ġfemales": 7425,
      "Ġtremend": 7426,
      "Ġtonight": 7427,
      "Ġinitially": 7428,
      "Ġbikes": 7429,
      "Ġpeppers": 7430,
      "Ġlimits": 7431,
      "Ġreplacement": 7432,
      "Ġscratching": 7433,
      "Ġmagnetic": 7434,
      "Ġpockets": 7435,
      "Ġcompliments": 7436,
      "Ġconcentrated": 7437,
      "Ġdelicate": 7438,
      "Ġeyelash": 7439,
      "Ġlatte": 7440,
      "Ġrichard": 7441,
      "Ġmelted": 7442,
      "Ġbumps": 7443,
      "Ġbumper": 7444,
      "Ġdetectors": 7445,
      "black": 7446,
      "Ġtubing": 7447,
      "Ġfacility": 7448,
      "Ġsolder": 7449,
      "Ġbucks": 7450,
      "Ġdivorce": 7451,
      "Ġmichael": 7452,
      "Ġreferred": 7453,
      "Ġpuffiness": 7454,
      "secondly": 7455,
      "Ġbarely": 7456,
      "Ġmanagement": 7457,
      "Ġmanageable": 7458,
      "Ġproteins": 7459,
      "Ġveloc": 7460,
      "Ġjerk": 7461,
      "Ġprocedures": 7462,
      "Ġcarton": 7463,
      "Ġculture": 7464,
      "Ġpeeled": 7465,
      "Ġwhitening": 7466,
      "Ġstabilized": 7467,
      "clockwise": 7468,
      "Ġdistribution": 7469,
      "Ġresponsible": 7470,
      "Ġaquatic": 7471,
      "Ġaquarium": 7472,
      "Ġsusp": 7473,
      "Ġledge": 7474,
      "Ġcoordination": 7475,
      "Ġsmoky": 7476,
      "Ġterrible": 7477,
      "Ġaffordable": 7478,
      "Ġestablished": 7479,
      "Ġmastry": 7480,
      "Ġmastered": 7481,
      "Ġinfections": 7482,
      "Ġfragile": 7483,
      "Ġconsumer": 7484,
      "Ġcalculate": 7485,
      "Ġinstructions": 7486,
      "Ġdimensional": 7487,
      "Ġpsychological": 7488,
      "iatrist": 7489,
      "Ġmurdere": 7490,
      "Ġcomedy": 7491,
      "doesn": 7492,
      "Ġlaundry": 7493,
      "zzle": 7494,
      "Ġcooper": 7495,
      "Ġtriceps": 7496,
      "Ġrecognize": 7497,
      "Ġprinciples": 7498,
      "Ġbesides": 7499,
      "Ġhydrogen": 7500,
      "Ġadhes": 7501,
      "Ġappetite": 7502,
      "Ġobstacles": 7503,
      "knee": 7504,
      "Ġbunny": 7505,
      "Ġyolk": 7506,
      "Ġoccasionally": 7507,
      "Ġchameleons": 7508,
      "Ġescape": 7509,
      "Ġmental": 7510,
      "Ġashley": 7511,
      "Ġpregnant": 7512,
      "Ġvacu": 7513,
      "Ġscallops": 7514,
      "Ġlinebackers": 7515,
      "Ġcompromise": 7516,
      "Ġcardiovascular": 7517,
      "Ġexperienced": 7518,
      "Ġspiritual": 7519,
      "Ġsneaky": 7520,
      "Ġodor": 7521,
      "rology": 7522,
      "Ġcoarser": 7523,
      "Ġclaire": 7524,
      "Ġclogged": 7525,
      "Ġscientific": 7526,
      "Ġdisinfectant": 7527,
      "Ġrefractometer": 7528,
      "Ġincredibly": 7529,
      "Ġillnesses": 7530,
      "often": 7531,
      "Ġsoothing": 7532,
      "Ġsifu": 7533,
      "Ġhusband": 7534,
      "aloni": 7535,
      "Ġconvertible": 7536,
      "Ġbladder": 7537,
      "Ġadminist": 7538,
      "Ġenlarger": 7539,
      "Ġphobia": 7540,
      "Ġextraction": 7541,
      "Ġsupplements": 7542,
      "Ġintellig": 7543,
      "production": 7544,
      "iciency": 7545,
      "Ġstirring": 7546,
      "Ġkryny": 7547,
      "Ġmolecules": 7548,
      "Ġalmond": 7549,
      "Ġprofessor": 7550,
      "Ġembellish": 7551,
      "Ġtuxedo": 7552,
      "worms": 7553,
      "Ġolymp": 7554,
      "Ġoregon": 7555,
      "Ġtobacco": 7556,
      "Ġcinnamon": 7557,
      "Ġhockey": 7558,
      "Ġparmesan": 7559,
      "Ġmuffin": 7560,
      "Ġmaddaloni": 7561,
      "Ġwilmington": 7562,
      "ghetti": 7563,
      "Ġchunks": 7564,
      "Ġaluminum": 7565,
      "beautiful": 7566,
      "Ġcaribbean": 7567,
      "Ġfinancial": 7568,
      "Ġintermediate": 7569,
      "Ġdoorknob": 7570,
      "Ġpediatric": 7571,
      "Ġtremendous": 7572,
      "Ġmurderer": 7573,
      "',": 7574,
      ".?": 7575,
      "25": 7576,
      "af": 7577,
      "ca": 7578,
      "case": 7579,
      "cons": 7580,
      "dou": 7581,
      "eut": 7582,
      "eur": 7583,
      "eff": 7584,
      "fto": 7585,
      "feel": 7586,
      "fiber": 7587,
      "gly": 7588,
      "ho": 7589,
      "hu": 7590,
      "har": 7591,
      "hips": 7592,
      "ius": 7593,
      "iac": 7594,
      "ige": 7595,
      "ios": 7596,
      "iol": 7597,
      "kne": 7598,
      "lass": 7599,
      "lower": 7600,
      "lifier": 7601,
      "little": 7602,
      "mm": 7603,
      "made": 7604,
      "nat": 7605,
      "neck": 7606,
      "norm": 7607,
      "nurse": 7608,
      "oth": 7609,
      "oil": 7610,
      "obe": 7611,
      "ps": 7612,
      "pet": 7613,
      "pour": 7614,
      "pur": 7615,
      "rs": 7616,
      "rid": 7617,
      "rase": 7618,
      "rings": 7619,
      "sso": 7620,
      "six": 7621,
      "scent": 7622,
      "tight": 7623,
      "touch": 7624,
      "tically": 7625,
      "tract": 7626,
      "tzky": 7627,
      "uk": 7628,
      "uating": 7629,
      "west": 7630,
      "ynch": 7631,
      "Ġting": 7632,
      "Ġtas": 7633,
      "Ġtasting": 7634,
      "Ġtrench": 7635,
      "Ġah": 7636,
      "Ġthus": 7637,
      "inside": 7638,
      "inating": 7639,
      "oured": 7640,
      "rele": 7641,
      "Ġsar": 7642,
      "Ġsac": 7643,
      "Ġsent": 7644,
      "Ġsip": 7645,
      "Ġsill": 7646,
      "Ġsals": 7647,
      "Ġsided": 7648,
      "Ġigg": 7649,
      "Ġwond": 7650,
      "Ġwarn": 7651,
      "Ġwavy": 7652,
      "Ġoaks": 7653,
      "Ġtoner": 7654,
      "Ġber": 7655,
      "Ġbout": 7656,
      "Ġbake": 7657,
      "Ġbank": 7658,
      "Ġcaut": 7659,
      "eral": 7660,
      "erior": 7661,
      "Ġhy": 7662,
      "Ġhan": 7663,
      "Ġhul": 7664,
      "Ġger": 7665,
      "Ġgut": 7666,
      "Ġgad": 7667,
      "Ġgour": 7668,
      "Ġgroom": 7669,
      "Ġgarnish": 7670,
      "Ġpip": 7671,
      "Ġpun": 7672,
      "Ġpens": 7673,
      "Ġfas": 7674,
      "Ġfid": 7675,
      "Ġfec": 7676,
      "Ġfert": 7677,
      "Ġdome": 7678,
      "Ġdad": 7679,
      "Ġdizzy": 7680,
      "Ġles": 7681,
      "Ġlam": 7682,
      "Ġlind": 7683,
      "Ġlars": 7684,
      "Ġlisting": 7685,
      "Ġlane": 7686,
      "Ġmall": 7687,
      "Ġmee": 7688,
      "Ġmath": 7689,
      "Ġmike": 7690,
      "Ġmallon": 7691,
      "Ġmesh": 7692,
      "anberry": 7693,
      "onies": 7694,
      "Ġgobo": 7695,
      "eness": 7696,
      "orize": 7697,
      "orrac": 7698,
      "Ġinks": 7699,
      "Ġisland": 7700,
      "vey": 7701,
      "itate": 7702,
      "itation": 7703,
      "itute": 7704,
      "Ġnest": 7705,
      "Ġhal": 7706,
      "Ġhall": 7707,
      "icone": 7708,
      "icked": 7709,
      "icature": 7710,
      "Ġbearing": 7711,
      "Ġwears": 7712,
      "Ġweird": 7713,
      "asure": 7714,
      "Ġstat": 7715,
      "Ġstaker": 7716,
      "Ġstorm": 7717,
      "aco": 7718,
      "Ġreef": 7719,
      "Ġdosing": 7720,
      "Ġrail": 7721,
      "Ġruff": 7722,
      "Ġranch": 7723,
      "Ġryan": 7724,
      "Ġjam": 7725,
      "Ġjason": 7726,
      "Ġcanes": 7727,
      "Ġcanola": 7728,
      "ustible": 7729,
      "Ġugly": 7730,
      "Ġford": 7731,
      "Ġforces": 7732,
      "idants": 7733,
      "irling": 7734,
      "oogle": 7735,
      "cha": 7736,
      "che": 7737,
      "Ġjustify": 7738,
      "sters": 7739,
      "entimes": 7740,
      "imate": 7741,
      "Ġupkeep": 7742,
      "Ġmoss": 7743,
      "Ġmosa": 7744,
      "Ġasynch": 7745,
      "Ġouts": 7746,
      "Ġoutlook": 7747,
      "ainted": 7748,
      "Ġsomeplace": 7749,
      "odile": 7750,
      "Ġhel": 7751,
      "urs": 7752,
      "artments": 7753,
      "iles": 7754,
      "ilical": 7755,
      "Ġchase": 7756,
      "Ġaltogether": 7757,
      "Ġfrid": 7758,
      "Ġfranc": 7759,
      "Ġfriday": 7760,
      "Ġfringe": 7761,
      "ravel": 7762,
      "Ġlefto": 7763,
      "Ġallig": 7764,
      "Ġcoast": 7765,
      "Ġplumber": 7766,
      "Ġpliable": 7767,
      "Ġcomics": 7768,
      "Ġspid": 7769,
      "Ġspice": 7770,
      "Ġspect": 7771,
      "Ġspong": 7772,
      "Ġspool": 7773,
      "Ġspok": 7774,
      "Ġspacing": 7775,
      "tock": 7776,
      "Ġcloud": 7777,
      "Ġproceed": 7778,
      "ivel": 7779,
      "apers": 7780,
      "Ġmex": 7781,
      "essic": 7782,
      "Ġflound": 7783,
      "Ġflutter": 7784,
      "Ġtwinkle": 7785,
      "Ġpred": 7786,
      "Ġbites": 7787,
      "Ġbru": 7788,
      "Ġbras": 7789,
      "Ġbrass": 7790,
      "Ġbrows": 7791,
      "Ġkell": 7792,
      "igur": 7793,
      "Ġdement": 7794,
      "Ġdeath": 7795,
      "Ġacting": 7796,
      "istics": 7797,
      "Ġvir": 7798,
      "Ġvice": 7799,
      "Ġvia": 7800,
      "Ġvorrac": 7801,
      "Ġbasin": 7802,
      "Ġblast": 7803,
      "Ġadobe": 7804,
      "please": 7805,
      "Ġparties": 7806,
      "Ġenables": 7807,
      "Ġenzy": 7808,
      "Ġroyal": 7809,
      "Ġfell": 7810,
      "Ġfevers": 7811,
      "Ġslim": 7812,
      "perfect": 7813,
      "Ġhobby": 7814,
      "Ġsubs": 7815,
      "Ġsmo": 7816,
      "Ġscary": 7817,
      "Ġscience": 7818,
      "Ġskis": 7819,
      "Ġarrow": 7820,
      "bel": 7821,
      "Ġya": 7822,
      "Ġcolorful": 7823,
      "Ġglute": 7824,
      "therefore": 7825,
      "Ġamate": 7826,
      "Ġamel": 7827,
      "Ġcarb": 7828,
      "Ġcaricature": 7829,
      "Ġthinks": 7830,
      "Ġ17": 7831,
      "Ġcomponent": 7832,
      "Ġapplies": 7833,
      "Ġswirling": 7834,
      "Ġkneel": 7835,
      "Ġpersons": 7836,
      "Ġpressed": 7837,
      "Ġjuices": 7838,
      "Ġwrote": 7839,
      "Ġwrinkle": 7840,
      "Ġunion": 7841,
      "Ġphones": 7842,
      "Ġdissol": 7843,
      "Ġextru": 7844,
      "Ġyeast": 7845,
      "Ġserial": 7846,
      "monie": 7847,
      "Ġpushes": 7848,
      "overed": 7849,
      "Ġrepell": 7850,
      "apel": 7851,
      "taining": 7852,
      "Ġreserv": 7853,
      "ricane": 7854,
      "Ġrecipes": 7855,
      "Ġclipped": 7856,
      "Ġsquish": 7857,
      "Ġsquirt": 7858,
      "Ġintric": 7859,
      "Ġintended": 7860,
      "Ġcranberry": 7861,
      "Ġweren": 7862,
      "Ġsecondary": 7863,
      "Ġnumerous": 7864,
      "Ġsyrup": 7865,
      "Ġpaintbrush": 7866,
      "Ġgreet": 7867,
      "Ġstored": 7868,
      "Ġrelieve": 7869,
      "Ġreliable": 7870,
      "ship": 7871,
      "Ġearrings": 7872,
      "Ġconsc": 7873,
      "Ġfarthest": 7874,
      "Ġstretchy": 7875,
      "Ġwindy": 7876,
      "Ġdetailed": 7877,
      "Ġwireless": 7878,
      "Ġrestless": 7879,
      "Ġideally": 7880,
      "Ġmasse": 7881,
      "Ġbehalf": 7882,
      "Ġweighted": 7883,
      "Ġpicnic": 7884,
      "Ġcreatures": 7885,
      "Ġcreativity": 7886,
      "boom": 7887,
      "Ġwheelch": 7888,
      "click": 7889,
      "cloth": 7890,
      "encing": 7891,
      "encies": 7892,
      "Ġrafting": 7893,
      "Ġstringer": 7894,
      "Ġpinning": 7895,
      "Ġpopping": 7896,
      "Ġcombustible": 7897,
      "Ġfirework": 7898,
      "Ġfirefly": 7899,
      "Ġprotecting": 7900,
      "Ġdiaper": 7901,
      "Ġarticles": 7902,
      "Ġrider": 7903,
      "Ġsandpaper": 7904,
      "Ġironing": 7905,
      "Ġwarmed": 7906,
      "Ġfiling": 7907,
      "Ġfilters": 7908,
      "Ġreds": 7909,
      "Ġdiscover": 7910,
      "Ġdisconn": 7911,
      "Ġcheaper": 7912,
      "Ġloving": 7913,
      "Ġblends": 7914,
      "Ġformation": 7915,
      "Ġtails": 7916,
      "Ġpadding": 7917,
      "Ġmarketing": 7918,
      "Ġcommit": 7919,
      "Ġ48": 7920,
      "Ġasks": 7921,
      "Ġphotographs": 7922,
      "Ġprintmaking": 7923,
      "Ġlooping": 7924,
      "Ġmonkey": 7925,
      "Ġshortstop": 7926,
      "Ġtemporary": 7927,
      "Ġclearance": 7928,
      "Ġkeyboard": 7929,
      "Ġrecommendations": 7930,
      "Ġsunlight": 7931,
      "Ġsolar": 7932,
      "Ġsolvent": 7933,
      "Ġsolita": 7934,
      "Ġbalm": 7935,
      "Ġbalancing": 7936,
      "Ġallowance": 7937,
      "Ġdirectors": 7938,
      "Ġinser": 7939,
      "meal": 7940,
      "Ġpowered": 7941,
      "Ġpowders": 7942,
      "iox": 7943,
      "Ġportable": 7944,
      "Ġcorresp": 7945,
      "Ġreaches": 7946,
      "Ġconfine": 7947,
      "Ġconfigur": 7948,
      "Ġsubm": 7949,
      "Ġnights": 7950,
      "Ġclassical": 7951,
      "Ġvegetarian": 7952,
      "Ġequals": 7953,
      "Ġpatricia": 7954,
      "Ġpitchers": 7955,
      "Ġschooling": 7956,
      "Ġcorrecting": 7957,
      "Ġburner": 7958,
      "Ġsignature": 7959,
      "onsense": 7960,
      "Ġemails": 7961,
      "Ġemulsion": 7962,
      "Ġmatting": 7963,
      "Ġenjoying": 7964,
      "Ġscram": 7965,
      "Ġprofessionals": 7966,
      "Ġpackages": 7967,
      "Ġexplore": 7968,
      "Ġbrowns": 7969,
      "Ġtortill": 7970,
      "Ġspotting": 7971,
      "Ġsquares": 7972,
      "Ġcharacteristics": 7973,
      "Ġicebreaker": 7974,
      "Ġdeveloping": 7975,
      "Ġdiscussion": 7976,
      "Ġblankets": 7977,
      "Ġcloset": 7978,
      "Ġpenet": 7979,
      "Ġspecialized": 7980,
      "Ġsprays": 7981,
      "Ġtravels": 7982,
      "pective": 7983,
      "Ġadjusting": 7984,
      "Ġadjustments": 7985,
      "Ġavoiding": 7986,
      "Ġavoided": 7987,
      "Ġdresses": 7988,
      "Ġscored": 7989,
      "Ġpalming": 7990,
      "Ġinstallation": 7991,
      "Ġpets": 7992,
      "Ġpetal": 7993,
      "Ġorganization": 7994,
      "Ġchocolates": 7995,
      "unken": 7996,
      "Ġtherapies": 7997,
      "Ġtherapeut": 7998,
      "Ġbabies": 7999,
      "Ġslipping": 8000,
      "Ġinternally": 8001,
      "ounter": 8002,
      "Ġrotations": 8003,
      "Ġnegot": 8004,
      "Ġneglect": 8005,
      "Ġnegatives": 8006,
      "Ġinvolve": 8007,
      "Ġsmelling": 8008,
      "Ġsecured": 8009,
      "eye": 8010,
      "Ġhopping": 8011,
      "Ġdishes": 8012,
      "Ġstains": 8013,
      "Ġmessages": 8014,
      "Ġdaisy": 8015,
      "Ġprovided": 8016,
      "Ġrespir": 8017,
      "spin": 8018,
      "Ġmonthly": 8019,
      "handed": 8020,
      "Ġreceiving": 8021,
      "Ġreceipt": 8022,
      "Ġloads": 8023,
      "Ġprops": 8024,
      "Ġbuckets": 8025,
      "Ġattacker": 8026,
      "Ġfashioned": 8027,
      "Ġenvironmental": 8028,
      "Ġauto": 8029,
      "Ġburpies": 8030,
      "Ġcrosso": 8031,
      "Ġdipping": 8032,
      "Ġconsistently": 8033,
      "Ġcounterclockwise": 8034,
      "Ġpinkie": 8035,
      "Ġmenu": 8036,
      "Ġtuning": 8037,
      "Ġdigest": 8038,
      "Ġguards": 8039,
      "Ġperforming": 8040,
      "Ġtarlet": 8041,
      "Ġremind": 8042,
      "Ġfeedback": 8043,
      "Ġcoconuts": 8044,
      "Ġgoalie": 8045,
      "Ġdragons": 8046,
      "relax": 8047,
      "Ġinstruments": 8048,
      "Ġautomotive": 8049,
      "Ġfirmly": 8050,
      "Ġpageant": 8051,
      "Ġdimensions": 8052,
      "Ġfloats": 8053,
      "Ġcracks": 8054,
      "Ġcampus": 8055,
      "Ġcontrasting": 8056,
      "Ġoperating": 8057,
      "Ġlizard": 8058,
      "Ġlizards": 8059,
      "Ġartistic": 8060,
      "Ġnetwork": 8061,
      "Ġtougher": 8062,
      "Ġpeddle": 8063,
      "Ġkayaking": 8064,
      "Ġtons": 8065,
      "Ġtones": 8066,
      "Ġiniti": 8067,
      "Ġundo": 8068,
      "Ġindication": 8069,
      "Ġindicator": 8070,
      "Ġcollectibles": 8071,
      "Ġirish": 8072,
      "thanks": 8073,
      "Ġevan": 8074,
      "Ġripped": 8075,
      "Ġscrubbing": 8076,
      "Ġgymn": 8077,
      "Ġseasoning": 8078,
      "Ġsubjective": 8079,
      "Ġconcentration": 8080,
      "Ġscrapbook": 8081,
      "Ġeducational": 8082,
      "Ġbicycles": 8083,
      "Ġhurdle": 8084,
      "Ġhurricane": 8085,
      "Ġjourney": 8086,
      "Ġdripping": 8087,
      "Ġdrama": 8088,
      "Ġrobot": 8089,
      "Ġpotentially": 8090,
      "Ġgasket": 8091,
      "Ġladder": 8092,
      "Ġsoldering": 8093,
      "Ġteapots": 8094,
      "Ġreceived": 8095,
      "Ġsuddenly": 8096,
      "Ġdivis": 8097,
      "rolling": 8098,
      "Ġprogression": 8099,
      "Ġisolate": 8100,
      "Ġshimmer": 8101,
      "Ġmedication": 8102,
      "racting": 8103,
      "Ġpolice": 8104,
      "Ġstraws": 8105,
      "Ġcabinets": 8106,
      "Ġdiamonds": 8107,
      "Ġporous": 8108,
      "Ġstaple": 8109,
      "Ġumbilical": 8110,
      "Ġmovies": 8111,
      "Ġdealerships": 8112,
      "Ġsweaters": 8113,
      "Ġwhiten": 8114,
      "Ġmodify": 8115,
      "Ġresponsibility": 8116,
      "Ġawful": 8117,
      "Ġwounds": 8118,
      "Ġdenim": 8119,
      "Ġracks": 8120,
      "Ġhairspray": 8121,
      "Ġbanana": 8122,
      "Ġvibration": 8123,
      "Ġuncommon": 8124,
      "Ġsurprise": 8125,
      "Ġdistractions": 8126,
      "Ġintegrate": 8127,
      "Ġintegrated": 8128,
      "Ġtoxoplasmosis": 8129,
      "Ġmushy": 8130,
      "Ġspaghetti": 8131,
      "Ġstrategies": 8132,
      "Ġacceptable": 8133,
      "flowers": 8134,
      "nightmare": 8135,
      "Ġcooled": 8136,
      "Ġclumps": 8137,
      "Ġholga": 8138,
      "Ġholiday": 8139,
      "Ġexfoliating": 8140,
      "lastly": 8141,
      "Ġbeside": 8142,
      "Ġdisease": 8143,
      "Ġdiseases": 8144,
      "Ġadhd": 8145,
      "Ġobstacle": 8146,
      "Ġcomplexion": 8147,
      "Ġillustrator": 8148,
      "Ġtastes": 8149,
      "Ġexecute": 8150,
      "Ġparticipant": 8151,
      "Ġarguments": 8152,
      "Ġcrocosm": 8153,
      "Ġcrocodile": 8154,
      "Ġdisappear": 8155,
      "iveness": 8156,
      "Ġremedies": 8157,
      "Ġrebounding": 8158,
      "Ġflamingo": 8159,
      "Ġvinegar": 8160,
      "Ġarrange": 8161,
      "Ġstylist": 8162,
      "Ġcubes": 8163,
      "Ġdocument": 8164,
      "Ġjogging": 8165,
      "Ġorientation": 8166,
      "Ġdevil": 8167,
      "Ġemotions": 8168,
      "Ġemphasize": 8169,
      "Ġfundamental": 8170,
      "Ġinsects": 8171,
      "Ġnunchucks": 8172,
      "Ġamplifier": 8173,
      "Ġfibers": 8174,
      "Ġegyptian": 8175,
      "Ġobliques": 8176,
      "novations": 8177,
      "Ġtoothpaste": 8178,
      "Ġaffiliation": 8179,
      "cribed": 8180,
      "Ġanalyze": 8181,
      "Ġrepetitions": 8182,
      "Ġteddy": 8183,
      "Ġcricket": 8184,
      "Ġhungry": 8185,
      "Ġatlantic": 8186,
      "Ġplumbing": 8187,
      "Ġfluffy": 8188,
      "Ġstrictly": 8189,
      "Ġaccomplish": 8190,
      "Ġinterfere": 8191,
      "Ġfingernail": 8192,
      "Ġmetabolism": 8193,
      "Ġsatisf": 8194,
      "Ġassembly": 8195,
      "Ġwestern": 8196,
      "Ġhomes": 8197,
      "Ġganache": 8198,
      "Ġgorgeous": 8199,
      "Ġinverted": 8200,
      "Ġclasped": 8201,
      "Ġpoetry": 8202,
      "Ġexpansion": 8203,
      "Ġdiscolor": 8204,
      "Ġsunglasses": 8205,
      "Ġtortoise": 8206,
      "Ġsilhouette": 8207,
      "Ġthrusts": 8208,
      "Ġdiminished": 8209,
      "Ġvelocity": 8210,
      "Ġsuspension": 8211,
      "Ġadhesive": 8212,
      "Ġvacuum": 8213,
      "Ġkrynytzky": 8214,
      "purpose": 8215,
      "Ġsalsa": 8216,
      "Ġgadget": 8217,
      "Ġgourmet": 8218,
      "Ġfrancisco": 8219,
      "Ġleftover": 8220,
      "Ġalligator": 8221,
      "Ġflounders": 8222,
      "Ġdementia": 8223,
      "Ġamelia": 8224,
      "Ġextruder": 8225,
      "Ġrepellent": 8226,
      "Ġsolitaire": 8227,
      "Ġcorrespond": 8228,
      "Ġtortillas": 8229,
      "Ġcrossover": 8230,
      "!!": 8231,
      "99": 8232,
      "aired": 8233,
      "affe": 8234,
      "bu": 8235,
      "bes": 8236,
      "breat": 8237,
      "burn": 8238,
      "bub": 8239,
      "cy": 8240,
      "care": 8241,
      "cont": 8242,
      "coon": 8243,
      "dri": 8244,
      "ev": 8245,
      "ees": 8246,
      "eled": 8247,
      "fa": 8248,
      "flex": 8249,
      "great": 8250,
      "glo": 8251,
      "home": 8252,
      "hone": 8253,
      "hole": 8254,
      "iors": 8255,
      "iety": 8256,
      "iences": 8257,
      "kers": 8258,
      "kins": 8259,
      "lon": 8260,
      "lance": 8261,
      "lifting": 8262,
      "men": 8263,
      "mate": 8264,
      "mag": 8265,
      "mel": 8266,
      "net": 8267,
      "nant": 8268,
      "nah": 8269,
      "nifer": 8270,
      "overy": 8271,
      "pre": 8272,
      "pes": 8273,
      "ples": 8274,
      "paint": 8275,
      "personal": 8276,
      "rd": 8277,
      "rus": 8278,
      "ray": 8279,
      "rich": 8280,
      "ront": 8281,
      "rigation": 8282,
      "sk": 8283,
      "sit": 8284,
      "tes": 8285,
      "tom": 8286,
      "taking": 8287,
      "uing": 8288,
      "uer": 8289,
      "vin": 8290,
      "vest": 8291,
      "wich": 8292,
      "xels": 8293,
      "Ġ&": 8294,
      "Ġtide": 8295,
      "Ġtens": 8296,
      "Ġaes": 8297,
      "Ġast": 8298,
      "Ġaward": 8299,
      "Ġawhile": 8300,
      "Ġthail": 8301,
      "inant": 8302,
      "inine": 8303,
      "inarian": 8304,
      "repe": 8305,
      "Ġson": 8306,
      "Ġsift": 8307,
      "Ġsentine": 8308,
      "Ġii": 8309,
      "Ġivan": 8310,
      "Ġware": 8311,
      "Ġwol": 8312,
      "Ġoas": 8313,
      "Ġoct": 8314,
      "Ġtoast": 8315,
      "ndy": 8316,
      "Ġbin": 8317,
      "Ġbou": 8318,
      "Ġbon": 8319,
      "Ġbould": 8320,
      "Ġbamb": 8321,
      "atula": 8322,
      "Ġcree": 8323,
      "Ġcues": 8324,
      "Ġcables": 8325,
      "Ġcycles": 8326,
      "erad": 8327,
      "erves": 8328,
      "Ġhid": 8329,
      "Ġhunch": 8330,
      "Ġgal": 8331,
      "Ġgary": 8332,
      "Ġgmail": 8333,
      "Ġping": 8334,
      "Ġpis": 8335,
      "Ġpit": 8336,
      "Ġpom": 8337,
      "Ġpall": 8338,
      "Ġpac": 8339,
      "Ġpir": 8340,
      "Ġpeep": 8341,
      "Ġpacked": 8342,
      "Ġpoured": 8343,
      "Ġfer": 8344,
      "Ġfed": 8345,
      "Ġfade": 8346,
      "Ġfudge": 8347,
      "Ġdips": 8348,
      "Ġdates": 8349,
      "Ġdorm": 8350,
      "Ġdiesel": 8351,
      "Ġlan": 8352,
      "Ġlasting": 8353,
      "Ġloses": 8354,
      "Ġmu": 8355,
      "Ġmim": 8356,
      "Ġmont": 8357,
      "Ġmcc": 8358,
      "Ġmering": 8359,
      "Ġmarsh": 8360,
      "ano": 8361,
      "aning": 8362,
      "anas": 8363,
      "throw": 8364,
      "only": 8365,
      "onasana": 8366,
      "Ġgodd": 8367,
      "eneck": 8368,
      "enjoy": 8369,
      "orous": 8370,
      "order": 8371,
      "Ġinward": 8372,
      "Ġinject": 8373,
      "Ġinput": 8374,
      "uset": 8375,
      "leather": 8376,
      "iser": 8377,
      "aries": 8378,
      "itics": 8379,
      "itzer": 8380,
      "Ġnude": 8381,
      "Ġnonsense": 8382,
      "Ġhaw": 8383,
      "icable": 8384,
      "Ġbeats": 8385,
      "edom": 8386,
      "etime": 8387,
      "asies": 8388,
      "Ġearn": 8389,
      "Ġeats": 8390,
      "Ġwiping": 8391,
      "Ġsto": 8392,
      "Ġstub": 8393,
      "Ġstair": 8394,
      "Ġstages": 8395,
      "Ġstatic": 8396,
      "alo": 8397,
      "alite": 8398,
      "Ġreven": 8399,
      "Ġrevers": 8400,
      "Ġreinst": 8401,
      "Ġramp": 8402,
      "Ġrivers": 8403,
      "anted": 8404,
      "verine": 8405,
      "Ġjet": 8406,
      "Ġjose": 8407,
      "Ġjared": 8408,
      "Ġjessic": 8409,
      "Ġcana": 8410,
      "Ġune": 8411,
      "Ġforgot": 8412,
      "idized": 8413,
      "irm": 8414,
      "irop": 8415,
      "irno": 8416,
      "iraz": 8417,
      "ching": 8418,
      "Ġlimp": 8419,
      "Ġliber": 8420,
      "Ġshiraz": 8421,
      "Ġkrie": 8422,
      "Ġkicked": 8423,
      "stro": 8424,
      "stra": 8425,
      "style": 8426,
      "Ġord": 8427,
      "Ġoral": 8428,
      "adow": 8429,
      "adill": 8430,
      "adem": 8431,
      "addle": 8432,
      "Ġsoy": 8433,
      "Ġsoaking": 8434,
      "Ġsoaked": 8435,
      "imus": 8436,
      "imal": 8437,
      "image": 8438,
      "rost": 8439,
      "robe": 8440,
      "rock": 8441,
      "Ġupset": 8442,
      "Ġasym": 8443,
      "ama": 8444,
      "amed": 8445,
      "amanda": 8446,
      "Ġabr": 8447,
      "Ġabdu": 8448,
      "aindic": 8449,
      "Ġhems": 8450,
      "Ġchips": 8451,
      "Ġchok": 8452,
      "Ġchuck": 8453,
      "Ġchlor": 8454,
      "Ġchirop": 8455,
      "Ġalarm": 8456,
      "Ġalph": 8457,
      "Ġalien": 8458,
      "Ġfry": 8459,
      "Ġfried": 8460,
      "raise": 8461,
      "roud": 8462,
      "ardi": 8463,
      "Ġcos": 8464,
      "Ġbackbone": 8465,
      "Ġbackstro": 8466,
      "Ġplates": 8467,
      "Ġplaster": 8468,
      "opes": 8469,
      "Ġtrunk": 8470,
      "Ġtracy": 8471,
      "Ġspent": 8472,
      "Ġspind": 8473,
      "Ġspade": 8474,
      "Ġspike": 8475,
      "Ġspouse": 8476,
      "Ġspatula": 8477,
      "Ġdownstream": 8478,
      "uling": 8479,
      "Ġexac": 8480,
      "Ġexchange": 8481,
      "ortment": 8482,
      "quis": 8483,
      "Ġthemed": 8484,
      "Ġpoke": 8485,
      "Ġseek": 8486,
      "Ġflicking": 8487,
      "Ġcongest": 8488,
      "Ġprepping": 8489,
      "Ġbits": 8490,
      "Ġoffic": 8491,
      "Ġoverly": 8492,
      "Ġoverview": 8493,
      "igraph": 8494,
      "Ġdeet": 8495,
      "Ġdeuce": 8496,
      "Ġdebit": 8497,
      "Ġstarter": 8498,
      "ector": 8499,
      "Ġactor": 8500,
      "Ġbob": 8501,
      "Ġboast": 8502,
      "ille": 8503,
      "occ": 8504,
      "Ġvines": 8505,
      "Ġvirt": 8506,
      "Ġbasil": 8507,
      "Ġdrips": 8508,
      "Ġdriven": 8509,
      "hea": 8510,
      "heat": 8511,
      "Ġblues": 8512,
      "aches": 8513,
      "achuset": 8514,
      "Ġadhere": 8515,
      "Ġadvert": 8516,
      "Ġimpart": 8517,
      "Ġpeony": 8518,
      "Ġpeonies": 8519,
      "aren": 8520,
      "aret": 8521,
      "agraph": 8522,
      "Ġsliced": 8523,
      "Ġslicing": 8524,
      "Ġleta": 8525,
      "ffic": 8526,
      "Ġsmudge": 8527,
      "Ġsmirno": 8528,
      "Ġquot": 8529,
      "Ġquilt": 8530,
      "Ġquote": 8531,
      "Ġscott": 8532,
      "Ġsciences": 8533,
      "emark": 8534,
      "Ġarter": 8535,
      "Ġglide": 8536,
      "Ġpixels": 8537,
      "Ġstepped": 8538,
      "Ġcleft": 8539,
      "ensed": 8540,
      "ensils": 8541,
      "Ġacup": 8542,
      "Ġacadem": 8543,
      "Ġcalligraph": 8544,
      "Ġlegally": 8545,
      "osity": 8546,
      "Ġamicable": 8547,
      "moving": 8548,
      "Ġshear": 8549,
      "Ġsauv": 8550,
      "Ġcarved": 8551,
      "Ġcarrots": 8552,
      "Ġcarriers": 8553,
      "athon": 8554,
      "ounds": 8555,
      "ixing": 8556,
      "Ġheadst": 8557,
      "Ġheadache": 8558,
      "Ġperalite": 8559,
      "Ġlightening": 8560,
      "Ġcompartment": 8561,
      "Ġcompartments": 8562,
      "Ġswings": 8563,
      "Ġswitzer": 8564,
      "ford": 8565,
      "alex": 8566,
      "Ġfootwear": 8567,
      "Ġcorpor": 8568,
      "Ġrunners": 8569,
      "Ġsmallest": 8570,
      "Ġbreeds": 8571,
      "Ġforwards": 8572,
      "ometry": 8573,
      "Ġwrit": 8574,
      "Ġdoesna": 8575,
      "Ġunable": 8576,
      "Ġunatt": 8577,
      "Ġdefine": 8578,
      "Ġdeflection": 8579,
      "Ġdeficiency": 8580,
      "Ġphrase": 8581,
      "Ġdistinguish": 8582,
      "Ġdisclose": 8583,
      "ignon": 8584,
      "Ġreporter": 8585,
      "Ġrepaired": 8586,
      "Ġstickers": 8587,
      "getting": 8588,
      "Ġreality": 8589,
      "Ġbrushing": 8590,
      "Ġrecept": 8591,
      "oops": 8592,
      "Ġproduces": 8593,
      "Ġpositioning": 8594,
      "Ġelong": 8595,
      "Ġintr": 8596,
      "Ġintent": 8597,
      "Ġdesce": 8598,
      "Ġdesert": 8599,
      "Ġcrump": 8600,
      "Ġcracked": 8601,
      "Ġpracticed": 8602,
      "Ġsynch": 8603,
      "issimus": 8604,
      "Ġtouchdown": 8605,
      "Ġdecay": 8606,
      "Ġdeciding": 8607,
      "Ġobs": 8608,
      "Ġfisherm": 8609,
      "Ġeyeball": 8610,
      "Ġrelate": 8611,
      "Ġrelie": 8612,
      "sha": 8613,
      "should": 8614,
      "Ġdepos": 8615,
      "Ġsurvey": 8616,
      "Ġhomepage": 8617,
      "ivas": 8618,
      "ival": 8619,
      "Ġcurves": 8620,
      "Ġcurled": 8621,
      "Ġshoots": 8622,
      "gged": 8623,
      "ancake": 8624,
      "Ġrooms": 8625,
      "Ġdetach": 8626,
      "Ġcompletion": 8627,
      "Ġregrow": 8628,
      "Ġremover": 8629,
      "Ġremoves": 8630,
      "Ġremovable": 8631,
      "Ġsuppose": 8632,
      "Ġ32": 8633,
      "Ġsixes": 8634,
      "Ġgrounded": 8635,
      "Ġfreedom": 8636,
      "somebody": 8637,
      "Ġaccents": 8638,
      "Ġinterval": 8639,
      "Ġtightening": 8640,
      "Ġcupc": 8641,
      "Ġbehave": 8642,
      "Ġbagging": 8643,
      "Ġbreaker": 8644,
      "Ġpicket": 8645,
      "Ġcollecting": 8646,
      "class": 8647,
      "Ġwaxes": 8648,
      "Ġpurs": 8649,
      "Ġpursu": 8650,
      "Ġdefined": 8651,
      "Ġlocations": 8652,
      "Ġstringing": 8653,
      "Ġcatcher": 8654,
      "Ġpopulation": 8655,
      "Ġfiref": 8656,
      "Ġtravis": 8657,
      "Ġtraffic": 8658,
      "Ġdiarr": 8659,
      "Ġridges": 8660,
      "Ġhorseback": 8661,
      "Ġsandy": 8662,
      "Ġwashes": 8663,
      "Ġdesignated": 8664,
      "Ġdiscip": 8665,
      "Ġdiscount": 8666,
      "Ġdiscourage": 8667,
      "Ġdiscovered": 8668,
      "Ġcheers": 8669,
      "Ġloan": 8670,
      "Ġfreely": 8671,
      "Ġfreezes": 8672,
      "Ġfreelance": 8673,
      "Ġmassachuset": 8674,
      "Ġfingerprint": 8675,
      "Ġfingerpicking": 8676,
      "Ġschem": 8677,
      "goal": 8678,
      "Ġhunt": 8679,
      "Ġtailored": 8680,
      "Ġsnakes": 8681,
      "Ġrefresh": 8682,
      "Ġmarble": 8683,
      "Ġmarried": 8684,
      "Ġmarathon": 8685,
      "Ġcommode": 8686,
      "Ġphotographers": 8687,
      "Ġteachers": 8688,
      "Ġcaps": 8689,
      "Ġdolls": 8690,
      "Ġswitching": 8691,
      "certain": 8692,
      "Ġtempl": 8693,
      "Ġtempered": 8694,
      "Ġrecommendation": 8695,
      "ificate": 8696,
      "Ġengland": 8697,
      "Ġsunflowers": 8698,
      "Ġfasten": 8699,
      "Ġsolve": 8700,
      "Ġplanet": 8701,
      "Ġinsulate": 8702,
      "Ġinsurance": 8703,
      "Ġstrongest": 8704,
      "Ġsoftware": 8705,
      "Ġsoftened": 8706,
      "Ġstudied": 8707,
      "Ġstudying": 8708,
      "meg": 8709,
      "meaning": 8710,
      "grad": 8711,
      "Ġbelong": 8712,
      "Ġfacts": 8713,
      "Ġsmoothness": 8714,
      "Ġcaul": 8715,
      "Ġcuttings": 8716,
      "Ġwinner": 8717,
      "Ġforever": 8718,
      "Ġforearms": 8719,
      "Ġconfuse": 8720,
      "Ġconfusing": 8721,
      "Ġsubtract": 8722,
      "Ġhoops": 8723,
      "Ġdemonstrated": 8724,
      "Ġdemonstrating": 8725,
      "Ġpatience": 8726,
      "Ġpatients": 8727,
      "Ġpitches": 8728,
      "Ġgolfer": 8729,
      "Ġinformative": 8730,
      "Ġschools": 8731,
      "Ġrooting": 8732,
      "Ġprotective": 8733,
      "Ġthinning": 8734,
      "Ġcounting": 8735,
      "Ġconsiderably": 8736,
      "Ġsafer": 8737,
      "Ġimproving": 8738,
      "Ġscrunch": 8739,
      "Ġprofessionally": 8740,
      "Ġpacks": 8741,
      "Ġexplos": 8742,
      "Ġexplode": 8743,
      "Ġparas": 8744,
      "Ġparries": 8745,
      "Ġparagraph": 8746,
      "Ġantiox": 8747,
      "Ġswinging": 8748,
      "Ġvisiting": 8749,
      "Ġsquared": 8750,
      "Ġattachment": 8751,
      "Ġcharacters": 8752,
      "Ġ70": 8753,
      "Ġ75": 8754,
      "Ġgloomy": 8755,
      "Ġhandled": 8756,
      "Ġmouthpiec": 8757,
      "Ġprescription": 8758,
      "Ġsupported": 8759,
      "Ġopposing": 8760,
      "Ġmoments": 8761,
      "Ġdetailing": 8762,
      "Ġclockwork": 8763,
      "Ġflexed": 8764,
      "Ġflexors": 8765,
      "Ġaudio": 8766,
      "Ġassortment": 8767,
      "sweep": 8768,
      "Ġnutmeg": 8769,
      "Ġroutes": 8770,
      "azz": 8771,
      "Ġpetun": 8772,
      "ucted": 8773,
      "Ġslippers": 8774,
      "Ġquarters": 8775,
      "Ġseparately": 8776,
      "Ġtanks": 8777,
      "Ġrotating": 8778,
      "Ġshrunken": 8779,
      "Ġfairway": 8780,
      "Ġguidelines": 8781,
      "Ġscrewdri": 8782,
      "Ġliqueur": 8783,
      "Ġcircum": 8784,
      "based": 8785,
      "excellent": 8786,
      "Ġutensils": 8787,
      "Ġyardage": 8788,
      "Ġingest": 8789,
      "Ġhoping": 8790,
      "Ġmoldy": 8791,
      "Ġagility": 8792,
      "Ġmounted": 8793,
      "Ġbrighten": 8794,
      "Ġattacking": 8795,
      "Ġlifetime": 8796,
      "Ġoptional": 8797,
      "Ġlayering": 8798,
      "Ġconnects": 8799,
      "Ġfrog": 8800,
      "Ġcompeting": 8801,
      "Ġspreading": 8802,
      "Ġsociety": 8803,
      "Ġperformed": 8804,
      "nedy": 8805,
      "Ġincline": 8806,
      "Ġreminder": 8807,
      "Ġlemons": 8808,
      "Ġincreasing": 8809,
      "Ġelectrician": 8810,
      "Ġwidths": 8811,
      "Ġsuggestion": 8812,
      "create": 8813,
      "Ġverte": 8814,
      "Ġvertically": 8815,
      "Ġdangling": 8816,
      "Ġabsolut": 8817,
      "looks": 8818,
      "Ġillusion": 8819,
      "Ġbacardi": 8820,
      "Ġhiking": 8821,
      "Ġclicking": 8822,
      "Ġaccurately": 8823,
      "Ġidentical": 8824,
      "Ġfighter": 8825,
      "Ġreduction": 8826,
      "Ġreduced": 8827,
      "Ġsweeping": 8828,
      "Ġphysically": 8829,
      "Ġautomob": 8830,
      "Ġthru": 8831,
      "Ġweddings": 8832,
      "Ġchords": 8833,
      "Ġtriath": 8834,
      "Ġsuccessfully": 8835,
      "Ġtraps": 8836,
      "Ġcampuses": 8837,
      "Ġcontraindic": 8838,
      "Ġabsorbing": 8839,
      "Ġoperations": 8840,
      "Ġlamps": 8841,
      "Ġcertification": 8842,
      "Ġcertificate": 8843,
      "Ġaffected": 8844,
      "Ġoccurred": 8845,
      "Ġtrademark": 8846,
      "Ġconstric": 8847,
      "Ġsoul": 8848,
      "Ġpedals": 8849,
      "Ġdreams": 8850,
      "Ġfeminine": 8851,
      "Ġtreasure": 8852,
      "Ġundulation": 8853,
      "Ġcontraction": 8854,
      "Ġirrigation": 8855,
      "Ġpsychiatrist": 8856,
      "Ġlabeled": 8857,
      "Ġindeed": 8858,
      "Ġlimbs": 8859,
      "starting": 8860,
      "Ġ197": 8861,
      "Ġscratches": 8862,
      "Ġmagnifying": 8863,
      "Ġhorserad": 8864,
      "Ġbaiting": 8865,
      "metric": 8866,
      "metics": 8867,
      "Ġlatissimus": 8868,
      "Ġbridle": 8869,
      "Ġpromin": 8870,
      "Ġpromise": 8871,
      "Ġamazed": 8872,
      "Ġdisplace": 8873,
      "Ġhorizontally": 8874,
      "Ġantibodies": 8875,
      "Ġantibiot": 8876,
      "Ġneutralize": 8877,
      "Ġshifts": 8878,
      "Ġmoderate": 8879,
      "Ġpadded": 8880,
      "Ġfiberglass": 8881,
      "Ġlicensed": 8882,
      "Ġkidney": 8883,
      "Ġgrains": 8884,
      "Ġinflamm": 8885,
      "Ġchristian": 8886,
      "Ġacrylics": 8887,
      "Ġdivide": 8888,
      "Ġaligned": 8889,
      "Ġseriously": 8890,
      "Ġinspires": 8891,
      "Ġisolation": 8892,
      "Ġreactions": 8893,
      "Ġdiagonally": 8894,
      "Ġcrocheting": 8895,
      "icylic": 8896,
      "Ġpolitical": 8897,
      "Ġpolitics": 8898,
      "Ġactivate": 8899,
      "Ġbreeding": 8900,
      "Ġdecisions": 8901,
      "Ġpigment": 8902,
      "Ġquietly": 8903,
      "Ġscoops": 8904,
      "Ġstriking": 8905,
      "Ġefficiently": 8906,
      "Ġsaturday": 8907,
      "Ġsummertime": 8908,
      "Ġtactics": 8909,
      "Ġaiming": 8910,
      "Ġcultures": 8911,
      "Ġstabilize": 8912,
      "stretch": 8913,
      "Ġincludes": 8914,
      "Ġincluded": 8915,
      "Ġsuspect": 8916,
      "Ġpapers": 8917,
      "Ġdenial": 8918,
      "Ġbells": 8919,
      "Ġkennedy": 8920,
      "Ġcoordinate": 8921,
      "Ġbronze": 8922,
      "Ġenclosed": 8923,
      "Ġperfumes": 8924,
      "Ġcomplimentary": 8925,
      "Ġathletes": 8926,
      "Ġgathering": 8927,
      "Ġfantasies": 8928,
      "Ġeighths": 8929,
      "Ġdewy": 8930,
      "Ġvibrate": 8931,
      "Ġsurrounding": 8932,
      "Ġsurprised": 8933,
      "Ġconsuming": 8934,
      "Ġdistracted": 8935,
      "Ġbroadcast": 8936,
      "Ġbounds": 8937,
      "Ġboundaries": 8938,
      "Ġhonor": 8939,
      "Ġmadar": 8940,
      "Ġcomedian": 8941,
      "Ġbuffalo": 8942,
      "Ġelementary": 8943,
      "Ġdelivering": 8944,
      "Ġbehavioral": 8945,
      "Ġtouring": 8946,
      "Ġgerman": 8947,
      "Ġmacro": 8948,
      "Ġultimately": 8949,
      "Ġsencha": 8950,
      "Ġharvest": 8951,
      "Ġvenom": 8952,
      "Ġpearl": 8953,
      "Ġenchilada": 8954,
      "Ġcontemp": 8955,
      "boxing": 8956,
      "Ġagreement": 8957,
      "Ġillustrate": 8958,
      "Ġradius": 8959,
      "Ġcushioning": 8960,
      "Ġsymbols": 8961,
      "Ġtasty": 8962,
      "Ġroasted": 8963,
      "Ġyolanda": 8964,
      "Ġshelves": 8965,
      "Ġchameleon": 8966,
      "Ġremedy": 8967,
      "Ġswamps": 8968,
      "Ġaccumulated": 8969,
      "Ġassessment": 8970,
      "Ġdandasana": 8971,
      "Ġchapped": 8972,
      "Ġpiercing": 8973,
      "Ġmanipulate": 8974,
      "Ġflattened": 8975,
      "Ġvoltage": 8976,
      "Ġhumidity": 8977,
      "Ġirritate": 8978,
      "finitely": 8979,
      "Ġwardrobe": 8980,
      "Ġdavis": 8981,
      "Ġkarie": 8982,
      "Ġfrustrating": 8983,
      "Ġclinical": 8984,
      "Ġsloping": 8985,
      "Ġgranulated": 8986,
      "Ġsnacks": 8987,
      "aughter": 8988,
      "ycling": 8989,
      "Ġtutor": 8990,
      "Ġsabre": 8991,
      "Ġcavity": 8992,
      "Ġcapelet": 8993,
      "Ġginjo": 8994,
      "Ġplywood": 8995,
      "Ġpiston": 8996,
      "Ġrehears": 8997,
      "Ġrapid": 8998,
      "charge": 8999,
      "Ġadequate": 9000,
      "Ġenhance": 9001,
      "Ġcontribute": 9002,
      "Ġfiltration": 9003,
      "Ġtransaction": 9004,
      "Ġportrait": 9005,
      "Ġmagnetism": 9006,
      "Ġcontinuously": 9007,
      "Ġinfluence": 9008,
      "Ġpapaya": 9009,
      "Ġmushrooms": 9010,
      "Ġtinted": 9011,
      "Ġigoogle": 9012,
      "Ġpamper": 9013,
      "Ġdorsi": 9014,
      "Ġnasty": 9015,
      "Ġhairstyle": 9016,
      "Ġjennifer": 9017,
      "Ġexhales": 9018,
      "Ġbristles": 9019,
      "Ġsaucers": 9020,
      "Ġveterinarian": 9021,
      "Ġhorrible": 9022,
      "Ġblemishes": 9023,
      "Ġweekend": 9024,
      "Ġintelligent": 9025,
      "Ġolympic": 9026,
      "double": 9027,
      "harmonie": 9028,
      "knees": 9029,
      "Ġwondered": 9030,
      "Ġhannah": 9031,
      "Ġgerms": 9032,
[...]
