{
  "version": "1.0",
  "truncation": null,
  "padding": null,
  "added_tokens": [
    {
      "id": 0,
      "content": "<s>",
      "single_word": false,
      "lstrip": false,
      "rstrip": false,
      "normalized": false,
      "special": true
    },
    {
      "id": 1,
      "content": "<pad>",
      "single_word": false,
      "lstrip": false,
      "rstrip": false,
      "normalized": false,
      "special": true
    },
    {
      "id": 2,
      "content": "</s>",
      "single_word": false,
      "lstrip": false,
      "rstrip": false,
      "normalized": false,
      "special": true
    }
  ],
  "normalizer": {
    "type": "Sequence",
    "normalizers": [
      {
        "type": "NFD"
      },
      {
        "type": "Lowercase"
      },
      {
        "type": "StripAccents"
      }
    ]
  },
  "pre_tokenizer": {
    "type": "ByteLevel",
    "add_prefix_space": false,
    "trim_offsets": true,
    "use_regex": true
  },
  "post_processor": {
    "type": "ByteLevel",
    "add_prefix_space": true,
    "trim_offsets": false,
    "use_regex": true
  },
  "decoder": {
    "type": "ByteLevel",
    "add_prefix_space": true,
    "trim_offsets": true,
    "use_regex": true
  },
  "model": {
    "type": "BPE",
    "dropout": null,
    "unk_token": null,
    "continuing_subword_prefix": null,
    "end_of_word_suffix": null,
    "fuse_unk": false,
    "vocab": {
      "<s>": 0,
      "<pad>": 1,
      "</s>": 2,
      "!": 3,
      "\"": 4,
      "#": 5,
      "$": 6,
      "%": 7,
      "&": 8,
      "'": 9,
      "(": 10,
      ")": 11,
      "*": 12,
      "+": 13,
      ",": 14,
      "-": 15,
      ".": 16,
      "/": 17,
      "0": 18,
      "1": 19,
      "2": 20,
      "3": 21,
      "4": 22,
      "5": 23,
      "6": 24,
      "7": 25,
      "8": 26,
      "9": 27,
      ":": 28,
      ";": 29,
      "<": 30,
      "=": 31,
      ">": 32,
      "?": 33,
      "@": 34,
      "[": 35,
      "\\": 36,
      "]": 37,
      "_": 38,
      "`": 39,
      "a": 40,
      "b": 41,
      "c": 42,
      "d": 43,
      "e": 44,
      "f": 45,
      "g": 46,
      "h": 47,
      "i": 48,
      "j": 49,
      "k": 50,
      "l": 51,
      "m": 52,
      "n": 53,
      "o": 54,
      "p": 55,
      "q": 56,
      "r": 57,
      "s": 58,
      "t": 59,
      "u": 60,
      "v": 61,
      "w": 62,
      "x": 63,
      "y": 64,
      "z": 65,
      "¦": 66,
      "â": 67,
      "Ġ": 68,
      "Ģ": 69,
      "ĵ": 70,
      "Ķ": 71,
      "Ļ": 72,
      "ľ": 73,
      "Ŀ": 74,
      "Ġt": 75,
      "Ġa": 76,
      "he": 77,
      "in": 78,
      "re": 79,
      "Ġs": 80,
      "Ġw": 81,
      "Ġthe": 82,
      "on": 83,
      "er": 84,
      "Ġc": 85,
      "or": 86,
      "at": 87,
      "ou": 88,
      "Ġf": 89,
      "nd": 90,
      "ed": 91,
      "Ġb": 92,
      "it": 93,
      "Ġto": 94,
      "Ġp": 95,
      "is": 96,
      "ing": 97,
      "en": 98,
      "Ġd": 99,
      "Ġm": 100,
      "es": 101,
      "an": 102,
      "Ġo": 103,
      "Ġh": 104,
      "al": 105,
      "ar": 106,
      "Ġin": 107,
      "as": 108,
      "Ġand": 109,
      "Ġth": 110,
      "ic": 111,
      "Ġof": 112,
      "Ġl": 113,
      "Ġn": 114,
      "il": 115,
      "om": 116,
      "id": 117,
      "ion": 118,
      "ay": 119,
      "the": 120,
      "us": 121,
      "Ġre": 122,
      "ent": 123,
      "le": 124,
      "Ġy": 125,
      "ve": 126,
      "Ġg": 127,
      "Ġbe": 128,
      "Ġe": 129,
      "Ġis": 130,
      "Ġfor": 131,
      "Ġst": 132,
      "ow": 133,
      "ac": 134,
      "ot": 135,
      "ol": 136,
      "Ġon": 137,
      "Ġhe": 138,
      "ig": 139,
      "Ġde": 140,
      "Ġyou": 141,
      "Ġthat": 142,
      "ad": 143,
      "th": 144,
      "ir": 145,
      "os": 146,
      "ers": 147,
      "im": 148,
      "Ġwe": 149,
      "am": 150,
      "ill": 151,
      "Ġwas": 152,
      "ly": 153,
      "Ġwh": 154,
      "ro": 155,
      "ith": 156,
      "ter": 157,
      "Ġwith": 158,
      "Ġare": 159,
      "ation": 160,
      "'s": 161,
      "ver": 162,
      "et": 163,
      "Ġit": 164,
      "ct": 165,
      "Ġu": 166,
      "if": 167,
      "Ġha": 168,
      "Ġal": 169,
      "Ġan": 170,
      "ut": 171,
      "ur": 172,
      "op": 173,
      "ew": 174,
      "el": 175,
      "st": 176,
      "Ġj": 177,
      "Ġv": 178,
      "Ġas": 179,
      "our": 180,
      "ch": 181,
      "ke": 182,
      "Ġr": 183,
      "out": 184,
      "ce": 185,
      "ld": 186,
      "Ġcon": 187,
      "Ġat": 188,
      "Ġfr": 189,
      "and": 190,
      "pp": 191,
      "res": 192,
      "Ġse": 193,
      "ge": 194,
      "af": 195,
      "ate": 196,
      "Ġcom": 197,
      "Ġtr": 198,
      "Ġch": 199,
      "um": 200,
      "Ġsh": 201,
      "Ġhave": 202,
      "ear": 203,
      "est": 204,
      "ies": 205,
      "Ġsa": 206,
      "un": 207,
      "Ġi": 208,
      "Ġk": 209,
      "Ġwill": 210,
      "ort": 211,
      "ht": 212,
      "day": 213,
      "oo": 214,
      "ant": 215,
      "Ġor": 216,
      "ul": 217,
      "ore": 218,
      "Ġsu": 219,
      "ome": 220,
      "Ġus": 221,
      "all": 222,
      "oc": 223,
      "Ġsaid": 224,
      "em": 225,
      "Ġthey": 226,
      "Ġfrom": 227,
      "ther": 228,
      "eop": 229,
      "Ġnot": 230,
      "eople": 231,
      "ain": 232,
      "nt": 233,
      "ity": 234,
      "iv": 235,
      "ign": 236,
      "ive": 237,
      "Ġdeaf": 238,
      "ment": 239,
      "Ġpeople": 240,
      "art": 241,
      "ould": 242,
      "Ġex": 243,
      "ud": 244,
      "ight": 245,
      "Ġthis": 246,
      "Ġpro": 247,
      "ice": 248,
      "ess": 249,
      "Ġab": 250,
      "ial": 251,
      "Ġcan": 252,
      "Ġsay": 253,
      "ide": 254,
      "ist": 255,
      "se": 256,
      "Ġhas": 257,
      "Ġ1": 258,
      "Ġwor": 259,
      "Ġ\"": 260,
      "pe": 261,
      "ard": 262,
      "Ġ2": 263,
      "Ġyour": 264,
      "Ġdo": 265,
      "Ġby": 266,
      "Ġnew": 267,
      "00": 268,
      "one": 269,
      "Ġwho": 270,
      "we": 271,
      "red": 272,
      "ast": 273,
      "ca": 274,
      "Ġme": 275,
      "Ġall": 276,
      "ust": 277,
      "so": 278,
      "Ġtheir": 279,
      "pt": 280,
      "fe": 281,
      "Ġwere": 282,
      "ack": 283,
      "ident": 284,
      "qu": 285,
      "Ġhis": 286,
      "Ġle": 287,
      "ia": 288,
      "Ġpl": 289,
      "Ġpr": 290,
      "Ġne": 291,
      "Ġwhe": 292,
      "Ġout": 293,
      "Ġgo": 294,
      "Ġoff": 295,
      "Ġbut": 296,
      "ab": 297,
      "age": 298,
      "ie": 299,
      "Ġup": 300,
      "ber": 301,
      "ump": 302,
      "lo": 303,
      "ak": 304,
      "Ġabout": 305,
      "Ġsign": 306,
      "Ġar": 307,
      "ans": 308,
      "ose": 309,
      "Ġthere": 310,
      "ace": 311,
      "ost": 312,
      "Ġres": 313,
      "Ġcomm": 314,
      "very": 315,
      "Ġtw": 316,
      "Ġim": 317,
      "port": 318,
      "Ġad": 319,
      "use": 320,
      "Ġac": 321,
      "Ġpres": 322,
      "av": 323,
      "for": 324,
      "ake": 325,
      "ions": 326,
      "Ġcou": 327,
      "Ġaf": 328,
      "Ġam": 329,
      "Ġyear": 330,
      "Ġmore": 331,
      "Ġher": 332,
      "now": 333,
      "ag": 334,
      "Ġman": 335,
      "ine": 336,
      "oug": 337,
      "iz": 338,
      "ally": 339,
      "Ġwork": 340,
      "ook": 341,
      "ood": 342,
      "are": 343,
      "ike": 344,
      "new": 345,
      "Ġte": 346,
      "'t": 347,
      "Ġtim": 348,
      "Ġgr": 349,
      "Ġour": 350,
      "ame": 351,
      "Ġag": 352,
      "ound": 353,
      "ang": 354,
      "Ġtrump": 355,
      "Ġinter": 356,
      "Ġcr": 357,
      "Ġun": 358,
      "per": 359,
      "Ġstor": 360,
      "Ġapp": 361,
      "Ġbeen": 362,
      "Ġpol": 363,
      "Ġcl": 364,
      "ip": 365,
      "her": 366,
      "Ġso": 367,
      "cause": 368,
      "Ġother": 369,
      "ren": 370,
      "Ġalso": 371,
      "te": 372,
      "Ġthem": 373,
      "ail": 374,
      "Ġone": 375,
      "Ġdis": 376,
      "to": 377,
      "news": 378,
      "Ġinc": 379,
      "Ġbecause": 380,
      "ich": 381,
      "ire": 382,
      "Ġwhat": 383,
      "'m": 384,
      "Ġcont": 385,
      "Ġtwo": 386,
      "ous": 387,
      "Ġlike": 388,
      "Ġhad": 389,
      "ool": 390,
      "ated": 391,
      "Ġtoday": 392,
      "Ġmo": 393,
      "ong": 394,
      "ind": 395,
      "Ġsome": 396,
      "Ġshe": 397,
      "ied": 398,
      "Ġwould": 399,
      "ib": 400,
      "ank": 401,
      "irst": 402,
      "Ġbo": 403,
      "Ġtop": 404,
      "ild": 405,
      "orn": 406,
      "uc": 407,
      "Ġen": 408,
      "Ġwee": 409,
      "Ġwant": 410,
      "Ġoffic": 411,
      "Ġbr": 412,
      "Ġmy": 413,
      "ree": 414,
      "aw": 415,
      "Ġsch": 416,
      "ass": 417,
      "act": 418,
      "Ġafter": 419,
      "ates": 420,
      "ors": 421,
      "ations": 422,
      "ure": 423,
      "Ġ20": 424,
      "own": 425,
      "Ġpresident": 426,
      "Ġtime": 427,
      "aring": 428,
      "Ġwhen": 429,
      "Ġover": 430,
      "Ġcomp": 431,
      "ite": 432,
      "Ġco": 433,
      "Ġif": 434,
      "Ġrec": 435,
      "pre": 436,
      "Ġcommun": 437,
      "Ġschool": 438,
      "old": 439,
      "ough": 440,
      "ary": 441,
      "ick": 442,
      "Ġget": 443,
      "Ġacc": 444,
      "Ġfirst": 445,
      "oll": 446,
      "ond": 447,
      "form": 448,
      "Ġday": 449,
      "Ġca": 450,
      "Ġ(": 451,
      "Ġdid": 452,
      "ach": 453,
      "Ġnow": 454,
      "ell": 455,
      "ase": 456,
      "ue": 457,
      "Ġstate": 458,
      "ord": 459,
      "Ġknow": 460,
      "bl": 461,
      "Ġbl": 462,
      ".\"": 463,
      "Ġev": 464,
      "Ġevery": 465,
      "Ġinv": 466,
      "Ġjust": 467,
      "this": 468,
      "ks": 469,
      "ry": 470,
      "Ġser": 471,
      "ict": 472,
      "Ġcount": 473,
      "Ġmon": 474,
      "ents": 475,
      "that": 476,
      "Ġshow": 477,
      "Ġno": 478,
      "Ġdr": 479,
      "Ġfe": 480,
      "Ġjo": 481,
      "Ġem": 482,
      "Ġwhich": 483,
      "Ġsays": 484,
      "there": 485,
      "Ġact": 486,
      "erson": 487,
      "irus": 488,
      "ile": 489,
      "Ġstud": 490,
      "Ġpart": 491,
      "Ġvide": 492,
      "Ġfl": 493,
      "Ġhim": 494,
      "Ġcall": 495,
      "Ġsee": 496,
      "Ġro": 497,
      "ult": 498,
      "pport": 499,
      "ence": 500,
      "Ġwat": 501,
      "Ġreport": 502,
      "Ġqu": 503,
      "Ġnad": 504,
      "Ġhow": 505,
      "amp": 506,
      "ings": 507,
      "Ġcould": 508,
      "ife": 509,
      "Ġsp": 510,
      "ities": 511,
      "Ġthose": 512,
      "ug": 513,
      "they": 514,
      "hed": 515,
      "Ġpolice": 516,
      "angu": 517,
      "Ġneed": 518,
      "but": 519,
      "Ġlangu": 520,
      "Ġstories": 521,
      "ress": 522,
      "Ġhearing": 523,
      "Ġyears": 524,
      "eric": 525,
      "Ġnews": 526,
      "ap": 527,
      "Ġsc": 528,
      "come": 529,
      "ked": 530,
      "Ġ-": 531,
      "Ġany": 532,
      "hel": 533,
      "oss": 534,
      "ath": 535,
      "ouse": 536,
      "ational": 537,
      "Ġcor": 538,
      "Ġmay": 539,
      "Ġmany": 540,
      "Ġmed": 541,
      "oth": 542,
      "Ġlanguage": 543,
      "Ġchild": 544,
      "pect": 545,
      "Ġthan": 546,
      "Ġ3": 547,
      "Ġlaw": 548,
      "Ġhel": 549,
      "ll": 550,
      "og": 551,
      "ian": 552,
      "ved": 553,
      "Ġfam": 554,
      "your": 555,
      "Ġspe": 556,
      "Ġincl": 557,
      "ember": 558,
      "Ġtoo": 559,
      "Ġvideo": 560,
      "here": 561,
      "Ġback": 562,
      "rent": 563,
      "Ġperson": 564,
      "uring": 565,
      "Ġhapp": 566,
      "Ġinto": 567,
      "reat": 568,
      "000": 569,
      "Ġsec": 570,
      "ne": 571,
      "Ġameric": 572,
      "ep": 573,
      "Ġlook": 574,
      "Ġhouse": 575,
      "Ġdown": 576,
      "Ġfamil": 577,
      "Ġinclud": 578,
      "ade": 579,
      "Ġcar": 580,
      "Ġdon": 581,
      "Ġthr": 582,
      "pl": 583,
      "Ġhelp": 584,
      "Ġstart": 585,
      "ens": 586,
      "ction": 587,
      "Ġdec": 588,
      "ote": 589,
      "ubl": 590,
      "thank": 591,
      "Ġmake": 592,
      "Ġatt": 593,
      "Ġmar": 594,
      "Ġpre": 595,
      "Ġph": 596,
      "Ġ$": 597,
      "Ġinterpre": 598,
      "Ġweek": 599,
      "enc": 600,
      "Ġlast": 601,
      "Ġstr": 602,
      "hello": 603,
      "ance": 604,
      "way": 605,
      "ting": 606,
      "Ġ201": 607,
      "alth": 608,
      "illion": 609,
      "iss": 610,
      "Ġcommunity": 611,
      "Ġright": 612,
      "ical": 613,
      "fore": 614,
      "Ġdif": 615,
      "Ġund": 616,
      "Ġagain": 617,
      "vel": 618,
      "Ġface": 619,
      "Ġlife": 620,
      "wh": 621,
      "xt": 622,
      "Ġper": 623,
      "avirus": 624,
      "onavirus": 625,
      "Ġchar": 626,
      "Ġsupport": 627,
      "eral": 628,
      "ues": 629,
      "ption": 630,
      "vid": 631,
      "Ġcoronavirus": 632,
      "Ġits": 633,
      "rat": 634,
      "any": 635,
      "ts": 636,
      "Ġthree": 637,
      "Ġsoc": 638,
      "she": 639,
      "ublic": 640,
      "you": 641,
      "ady": 642,
      "Ġwom": 643,
      "Ġwhere": 644,
      "fect": 645,
      "Ġrep": 646,
      "king": 647,
      "ning": 648,
      "ious": 649,
      "ition": 650,
      "Ġhard": 651,
      "Ġbeing": 652,
      "gr": 653,
      "able": 654,
      "Ġwatch": 655,
      "rest": 656,
      "Ġserv": 657,
      "Ġrem": 658,
      "year": 659,
      "Ġstill": 660,
      "Ġexper": 661,
      "ned": 662,
      "ff": 663,
      "Ġass": 664,
      "Ġann": 665,
      "Ġthen": 666,
      "Ġcour": 667,
      "ollow": 668,
      "com": 669,
      "Ġlead": 670,
      "Ġhealth": 671,
      "Ġdiffe": 672,
      "de": 673,
      "Ġhome": 674,
      "Ġfollow": 675,
      "yst": 676,
      "Ġasl": 677,
      "ns": 678,
      "Ġduring": 679,
      "ials": 680,
      "Ġdem": 681,
      "Ġshould": 682,
      "als": 683,
      "Ġ5": 684,
      "Ġsure": 685,
      "ited": 686,
      "pit": 687,
      "au": 688,
      "Ġthrough": 689,
      "Ġtest": 690,
      "Ġbefore": 691,
      "vern": 692,
      "Ġfamily": 693,
      "Ġ4": 694,
      "ivers": 695,
      "igh": 696,
      "Ġeveryone": 697,
      "Ġdeath": 698,
      "other": 699,
      "ward": 700,
      "Ġhappen": 701,
      "Ġinform": 702,
      "Ġbet": 703,
      "Ġsocial": 704,
      "Ġstates": 705,
      "ork": 706,
      "ased": 707,
      "Ġrel": 708,
      "Ġnational": 709,
      "Ġdep": 710,
      "rem": 711,
      "Ġcol": 712,
      "Ġgovern": 713,
      "Ġkill": 714,
      "Ġmade": 715,
      "Ġmonth": 716,
      "Ġfound": 717,
      "estig": 718,
      "ced": 719,
      "Ġke": 720,
      "ful": 721,
      "acc": 722,
      "Ġchildren": 723,
      "Ġdifferent": 724,
      "cer": 725,
      "Ġimp": 726,
      "Ġonly": 727,
      "ish": 728,
      "ases": 729,
      "oun": 730,
      "oot": 731,
      "aking": 732,
      "iew": 733,
      "Ġvery": 734,
      "ons": 735,
      "cess": 736,
      "Ġworld": 737,
      "Ġresp": 738,
      "Ġlive": 739,
      "ible": 740,
      "ory": 741,
      "ted": 742,
      "Ġwar": 743,
      "Ġsur": 744,
      "feren": 745,
      "tr": 746,
      "elf": 747,
      "bs": 748,
      "ged": 749,
      "Ġmillion": 750,
      "Ġhere": 751,
      "Ġinformation": 752,
      "be": 753,
      "br": 754,
      "Ġnext": 755,
      "der": 756,
      "Ġtake": 757,
      "Ġind": 758,
      "und": 759,
      "loy": 760,
      "med": 761,
      "Ġpost": 762,
      "Ġnight": 763,
      "'re": 764,
      "Ġmeet": 765,
      "Ġwhite": 766,
      "Ġdisc": 767,
      "Ġinvestig": 768,
      "ah": 769,
      "ri": 770,
      "Ġgu": 771,
      "mer": 772,
      "Ġfeel": 773,
      "Ġsen": 774,
      "Ġwhile": 775,
      "book": 776,
      "ince": 777,
      "Ġuse": 778,
      "Ġop": 779,
      "veral": 780,
      "Ġele": 781,
      "bers": 782,
      "ices": 783,
      "Ġannoun": 784,
      "ton": 785,
      "thing": 786,
      "anc": 787,
      "ments": 788,
      "ck": 789,
      "ospit": 790,
      "Ġreg": 791,
      "Ġmedia": 792,
      "uss": 793,
      "gan": 794,
      "Ġbus": 795,
      "Ġmin": 796,
      "dy": 797,
      "ink": 798,
      "Ġed": 799,
      "ating": 800,
      "Ġwatching": 801,
      "Ġhospit": 802,
      "wn": 803,
      "ording": 804,
      "Ġcalled": 805,
      "alif": 806,
      "Ġaccess": 807,
      "Ġcons": 808,
      "Ġcamp": 809,
      "ix": 810,
      "iday": 811,
      "Ġimport": 812,
      "Ġpass": 813,
      "sign": 814,
      "Ġmem": 815,
      "Ġdied": 816,
      "Ġconferen": 817,
      "Ġfire": 818,
      "Ġreally": 819,
      "Ġagainst": 820,
      "Ġcases": 821,
      "ather": 822,
      "ives": 823,
      "Ġtold": 824,
      "hen": 825,
      "ater": 826,
      "Ġgood": 827,
      "istr": 828,
      "how": 829,
      "Ġche": 830,
      "used": 831,
      "Ġplay": 832,
      "..": 833,
      "ness": 834,
      "Ġrequ": 835,
      "Ġiss": 836,
      "Ġstay": 837,
      "Ġcontin": 838,
      "Ġadd": 839,
      "Ġadv": 840,
      "me": 841,
      "Ġear": 842,
      "Ġcourt": 843,
      "ocrat": 844,
      "Ġins": 845,
      "Ġfacebook": 846,
      "Ġfed": 847,
      "Ġfin": 848,
      "artment": 849,
      "Ġplan": 850,
      "ptions": 851,
      "Ġteam": 852,
      "Ġstudents": 853,
      "land": 854,
      "Ġfour": 855,
      "ones": 856,
      "pol": 857,
      "ey": 858,
      "Ġnor": 859,
      "Ġrele": 860,
      "ought": 861,
      "nds": 862,
      "Ġway": 863,
      "Ġloc": 864,
      "du": 865,
      "Ġsecond": 866,
      "ready": 867,
      "Ġreported": 868,
      "Ġwent": 869,
      "Ġnum": 870,
      "Ġfil": 871,
      "Ġdoes": 872,
      "Ġsm": 873,
      "Ġbu": 874,
      "Ġlo": 875,
      "Ġbill": 876,
      "osed": 877,
      "Ġconf": 878,
      "az": 879,
      "ave": 880,
      "Ġimportant": 881,
      "ters": 882,
      "Ġhigh": 883,
      "oup": 884,
      "Ġmost": 885,
      "Ġseveral": 886,
      "Ġexperi": 887,
      "Ġsus": 888,
      "Ġblack": 889,
      "Ġyork": 890,
      "Ġve": 891,
      "ina": 892,
      "Ġlear": 893,
      "Ġname": 894,
      "hip": 895,
      "Ġ19": 896,
      "Ġcountry": 897,
      "ric": 898,
      "Ġset": 899,
      "Ġunder": 900,
      "hing": 901,
      "Ġbel": 902,
      "ual": 903,
      "Ġsame": 904,
      "Ġexpl": 905,
      "min": 906,
      "Ġcand": 907,
      "Ġlet": 908,
      "gram": 909,
      "Ġgroup": 910,
      "Ġopen": 911,
      "Ġarrest": 912,
      "wel": 913,
      "ty": 914,
      "Ġprogram": 915,
      "ared": 916,
      "Ġje": 917,
      "Ġgoing": 918,
      "Ġ6": 919,
      "Ġdemocrat": 920,
      "Ġconference": 921,
      "arent": 922,
      "Ġfederal": 923,
      "oin": 924,
      "ying": 925,
      "les": 926,
      "Ġemp": 927,
      "remember": 928,
      "Ġlong": 929,
      "Ġasked": 930,
      "Ġown": 931,
      "man": 932,
      "Ġtrans": 933,
      "Ġbre": 934,
      "ines": 935,
      "my": 936,
      "ving": 937,
      "Ġofficials": 938,
      "ges": 939,
      "thor": 940,
      "welcome": 941,
      "Ġwell": 942,
      "ven": 943,
      "Ġeven": 944,
      "Ġend": 945,
      "Ġce": 946,
      "Ġgot": 947,
      "ull": 948,
      "Ġpos": 949,
      "ange": 950,
      "urs": 951,
      "line": 952,
      "Ġlot": 953,
      "Ġwr": 954,
      "Ġleg": 955,
      "Ġprot": 956,
      "ms": 957,
      "hes": 958,
      "uck": 959,
      "ired": 960,
      "Ġanother": 961,
      "ized": 962,
      "19": 963,
      "ief": 964,
      "Ġthese": 965,
      "ility": 966,
      "ually": 967,
      "pr": 968,
      "Ġair": 969,
      "'ve": 970,
      "ale": 971,
      "Ġdes": 972,
      "Ġmiss": 973,
      "Ġcovid": 974,
      "Ġhospital": 975,
      "Ġpublic": 976,
      "ower": 977,
      "Ġcommit": 978,
      "Ġunivers": 979,
      "ise": 980,
      "Ġmu": 981,
      "Ġprov": 982,
      "aily": 983,
      "Ġdays": 984,
      "ention": 985,
      "Ġused": 986,
      "app": 987,
      "ures": 988,
      "view": 989,
      "Ġtal": 990,
      "Ġcommunic": 991,
      "Ġshoot": 992,
      "Ġnear": 993,
      "io": 994,
      "Ġhop": 995,
      "aliforn": 996,
      "Ġcity": 997,
      "nes": 998,
      "Ġcome": 999,
      "Ġboard": 1000,
      "Ġsince": 1001,
      "aff": 1002,
      "alifornia": 1003,
      "Ġdaily": 1004,
      "ific": 1005,
      "Ġincluding": 1006,
      "Ġdepartment": 1007,
      "Ġaround": 1008,
      "Ġeduc": 1009,
      "Ġinvol": 1010,
      "iving": 1011,
      "Ġkilled": 1012,
      "tle": 1013,
      "Ġcle": 1014,
      "Ġstarted": 1015,
      "Ġspec": 1016,
      "Ġorgan": 1017,
      "according": 1018,
      "ween": 1019,
      "ency": 1020,
      "Ġannounced": 1021,
      "Ġvis": 1022,
      "Ġplace": 1023,
      "Ġprotest": 1024,
      "Ġcent": 1025,
      "Ġrece": 1026,
      "Ġpar": 1027,
      "atur": 1028,
      "ative": 1029,
      "ize": 1030,
      "self": 1031,
      "Ġbig": 1032,
      "itter": 1033,
      "Ġinst": 1034,
      "ived": 1035,
      "ger": 1036,
      "Ġsou": 1037,
      "Ġwal": 1038,
      "Ġvot": 1039,
      "Ġbetween": 1040,
      "ft": 1041,
      "Ġcalifornia": 1042,
      "Ġwoman": 1043,
      "Ġold": 1044,
      "ount": 1045,
      "ph": 1046,
      "Ġ7": 1047,
      "Ġexpect": 1048,
      "Ġwood": 1049,
      "Ġret": 1050,
      "when": 1051,
      "iness": 1052,
      "iden": 1053,
      "Ġable": 1054,
      "Ġcompany": 1055,
      "no": 1056,
      "Ġfac": 1057,
      "ages": 1058,
      "Ġdire": 1059,
      "ime": 1060,
      "Ġshare": 1061,
      "Ġ10": 1062,
      "weet": 1063,
      "Ġboth": 1064,
      "Ġmembers": 1065,
      "li": 1066,
      "ins": 1067,
      "Ġthings": 1068,
      "Ġge": 1069,
      "Ġprovide": 1070,
      "gress": 1071,
      "Ġfind": 1072,
      "Ġrest": 1073,
      "Ġalready": 1074,
      "Ġmil": 1075,
      "ctor": 1076,
      "Ġbar": 1077,
      "ves": 1078,
      "Ġexp": 1079,
      "Ġofficers": 1080,
      "ptioned": 1081,
      "ior": 1082,
      "Ġcontr": 1083,
      "Ġgovernment": 1084,
      "Ġconcer": 1085,
      "Ġfriday": 1086,
      "police": 1087,
      "Ġtur": 1088,
      "Ġworking": 1089,
      "Ġunt": 1090,
      "Ġorganiz": 1091,
      "ces": 1092,
      "ever": 1093,
      "Ġallow": 1094,
      "ash": 1095,
      "ene": 1096,
      "Ġma": 1097,
      "ester": 1098,
      "Ġaway": 1099,
      "Ġcase": 1100,
      "Ġuntil": 1101,
      "fl": 1102,
      "ics": 1103,
      "Ġsit": 1104,
      "ants": 1105,
      "Ġeach": 1106,
      "air": 1107,
      "Ġemploy": 1108,
      "Ġcur": 1109,
      "Ġent": 1110,
      "its": 1111,
      "Ġservices": 1112,
      "Ġbusiness": 1113,
      "vers": 1114,
      "tend": 1115,
      "Ġ8": 1116,
      "ators": 1117,
      "Ġpat": 1118,
      "Ġstop": 1119,
      "Ġmeans": 1120,
      "Ġtwitter": 1121,
      "Ġwomen": 1122,
      "Ġuniversity": 1123,
      "what": 1124,
      "Ġav": 1125,
      "ple": 1126,
      "Ġbro": 1127,
      "Ġcare": 1128,
      "Ġwhy": 1129,
      "Ġkeep": 1130,
      "Ġdidn": 1131,
      "trump": 1132,
      "erg": 1133,
      "amed": 1134,
      "Ġart": 1135,
      "Ġ9": 1136,
      "Ġjud": 1137,
      "Ġwed": 1138,
      "Ġfrie": 1139,
      "Ġhead": 1140,
      "Ġ--": 1141,
      "Ġsent": 1142,
      "Ġhist": 1143,
      "aud": 1144,
      "ason": 1145,
      "Ġmonday": 1146,
      "Ġshot": 1147,
      "Ġleast": 1148,
      "20": 1149,
      "Ġpay": 1150,
      "Ġamerican": 1151,
      "Ġtimes": 1152,
      "Ġquest": 1153,
      "uesday": 1154,
      "resent": 1155,
      "Ġthink": 1156,
      "Ġschools": 1157,
      "thro": 1158,
      "Ġtook": 1159,
      "emic": 1160,
      "Ġparent": 1161,
      "Ġmoth": 1162,
      "aug": 1163,
      "Ġfew": 1164,
      "Ġarea": 1165,
      "Ġmust": 1166,
      "ird": 1167,
      "Ġhappened": 1168,
      "Ġexplain": 1169,
      "Ġjethro": 1170,
      "thorities": 1171,
      "Ġsaying": 1172,
      "Ġinterpreter": 1173,
      "cted": 1174,
      "Ġnumber": 1175,
      "orr": 1176,
      "Ġlight": 1177,
      "Ġprovid": 1178,
      "orney": 1179,
      "Ġmuch": 1180,
      "some": 1181,
      "ists": 1182,
      "Ġwin": 1183,
      "ask": 1184,
      "gether": 1185,
      "Ġposs": 1186,
      "erst": 1187,
      "Ġappro": 1188,
      "Ġarrested": 1189,
      "iol": 1190,
      "Ġput": 1191,
      "Ġdiscuss": 1192,
      "Ġcre": 1193,
      "Ġlater": 1194,
      "Ġtweet": 1195,
      "Ġrepresent": 1196,
      "resident": 1197,
      "Ġgen": 1198,
      "Ġbody": 1199,
      "Ġcolle": 1200,
      "Ġinterpreters": 1201,
      "nesday": 1202,
      "aturday": 1203,
      "Ġsaf": 1204,
      "Ġdead": 1205,
      "cc": 1206,
      "Ġmat": 1207,
      "Ġreleased": 1208,
      "Ġsyst": 1209,
      "Ġfive": 1210,
      "ble": 1211,
      "Ġmen": 1212,
      "sh": 1213,
      "Ġservice": 1214,
      "iel": 1215,
      "captions": 1216,
      "Ġgreat": 1217,
      "oney": 1218,
      "Ġmorn": 1219,
      "Ġformer": 1220,
      "ross": 1221,
      "ert": 1222,
      "Ġhour": 1223,
      "ida": 1224,
      "Ġprocess": 1225,
      "Ġcryst": 1226,
      "ru": 1227,
      "ane": 1228,
      "Ġcous": 1229,
      "Ġattorney": 1230,
      "Ġcrystal": 1231,
      "captioned": 1232,
      "dall": 1233,
      "ony": 1234,
      "Ġhar": 1235,
      "Ġtogether": 1236,
      "Ġrun": 1237,
      "Ġplat": 1238,
      "Ġreal": 1239,
      "ands": 1240,
      "Ġadmin": 1241,
      "Ġintern": 1242,
      "Ġplatform": 1243,
      "su": 1244,
      "Ġbelie": 1245,
      "Ġinvolved": 1246,
      "mit": 1247,
      "ten": 1248,
      "Ġvirus": 1249,
      "velop": 1250,
      "Ġeducation": 1251,
      "Ġwooddall": 1252,
      ").": 1253,
      "Ġident": 1254,
      "Ġmur": 1255,
      "Ġmorning": 1256,
      "Ġsk": 1257,
      "Ġleaders": 1258,
      "Ġsuspect": 1259,
      "Ġtom": 1260,
      "Ġlar": 1261,
      "akes": 1262,
      "Ġweeks": 1263,
      "Ġofficer": 1264,
      "Ġcommitte": 1265,
      "Ġfood": 1266,
      "Ġbiden": 1267,
      "Ġinj": 1268,
      "Ġwanted": 1269,
      "Ġsim": 1270,
      "Ġjones": 1271,
      "Ġago": 1272,
      "Ġsaturday": 1273,
      "Ġbeh": 1274,
      "ont": 1275,
      "Ġthank": 1276,
      "Ġdevelop": 1277,
      "cent": 1278,
      "Ġgeor": 1279,
      "Ġgun": 1280,
      "Ġgive": 1281,
      "Ġmother": 1282,
      "Ġref": 1283,
      "Ġacross": 1284,
      "Ġvote": 1285,
      "Ġsund": 1286,
      "Ġupd": 1287,
      "Ġrecent": 1288,
      "Ġcounty": 1289,
      "Ġtuesday": 1290,
      "iting": 1291,
      "ision": 1292,
      "Ġcontinue": 1293,
      "Ġparents": 1294,
      "ner": 1295,
      "Ġinvestigation": 1296,
      "led": 1297,
      "ineau": 1298,
      "Ġmove": 1299,
      "Ġexperience": 1300,
      "ient": 1301,
      "Ġinterview": 1302,
      "Ġunderst": 1303,
      "Ġmeeting": 1304,
      "Ġcousineau": 1305,
      "Ġau": 1306,
      "Ġpast": 1307,
      "leg": 1308,
      "Ġsunday": 1309,
      "'ll": 1310,
      "cut": 1311,
      "president": 1312,
      "Ġstaff": 1313,
      "Ġsuch": 1314,
      "Ġstorm": 1315,
      "Ġstory": 1316,
      "Ġothers": 1317,
      "Ġboy": 1318,
      "Ġmoney": 1319,
      "Ġhur": 1320,
      "esterday": 1321,
      "orida": 1322,
      "Ġchange": 1323,
      "oci": 1324,
      "off": 1325,
      "Ġbur": 1326,
      "Ġassoci": 1327,
      "uly": 1328,
      "gest": 1329,
      "jo": 1330,
      "Ġel": 1331,
      "load": 1332,
      "Ġamericans": 1333,
      "go": 1334,
      "ism": 1335,
      "Ġob": 1336,
      "Ġoffice": 1337,
      "Ġviol": 1338,
      "Ġsub": 1339,
      "ursday": 1340,
      "Ġusing": 1341,
      "Ġwednesday": 1342,
      "Ġsystem": 1343,
      "imin": 1344,
      "Ġcongress": 1345,
      "Ġprev": 1346,
      "xas": 1347,
      "Ġhit": 1348,
      "ially": 1349,
      "ids": 1350,
      "Ġra": 1351,
      "Ġz": 1352,
      "Ġpand": 1353,
      "ified": 1354,
      "itive": 1355,
      "Ġevent": 1356,
      "Ġmaj": 1357,
      "most": 1358,
      "Ġrepublic": 1359,
      "Ġprodu": 1360,
      "ued": 1361,
      "Ġbest": 1362,
      "ured": 1363,
      "Ġwithout": 1364,
      "istration": 1365,
      "do": 1366,
      "ires": 1367,
      "Ġfar": 1368,
      "ided": 1369,
      "ames": 1370,
      "Ġshooting": 1371,
      "Ġclear": 1372,
      "ator": 1373,
      "Ġmaking": 1374,
      "gin": 1375,
      "Ġide": 1376,
      "however": 1377,
      "Ġbuild": 1378,
      "Ġtell": 1379,
      "aign": 1380,
      "Ġint": 1381,
      "ute": 1382,
      "Ġprote": 1383,
      "Ġwon": 1384,
      "ama": 1385,
      "Ġmov": 1386,
      "Ġthought": 1387,
      "orrow": 1388,
      "hers": 1389,
      "Ġcharged": 1390,
      "Ġter": 1391,
      "olog": 1392,
      "Ġvict": 1393,
      "Ġchang": 1394,
      "Ġclass": 1395,
      "Ġcommittee": 1396,
      "many": 1397,
      "Ġopport": 1398,
      "irl": 1399,
      "Ġvir": 1400,
      "Ġopportun": 1401,
      "ety": 1402,
      "Ġjob": 1403,
      "Ġonline": 1404,
      "ock": 1405,
      "Ġrights": 1406,
      "bo": 1407,
      "Ġpoin": 1408,
      "ars": 1409,
      "Ġflorida": 1410,
      "ering": 1411,
      "Ġbecome": 1412,
      "Ġweeke": 1413,
      "Ġmonths": 1414,
      "Ġthursday": 1415,
      "Ġnever": 1416,
      "Ġhistory": 1417,
      "ims": 1418,
      "Ġunderstand": 1419,
      "Ġmajor": 1420,
      "get": 1421,
      "Ġfoc": 1422,
      "Ġforward": 1423,
      "Ġpandemic": 1424,
      "Ġcame": 1425,
      "Ġbring": 1426,
      "Ġjoh": 1427,
      "Ġlocal": 1428,
      "Ġsl": 1429,
      "Ġlist": 1430,
      "Ġattack": 1431,
      "Ġexpected": 1432,
      "fr": 1433,
      "Ġcust": 1434,
      "Ġhom": 1435,
      "Ġdownload": 1436,
      "Ġcandace": 1437,
      "Ġfight": 1438,
      "Ġorder": 1439,
      "Ġrecord": 1440,
      "Ġsy": 1441,
      "Ġcrit": 1442,
      "Ġweekend": 1443,
      "Ġ15": 1444,
      "Ġnorth": 1445,
      "Ġwind": 1446,
      "Ġtexas": 1447,
      "Ġpower": 1448,
      "Ġsix": 1449,
      "Ġfun": 1450,
      "let": 1451,
      "Ġdeaths": 1452,
      "mber": 1453,
      "rick": 1454,
      "up": 1455,
      "Ġcampaign": 1456,
      "hington": 1457,
      "co": 1458,
      "Ġthird": 1459,
      "Ġhand": 1460,
      "ways": 1461,
      "Ġplatforms": 1462,
      "je": 1463,
      "Ġgetting": 1464,
      "Ġsouth": 1465,
      "uation": 1466,
      "Ġcontact": 1467,
      "Ġenc": 1468,
      "Ġsum": 1469,
      "Ġstre": 1470,
      "Ġeng": 1471,
      "Ġimpact": 1472,
      "Ġir": 1473,
      "uary": 1474,
      "Ġtrain": 1475,
      "...": 1476,
      "ison": 1477,
      "Ġhum": 1478,
      "ax": 1479,
      "iver": 1480,
      "son": 1481,
      "Ġuk": 1482,
      "Ġleft": 1483,
      "Ġelection": 1484,
      "Ġconfir": 1485,
      "Ġjudge": 1486,
      "Ġexc": 1487,
      "ds": 1488,
      "ico": 1489,
      "Ġequ": 1490,
      "ately": 1491,
      "Ġpress": 1492,
      "pread": 1493,
      "Ġmet": 1494,
      "fected": 1495,
      "augh": 1496,
      "Ġgirl": 1497,
      "Ġdet": 1498,
      "allen": 1499,
      "Ġtra": 1500,
      "today": 1501,
      "Ġshows": 1502,
      "Ġmight": 1503,
      "Ġamerica": 1504,
      "anta": 1505,
      "Ġsomeone": 1506,
      "Ġrespond": 1507,
      "Ġtomorrow": 1508,
      "ched": 1509,
      "ok": 1510,
      "Ġgall": 1511,
      "audet": 1512,
      "Ġpa": 1513,
      "after": 1514,
      "Ġdoing": 1515,
      "Ġwashington": 1516,
      "ling": 1517,
      "Ġeas": 1518,
      "Ġwel": 1519,
      "une": 1520,
      "Ġresult": 1521,
      "Ġsomething": 1522,
      "Ġcele": 1523,
      "Ġhon": 1524,
      "cts": 1525,
      "Ġchr": 1526,
      "Ġcharges": 1527,
      "side": 1528,
      "Ġwa": 1529,
      "con": 1530,
      "Ġhost": 1531,
      "Ġyoun": 1532,
      "Ġris": 1533,
      "Ġtrial": 1534,
      "Ġemerg": 1535,
      "Ġhope": 1536,
      "Ġdemocratic": 1537,
      "Ġemploye": 1538,
      "ached": 1539,
      "rain": 1540,
      "Ġfund": 1541,
      "ular": 1542,
      "ional": 1543,
      "Ġissues": 1544,
      "Ġsenate": 1545,
      "Ġadministration": 1546,
      "ove": 1547,
      "Ġpop": 1548,
      "Ġnamed": 1549,
      "ailable": 1550,
      "Ġadvoc": 1551,
      "Ġaslcaptions": 1552,
      "Ġpict": 1553,
      "Ġseen": 1554,
      "Ġstudent": 1555,
      "Ġconne": 1556,
      "Ġphone": 1557,
      "Ġcenter": 1558,
      "Ġdistr": 1559,
      "ivid": 1560,
      "Ġimpe": 1561,
      "Ġbetter": 1562,
      "Ġmurder": 1563,
      "Ġposted": 1564,
      "Ġdog": 1565,
      "Ġdecided": 1566,
      "Ġinte": 1567,
      "Ġrac": 1568,
      "Ġdef": 1569,
      "Ġclose": 1570,
      "Ġlooking": 1571,
      "acy": 1572,
      "Ġbrief": 1573,
      "Ġtech": 1574,
      "Ġencour": 1575,
      "Ġjuly": 1576,
      "Ġhours": 1577,
      "Ġmarch": 1578,
      "ret": 1579,
      "Ġunited": 1580,
      "Ġwater": 1581,
      "yes": 1582,
      "Ġwebs": 1583,
      "ney": 1584,
      "ffect": 1585,
      "Ġson": 1586,
      "Ġmid": 1587,
      "Ġavailable": 1588,
      "Ġstar": 1589,
      "Ġsex": 1590,
      "Ġhol": 1591,
      "Ġalways": 1592,
      "Ġdisab": 1593,
      "Ġsw": 1594,
      "Ġfel": 1595,
      "Ġsaw": 1596,
      "Ġwhether": 1597,
      "Ġfriends": 1598,
      "Ġteac": 1599,
      "Ġ30": 1600,
      "rew": 1601,
      "ots": 1602,
      "aken": 1603,
      "Ġpolit": 1604,
      "Ġdro": 1605,
      "cept": 1606,
      "Ġattend": 1607,
      "Ġjustice": 1608,
      "Ġfull": 1609,
      "Ġprom": 1610,
      "Ġpositive": 1611,
      "Ġmain": 1612,
      "Ġstand": 1613,
      "Ġindivid": 1614,
      "Ġemergency": 1615,
      "dc": 1616,
      "Ġsuc": 1617,
      "Ġdise": 1618,
      "Ġneeds": 1619,
      "Ġstrong": 1620,
      "Ġmass": 1621,
      "Ġask": 1622,
      "Ġprop": 1623,
      "Ġdoesn": 1624,
      "Ġimpeach": 1625,
      "Ġspread": 1626,
      "Ġla": 1627,
      "Ġlit": 1628,
      "Ġsend": 1629,
      "Ġmedical": 1630,
      "ished": 1631,
      "Ġfilm": 1632,
      "Ġes": 1633,
      "Ġeffect": 1634,
      "Ġyouth": 1635,
      "Ġjoin": 1636,
      "Ġlearn": 1637,
      "Ġdeal": 1638,
      "Ġimm": 1639,
      "Ġty": 1640,
      "Ġchallen": 1641,
      "Ġ200": 1642,
      "Ġpolic": 1643,
      "ra": 1644,
      "reen": 1645,
      "Ġple": 1646,
      "Ġknown": 1647,
      "by": 1648,
      "Ġsal": 1649,
      "itary": 1650,
      "oms": 1651,
      "Ġtrying": 1652,
      "Ġresear": 1653,
      "ys": 1654,
      "Ġcla": 1655,
      "Ġinclude": 1656,
      "Ġinterest": 1657,
      "par": 1658,
      "ries": 1659,
      "Ġcurrent": 1660,
      "ets": 1661,
      "Ġincre": 1662,
      "ister": 1663,
      "Ġhold": 1664,
      "Ġphot": 1665,
      "Ġgallaudet": 1666,
      "od": 1667,
      "Ġdue": 1668,
      "Ġdrug": 1669,
      "gia": 1670,
      "ald": 1671,
      "Ġgrant": 1672,
      "Ġwebsite": 1673,
      "last": 1674,
      "Ġincident": 1675,
      "Ġreports": 1676,
      "Ġpossible": 1677,
      "Ġest": 1678,
      "itness": 1679,
      "ised": 1680,
      "Ġ11": 1681,
      "Ġpercent": 1682,
      "wards": 1683,
      "Ġbehind": 1684,
      "offic": 1685,
      "Ġmas": 1686,
      "Ġang": 1687,
      "Ġcheck": 1688,
      "Ġlove": 1689,
      "Ġretur": 1690,
      "tw": 1691,
      "Ġstore": 1692,
      "urity": 1693,
      "Ġshowed": 1694,
      "Ġtravel": 1695,
      "Ġgame": 1696,
      "iff": 1697,
      "Ġcarol": 1698,
      "Ġcam": 1699,
      "Ġvar": 1700,
      "Ġprior": 1701,
      "Ġsupp": 1702,
      "Ġcomple": 1703,
      "Ġearly": 1704,
      "Ġspecial": 1705,
      "Ġcelebr": 1706,
      "Ġthreat": 1707,
      "Ġconv": 1708,
      "Ġlevel": 1709,
      "Ġtechn": 1710,
      "ense": 1711,
      "ems": 1712,
      "see": 1713,
      "Ġenough": 1714,
      "Ġcommunication": 1715,
      "Ġfree": 1716,
      "Ġanim": 1717,
      "avrick": 1718,
      "Ġdemocrats": 1719,
      "Ġmilitary": 1720,
      "Ġpassed": 1721,
      "Ġbook": 1722,
      "Ġdel": 1723,
      "Ġatl": 1724,
      "Ġchina": 1725,
      "Ġarr": 1726,
      "Ġstatement": 1727,
      "Ġsecurity": 1728,
      "his": 1729,
      "Ġaw": 1730,
      "Ġmom": 1731,
      "igr": 1732,
      "Ġwelcome": 1733,
      "cr": 1734,
      "Ġmich": 1735,
      "ricane": 1736,
      "Ġdist": 1737,
      "Ġdecision": 1738,
      "Ġfocus": 1739,
      "Ġlives": 1740,
      "Ġview": 1741,
      "ically": 1742,
      "Ġoutside": 1743,
      "Ġcaption": 1744,
      "Ġgeneral": 1745,
      "Ġmovie": 1746,
      "ipp": 1747,
      "Ġnation": 1748,
      "cement": 1749,
      "Ġ2020": 1750,
      "Ġpartic": 1751,
      "while": 1752,
      "Ġgovernor": 1753,
      "hic": 1754,
      "Ġill": 1755,
      "Ġrul": 1756,
      "pend": 1757,
      "Ġappear": 1758,
      "Ġtweeted": 1759,
      "Ġmess": 1760,
      "Ġbelieve": 1761,
      "Ġbat": 1762,
      "Ġmus": 1763,
      "ctors": 1764,
      "Ġcolor": 1765,
      "Ġremain": 1766,
      "Ġrespons": 1767,
      "Ġkind": 1768,
      "Ġexamp": 1769,
      "ball": 1770,
      "Ġstep": 1771,
      "Ġdeb": 1772,
      "Ġdisease": 1773,
      "Ġfather": 1774,
      "ado": 1775,
      "Ġ18": 1776,
      "Ġgeorgia": 1777,
      "Ġtaken": 1778,
      "Ġfut": 1779,
      "Ġpe": 1780,
      "open": 1781,
      "Ġprof": 1782,
      "Ġthing": 1783,
      "Ġcond": 1784,
      "Ġpresent": 1785,
      "ution": 1786,
      "Ġworked": 1787,
      "nn": 1788,
      "Ġfall": 1789,
      "Ġvideos": 1790,
      "Ġrelated": 1791,
      "Ġinside": 1792,
      "Ġukrain": 1793,
      "then": 1794,
      "Ġheart": 1795,
      "Ġsmall": 1796,
      "Ġopportunity": 1797,
      "Ġmult": 1798,
      "Ġquick": 1799,
      "Ġ50": 1800,
      "Ġreceived": 1801,
      "Ġfuture": 1802,
      "ogn": 1803,
      "Ġassociation": 1804,
      "ered": 1805,
      "Ġcoming": 1806,
      "Ġcho": 1807,
      "aged": 1808,
      "Ġimpro": 1809,
      "Ġimpeachment": 1810,
      "Ġmot": 1811,
      "Ġrecogn": 1812,
      "Ġorganization": 1813,
      "ology": 1814,
      "Ġbab": 1815,
      "isl": 1816,
      "Ġless": 1817,
      "Ġproble": 1818,
      "Ġplac": 1819,
      "Ġtaking": 1820,
      "Ġhot": 1821,
      "Ġred": 1822,
      "Ġyet": 1823,
      "imes": 1824,
      "Ġlawsu": 1825,
      "Ġlarge": 1826,
      "alf": 1827,
      "idence": 1828,
      "utes": 1829,
      "authorities": 1830,
      "joy": 1831,
      "Ġidea": 1832,
      "not": 1833,
      "Ġcost": 1834,
      "ober": 1835,
      "ctions": 1836,
      "Ġstudy": 1837,
      "Ġsituation": 1838,
      "ify": 1839,
      "Ġcontrol": 1840,
      "ctober": 1841,
      "Ġlittle": 1842,
      "Ġhaving": 1843,
      "Ġjune": 1844,
      "Ġmark": 1845,
      "Ġexperienc": 1846,
      "Ġsuccess": 1847,
      "ilities": 1848,
      "Ġste": 1849,
      "ops": 1850,
      "Ġresident": 1851,
      "Ġactiv": 1852,
      "Ġyoung": 1853,
      "Ġconfirmed": 1854,
      "ature": 1855,
      "Ġalle": 1856,
      "Ġpriv": 1857,
      "Ġcarolina": 1858,
      "Ġdam": 1859,
      "Ġreopen": 1860,
      "urch": 1861,
      "Ġshared": 1862,
      "Ġ13": 1863,
      "deaf": 1864,
      "Ġconcerns": 1865,
      "Ġcomes": 1866,
      "Ġmean": 1867,
      "ier": 1868,
      "ients": 1869,
      "Ġsupre": 1870,
      "Ġwants": 1871,
      "Ġcandid": 1872,
      "Ġhurricane": 1873,
      "came": 1874,
      "Ġready": 1875,
      "Ġkids": 1876,
      "Ġsuper": 1877,
      "Ġ100": 1878,
      "Ġdoctor": 1879,
      "Ġrequest": 1880,
      "bre": 1881,
      "Ġoctober": 1882,
      "Ġ12": 1883,
      "Ġworkers": 1884,
      "da": 1885,
      "Ġwond": 1886,
      "Ġpage": 1887,
      "ily": 1888,
      "Ġreached": 1889,
      "Ġant": 1890,
      "Ġchrist": 1891,
      "Ġfront": 1892,
      "Ġlegal": 1893,
      "Ġatlanta": 1894,
      "over": 1895,
      "ral": 1896,
      "ides": 1897,
      "Ġbecame": 1898,
      "Ġmex": 1899,
      "Ġsoon": 1900,
      "Ġquestion": 1901,
      "Ġpen": 1902,
      "Ġyesterday": 1903,
      "Ġvacc": 1904,
      "ources": 1905,
      "Ġcompl": 1906,
      "aughter": 1907,
      "Ġexample": 1908,
      ",\"": 1909,
      "Ġseason": 1910,
      "aker": 1911,
      "Ġlegisl": 1912,
      "Ġinternational": 1913,
      "han": 1914,
      "na": 1915,
      "Ġthous": 1916,
      "ada": 1917,
      "Ġ25": 1918,
      "order": 1919,
      "Ġsan": 1920,
      "Ġden": 1921,
      "Ġdoll": 1922,
      "Ġheld": 1923,
      "Ġ14": 1924,
      "Ġserious": 1925,
      "Ġrole": 1926,
      "cl": 1927,
      "Ġofficial": 1928,
      "Ġaddress": 1929,
      "Ġcollege": 1930,
      "Ġmasks": 1931,
      "Ġtre": 1932,
      "ilar": 1933,
      "Ġcouple": 1934,
      "Ġapr": 1935,
      "Ġfore": 1936,
      "Ġdone": 1937,
      "Ġvol": 1938,
      "Ġshort": 1939,
      "Ġclosed": 1940,
      "Ġsafe": 1941,
      "Ġok": 1942,
      "Ġcustom": 1943,
      "dr": 1944,
      "Ġtreat": 1945,
      "Ġread": 1946,
      "Ġgave": 1947,
      "Ġletter": 1948,
      "Ġnearly": 1949,
      "Ġquestions": 1950,
      "Ġsummer": 1951,
      "Ġapril": 1952,
      "Ġalmost": 1953,
      "Ġtry": 1954,
      "Ġbreak": 1955,
      "Ġemployees": 1956,
      "ault": 1957,
      "Ġtar": 1958,
      "Ġagre": 1959,
      "cri": 1960,
      "ik": 1961,
      "Ġtem": 1962,
      "Ġruss": 1963,
      "Ġcompet": 1964,
      "Ġaccused": 1965,
      "lier": 1966,
      "two": 1967,
      "Ġcert": 1968,
      "Ġpack": 1969,
      "also": 1970,
      "Ġrecently": 1971,
      "ĠĠ": 1972,
      "yl": 1973,
      "Ġwitness": 1974,
      "ither": 1975,
      "Ġcountries": 1976,
      "Ġplans": 1977,
      "lish": 1978,
      "Ġbillion": 1979,
      "ark": 1980,
      "Ġeff": 1981,
      "Ġflood": 1982,
      "Ġfamilies": 1983,
      "ches": 1984,
      "Ġappl": 1985,
      "Ġcover": 1986,
      "Ġlawy": 1987,
      "Ġprograms": 1988,
      "Ġdistrict": 1989,
      "atives": 1990,
      "ams": 1991,
      "thern": 1992,
      "Ġperform": 1993,
      "Ġhuman": 1994,
      "),": 1995,
      "people": 1996,
      "Ġbuilding": 1997,
      "aur": 1998,
      "Ġfact": 1999,
      "Ġlikely": 2000,
      "Ġactually": 2001,
      "Ġcamer": 2002,
      "Ġaug": 2003,
      "Ġforce": 2004,
      "iple": 2005,
      "Ġcaused": 2006,
      "Ġorganizations": 2007,
      "officials": 2008,
      "Ġwife": 2009,
      "ury": 2010,
      "Ġgrow": 2011,
      "ibility": 2012,
      "more": 2013,
      "Ġopp": 2014,
      "Ġareas": 2015,
      "Ġenjoy": 2016,
      "Ġtested": 2017,
      "Ġspecific": 2018,
      "onse": 2019,
      "Ġpull": 2020,
      "Ġtried": 2021,
      "Ġprison": 2022,
      "Ġcause": 2023,
      "Ġsupreme": 2024,
      "Ġaugust": 2025,
      "Ġcdc": 2026,
      "Ġpick": 2027,
      "ality": 2028,
      "Ġsept": 2029,
      "Ġexperts": 2030,
      "ino": 2031,
      "reg": 2032,
      "Ġber": 2033,
      "Ġdat": 2034,
      "Ġnet": 2035,
      "ott": 2036,
      "Ġaccount": 2037,
      "ission": 2038,
      "Ġbased": 2039,
      "Ġhig": 2040,
      "Ġwithin": 2041,
      "Ġvisit": 2042,
      "Ġresponse": 2043,
      "ield": 2044,
      "Ġseptember": 2045,
      "cast": 2046,
      "Ġgoal": 2047,
      "Ġ2016": 2048,
      "enef": 2049,
      "with": 2050,
      "Ġ17": 2051,
      "Ġ24": 2052,
      "Ġfelt": 2053,
      "using": 2054,
      "Ġdev": 2055,
      "ement": 2056,
      "Ġmavrick": 2057,
      "Ġalong": 2058,
      "Ġgrad": 2059,
      "Ġauthorities": 2060,
      "Ġrisk": 2061,
      "Ġpolicy": 2062,
      "Ġresidents": 2063,
      "Ġeffort": 2064,
      "rap": 2065,
      "Ġcat": 2066,
      "Ġbenef": 2067,
      "itions": 2068,
      "Ġform": 2069,
      "Ġamaz": 2070,
      "Ġtraining": 2071,
      "ww": 2072,
      "ateg": 2073,
      "Ġjoe": 2074,
      "Ġexplained": 2075,
      "Ġvictims": 2076,
      "Ġaud": 2077,
      "Ġever": 2078,
      "ste": 2079,
      "coming": 2080,
      "Ġminutes": 2081,
      "ai": 2082,
      "ex": 2083,
      "sel": 2084,
      "Ġsing": 2085,
      "Ġlou": 2086,
      "Ġlim": 2087,
      "Ġparty": 2088,
      "Ġball": 2089,
      "Ġdc": 2090,
      "hi": 2091,
      "Ġrestaur": 2092,
      "Ġban": 2093,
      "ounds": 2094,
      "Ġroom": 2095,
      "selves": 2096,
      "Ġasking": 2097,
      "ails": 2098,
      "Ġprep": 2099,
      "Ġissue": 2100,
      "Ġprotect": 2101,
      "Ġhomes": 2102,
      "!\"": 2103,
      "che": 2104,
      "del": 2105,
      "Ġap": 2106,
      "Ġdoc": 2107,
      "Ġanything": 2108,
      "Ġconsid": 2109,
      "less": 2110,
      "Ġcut": 2111,
      "Ġjour": 2112,
      "Ġsepar": 2113,
      "Ġpresidential": 2114,
      "Ġprotesters": 2115,
      "Ġcritic": 2116,
      "Ġangel": 2117,
      "aut": 2118,
      "Ġsand": 2119,
      "Ġevidence": 2120,
      "Ġsimilar": 2121,
      "Ġaust": 2122,
      "Ġfired": 2123,
      "Ġmember": 2124,
      "vember": 2125,
      "Ġdirect": 2126,
      "head": 2127,
      "Ġlos": 2128,
      "Ġhands": 2129,
      "osecut": 2130,
      "Ġgrand": 2131,
      "medi": 2132,
      "conom": 2133,
      "Ġself": 2134,
      "Ġborder": 2135,
      "Ġjan": 2136,
      "ips": 2137,
      "Ġrequire": 2138,
      "ram": 2139,
      "tal": 2140,
      "Ġment": 2141,
      "aly": 2142,
      "ota": 2143,
      "Ġsear": 2144,
      "ored": 2145,
      "Ġneeded": 2146,
      "Ġalleged": 2147,
      "Ġthousands": 2148,
      "cle": 2149,
      "gers": 2150,
      "Ġland": 2151,
      "Ġeconom": 2152,
      "Ġcomments": 2153,
      "Ġprin": 2154,
      "Ġchanges": 2155,
      "Ġlawsuit": 2156,
      "fort": 2157,
      "Ġpus": 2158,
      "rop": 2159,
      "ival": 2160,
      "Ġresc": 2161,
      "Ġdirector": 2162,
      "Ġtechnology": 2163,
      "Ġcaptioning": 2164,
      "duc": 2165,
      "ub": 2166,
      "Ġleave": 2167,
      "Ġnovember": 2168,
      "gn": 2169,
      "Ġisland": 2170,
      "avy": 2171,
      "Ġassault": 2172,
      "Ġmatter": 2173,
      "Ġupdates": 2174,
      "Ġparticip": 2175,
      "Ġtax": 2176,
      "Ġnon": 2177,
      "tern": 2178,
      "Ġtalk": 2179,
      "Ġsol": 2180,
      "Ġbad": 2181,
      "omin": 2182,
      "Ġcompan": 2183,
      "Ġeverything": 2184,
      "Ġseeing": 2185,
      "iana": 2186,
      "Ġvehic": 2187,
      "Ġmexico": 2188,
      "uals": 2189,
      "Ġfem": 2190,
      "Ġrain": 2191,
      "ugg": 2192,
      "Ġsecret": 2193,
      "Ġposition": 2194,
      "Ġimmigr": 2195,
      "Ġdata": 2196,
      "chers": 2197,
      "ee": 2198,
      "ians": 2199,
      "sw": 2200,
      "wide": 2201,
      "Ġline": 2202,
      "Ġiran": 2203,
      "Ġhonor": 2204,
      "sd": 2205,
      "Ġage": 2206,
      "Ġcult": 2207,
      "Ġbir": 2208,
      "Ġreason": 2209,
      "Ġsug": 2210,
      "anger": 2211,
      "Ġ2017": 2212,
      "Ġreceive": 2213,
      "Ġsym": 2214,
      "Ġpolitical": 2215,
      "Ġfoot": 2216,
      "Ġpot": 2217,
      "Ġbegin": 2218,
      "Ġrepublican": 2219,
      "Ġthough": 2220,
      "Ġfiled": 2221,
      "Ġukraine": 2222,
      "bi": 2223,
      "sure": 2224,
      "Ġfig": 2225,
      "omme": 2226,
      "Ġneg": 2227,
      "undred": 2228,
      "Ġbusinesses": 2229,
      "Ġsafety": 2230,
      "Ġholiday": 2231,
      "Ġresearch": 2232,
      "Ġwearing": 2233,
      "ained": 2234,
      "Ġarg": 2235,
      "Ġrecomme": 2236,
      "Ġpersonal": 2237,
      "Ġrelations": 2238,
      "Ġregion": 2239,
      "Ġdesign": 2240,
      "of": 2241,
      "Ġlost": 2242,
      "Ġep": 2243,
      "icted": 2244,
      "Ġremember": 2245,
      "Ġsurve": 2246,
      "Ġfinal": 2247,
      "Ġwonder": 2248,
      "Ġwww": 2249,
      "Ġoper": 2250,
      "Ġoften": 2251,
      "omet": 2252,
      "Ġartic": 2253,
      "Ġmill": 2254,
      "Ġimmedi": 2255,
      "Ġanyone": 2256,
      "Ġinsp": 2257,
      "ron": 2258,
      "Ġdeter": 2259,
      "Ġweather": 2260,
      "Ġval": 2261,
      "Ġspee": 2262,
      "Ġlearned": 2263,
      "ael": 2264,
      "nie": 2265,
      "oke": 2266,
      "iring": 2267,
      "akers": 2268,
      "Ġadult": 2269,
      "Ġinjured": 2270,
      "Ġbaby": 2271,
      "gree": 2272,
      "Ġtou": 2273,
      "Ġenfor": 2274,
      "Ġproducts": 2275,
      "Ġpoint": 2276,
      "Ġvarious": 2277,
      "Ġdocum": 2278,
      "Ġrelease": 2279,
      "Ġjanuary": 2280,
      "ivil": 2281,
      "Ġ16": 2282,
      "Ġspace": 2283,
      "Ġpatients": 2284,
      "bur": 2285,
      "nder": 2286,
      "these": 2287,
      "Ġreach": 2288,
      "ley": 2289,
      "Ġseat": 2290,
      "Ġcancer": 2291,
      "Ġhimself": 2292,
      "Ġmayor": 2293,
      "Ġcourse": 2294,
      "Ġaddition": 2295,
      "Ġprotests": 2296,
      "Ġexcited": 2297,
      "Ġindividuals": 2298,
      "Ġmultiple": 2299,
      "don": 2300,
      "isc": 2301,
      "Ġjail": 2302,
      "Ġcrimin": 2303,
      "lin": 2304,
      "work": 2305,
      "Ġcoll": 2306,
      "avor": 2307,
      "Ġappe": 2308,
      "Ġ2019": 2309,
      "Ġprofess": 2310,
      "Ġcompanies": 2311,
      "ecut": 2312,
      "Ġdaughter": 2313,
      "Ġmakes": 2314,
      "Ġeither": 2315,
      "Ġshut": 2316,
      "pec": 2317,
      "Ġbrought": 2318,
      "Ġparts": 2319,
      "ience": 2320,
      "Ġhalf": 2321,
      "Ġsto": 2322,
      "Ġjohn": 2323,
      "down": 2324,
      "Ġpet": 2325,
      "room": 2326,
      "Ġrace": 2327,
      "iven": 2328,
      "Ġaccept": 2329,
      "ago": 2330,
      "Ġtele": 2331,
      "Ġdriver": 2332,
      "Ġaction": 2333,
      "ject": 2334,
      "itiz": 2335,
      "Ġmail": 2336,
      "Ġlow": 2337,
      "Ġgl": 2338,
      "Ġhappy": 2339,
      "Ġfriend": 2340,
      "break": 2341,
      "Ġinfected": 2342,
      "Ġlin": 2343,
      "Ġled": 2344,
      "ocked": 2345,
      "ports": 2346,
      "Ġevents": 2347,
      "Ġcouldn": 2348,
      "Ġleader": 2349,
      "back": 2350,
      "Ġaut": 2351,
      "Ġcivil": 2352,
      "Ġpu": 2353,
      "Ġcomplete": 2354,
      "'d": 2355,
      "Ġpract": 2356,
      "ancing": 2357,
      "Ġnumbers": 2358,
      "Ġaware": 2359,
      "Ġlouis": 2360,
      "Ġspeech": 2361,
      "Ġahead": 2362,
      "atures": 2363,
      "Ġvice": 2364,
      "Ġmoved": 2365,
      "Ġbriefs": 2366,
      "gt": 2367,
      "right": 2368,
      "Ġdece": 2369,
      "Ġamong": 2370,
      "Ġhelped": 2371,
      "Ġjohns": 2372,
      "mal": 2373,
      "time": 2374,
      "Ġmention": 2375,
      "Ġrid": 2376,
      "Ġcanc": 2377,
      "Ġaccom": 2378,
      "Ġincludes": 2379,
      "Ġmissing": 2380,
      "Ġimprove": 2381,
      "mon": 2382,
      "rs": 2383,
      "well": 2384,
      "Ġwild": 2385,
      "Ġpain": 2386,
      "ania": 2387,
      "Ġexecut": 2388,
      "ards": 2389,
      "Ġrecall": 2390,
      "dered": 2391,
      "Ġprovided": 2392,
      "Ġupdate": 2393,
      "Ġrelationship": 2394,
      "iety": 2395,
      "sc": 2396,
      "Ġtour": 2397,
      "Ġwall": 2398,
      "ching": 2399,
      "Ġ21": 2400,
      "Ġsigning": 2401,
      "Ġgroups": 2402,
      "Ġpark": 2403,
      "Ġleadership": 2404,
      "Ġside": 2405,
      "Ġdefe": 2406,
      "ills": 2407,
      "Ġjr": 2408,
      "Ġseven": 2409,
      "Ġground": 2410,
      "Ġquar": 2411,
      "Ġlearning": 2412,
      "Ġencourage": 2413,
      "11": 2414,
      "person": 2415,
      "ille": 2416,
      "Ġissued": 2417,
      "Ġquickly": 2418,
      "Ġprivate": 2419,
      "Ġcustomers": 2420,
      "enn": 2421,
      "key": 2422,
      "Ġsharing": 2423,
      "Ġsched": 2424,
      "ging": 2425,
      "icago": 2426,
      "Ġur": 2427,
      "empt": 2428,
      "Ġrob": 2429,
      "mitted": 2430,
      "Ġvaccine": 2431,
      "first": 2432,
      "yesterday": 2433,
      "Ġoutbreak": 2434,
      "Ġkilling": 2435,
      "Ġturn": 2436,
      "ming": 2437,
      "Ġmask": 2438,
      "Ġscreen": 2439,
      "Ġstrugg": 2440,
      "Ġbirth": 2441,
      "fer": 2442,
      "yle": 2443,
      "Ġtv": 2444,
      "Ġincluded": 2445,
      "Ġwrong": 2446,
      "arr": 2447,
      "Ġflu": 2448,
      "Ġscene": 2449,
      "Ġcommunicate": 2450,
      "Ġrepresentatives": 2451,
      "Ġprevious": 2452,
      "Ġpicture": 2453,
      "Ġcriminal": 2454,
      "mp": 2455,
      "ped": 2456,
      "fered": 2457,
      "Ġstarting": 2458,
      "Ġrepublicans": 2459,
      "can": 2460,
      "Ġsn": 2461,
      "Ġthin": 2462,
      "Ġlab": 2463,
      "Ġconst": 2464,
      "Ġsurv": 2465,
      "loyd": 2466,
      "Ġallowed": 2467,
      "Ġterr": 2468,
      "Ġclaim": 2469,
      "uel": 2470,
      "Ġwest": 2471,
      "Ġmc": 2472,
      "ceed": 2473,
      "Ġknew": 2474,
      "Ġyourself": 2475,
      "Ġcalls": 2476,
      "50": 2477,
      "oid": 2478,
      "Ġer": 2479,
      "att": 2480,
      "Ġpur": 2481,
      "ential": 2482,
      "bert": 2483,
      "Ġsigned": 2484,
      "Ġmodel": 2485,
      "Ġvolun": 2486,
      "Ġtotal": 2487,
      "Ġdoctors": 2488,
      "Ġflight": 2489,
      "Ġroad": 2490,
      "Ġ2018": 2491,
      "Ġstreet": 2492,
      "Ġrecommend": 2493,
      "bing": 2494,
      "Ġtowards": 2495,
      "Ġtesting": 2496,
      "Ġhospitals": 2497,
      "Ġplane": 2498,
      "overed": 2499,
      "Ġlaun": 2500,
      "Ġrules": 2501,
      "Ġmusic": 2502,
      "nc": 2503,
      "ville": 2504,
      "Ġfavor": 2505,
      "Ġdefense": 2506,
      "Ġmoment": 2507,
      "sen": 2508,
      "erv": 2509,
      "Ġcnn": 2510,
      "Ġbeaut": 2511,
      "Ġseems": 2512,
      "Ġkn": 2513,
      "Ġafterno": 2514,
      "ometimes": 2515,
      "Ġport": 2516,
      "Ġprosecut": 2517,
      "Ġcoast": 2518,
      "Ġconsum": 2519,
      "pecially": 2520,
      "Ġ'": 2521,
      "ford": 2522,
      "Ġblood": 2523,
      "Ġestab": 2524,
      "Ġafternoon": 2525,
      "igan": 2526,
      "pped": 2527,
      "Ġresources": 2528,
      "Ġseries": 2529,
      "Ġlonger": 2530,
      "Ġconnect": 2531,
      "Ġgradu": 2532,
      "Ġenforcement": 2533,
      "nad": 2534,
      "uge": 2535,
      "ream": 2536,
      "ona": 2537,
      "illed": 2538,
      "Ġpictures": 2539,
      "Ġdebate": 2540,
      "Ġcomplain": 2541,
      "lor": 2542,
      "ye": 2543,
      "Ġdanger": 2544,
      "Ġhall": 2545,
      "Ġchurch": 2546,
      "Ġ23": 2547,
      "Ġtext": 2548,
      "Ġhappening": 2549,
      "Ġfinally": 2550,
      "Ġincrease": 2551,
      "Ġfast": 2552,
      "Ġdest": 2553,
      "iced": 2554,
      "Ġstat": 2555,
      "Ġclin": 2556,
      "Ġdonald": 2557,
      "Ġvirgin": 2558,
      "Ġteacher": 2559,
      "dle": 2560,
      "Ġtorn": 2561,
      "asl": 2562,
      "Ġapply": 2563,
      "ucks": 2564,
      "ressed": 2565,
      "Ġassist": 2566,
      "Ġeu": 2567,
      "Ġcrime": 2568,
      "Ġclos": 2569,
      "Ġguil": 2570,
      "during": 2571,
      "Ġsle": 2572,
      "Ġsnow": 2573,
      "Ġfur": 2574,
      "Ġchicago": 2575,
      "Ġada": 2576,
      "Ġthemselves": 2577,
      "Ġcapit": 2578,
      "Ġspok": 2579,
      "Ġ40": 2580,
      "Ġwarn": 2581,
      "Ġpopular": 2582,
      "crib": 2583,
      "check": 2584,
      "ana": 2585,
      "Ġhill": 2586,
      "vere": 2587,
      "Ġgone": 2588,
      "those": 2589,
      "Ġdemand": 2590,
      "Ġsexual": 2591,
      "Ġmessage": 2592,
      "undreds": 2593,
      "Ġdecember": 2594,
      "por": 2595,
      "oma": 2596,
      "Ġeight": 2597,
      "Ġfebr": 2598,
      "Ġwinds": 2599,
      "Ġangeles": 2600,
      "Ġsuggest": 2601,
      "Ġfebruary": 2602,
      "know": 2603,
      "pro": 2604,
      "Ġsick": 2605,
      "Ġlat": 2606,
      "Ġglo": 2607,
      "Ġword": 2608,
      "Ġbox": 2609,
      "Ġremo": 2610,
      "Ġrelay": 2611,
      "Ġwalk": 2612,
      "Ġviolence": 2613,
      "Ġfemale": 2614,
      "Ġsold": 2615,
      "erc": 2616,
      "Ġmcc": 2617,
      "another": 2618,
      "Ġhun": 2619,
      "Ġll": 2620,
      "Ġreview": 2621,
      "Ġheard": 2622,
      "Ġdete": 2623,
      "Ġ22": 2624,
      "Ġdrive": 2625,
      "ances": 2626,
      "Ġearlier": 2627,
      "Ġrunning": 2628,
      "Ġresponded": 2629,
      "Ġdisabilities": 2630,
      "Ġpropos": 2631,
      "Ġespecially": 2632,
      "Ġapol": 2633,
      "Ġisn": 2634,
      "Ġdeleg": 2635,
      "Ġchief": 2636,
      "Ġmyself": 2637,
      "Ġjobs": 2638,
      "Ġobama": 2639,
      "Ġteachers": 2640,
      "iful": 2641,
      "Ġaffected": 2642,
      "Ġensure": 2643,
      "Ġcapt": 2644,
      "Ġattempt": 2645,
      "ucky": 2646,
      "Ġwait": 2647,
      "Ġstores": 2648,
      "Ġapolog": 2649,
      "just": 2650,
      "ping": 2651,
      "Ġfa": 2652,
      "Ġfail": 2653,
      "Ġyes": 2654,
      "Ġchair": 2655,
      "Ġcalling": 2656,
      "Ġdollars": 2657,
      "Ġimmediately": 2658,
      "ising": 2659,
      "Ġmind": 2660,
      "Ġdeli": 2661,
      "Ġjack": 2662,
      "care": 2663,
      "Ġpoll": 2664,
      "Ġseparate": 2665,
      "Ġfre": 2666,
      "Ġnice": 2667,
      "ift": 2668,
      "Ġordered": 2669,
      "ptoms": 2670,
      "fully": 2671,
      "Ġopened": 2672,
      "Ġmiles": 2673,
      "Ġlawyer": 2674,
      "Ġtornado": 2675,
      "ead": 2676,
      "Ġlate": 2677,
      "rovers": 2678,
      "Ġorig": 2679,
      "Ġafric": 2680,
      "Ġshowing": 2681,
      "Ġgeorge": 2682,
      "Ġplease": 2683,
      "cript": 2684,
      "Ġcamera": 2685,
      "Ġcreat": 2686,
      "nding": 2687,
      "Ġdie": 2688,
      "Ġhus": 2689,
      "americ": 2690,
      "Ġtrack": 2691,
      "Ġmoving": 2692,
      "Ġinstead": 2693,
      "Ġguilty": 2694,
      "Ġfans": 2695,
      "Ġgames": 2696,
      "Ġhear": 2697,
      "Ġchance": 2698,
      "Ġcannot": 2699,
      "agram": 2700,
      "Ġcontrovers": 2701,
      "Ġwarning": 2702,
      "Ġpassen": 2703,
      "Ġfacing": 2704,
      "Ġentire": 2705,
      "itch": 2706,
      "Ġmag": 2707,
      "Ġsigns": 2708,
      "Ġinterpreting": 2709,
      "Ġguid": 2710,
      "Ġtranscript": 2711,
      "Ġeffective": 2712,
      "Ġmichigan": 2713,
      "Ġvirginia": 2714,
      "ners": 2715,
      "Ġfield": 2716,
      "Ġfloyd": 2717,
      "ened": 2718,
      "ador": 2719,
      "Ġconvers": 2720,
      "Ġ199": 2721,
      "band": 2722,
      "Ġfly": 2723,
      "Ġdia": 2724,
      "acter": 2725,
      "Ġaccording": 2726,
      "Ġevac": 2727,
      "Ġfeet": 2728,
      "ighb": 2729,
      "Ġprevent": 2730,
      "Ġcast": 2731,
      "Ġmary": 2732,
      "ows": 2733,
      "Ġwear": 2734,
      "Ġhaw": 2735,
      "ulations": 2736,
      "aving": 2737,
      "ager": 2738,
      "Ġshel": 2739,
      "Ġrock": 2740,
      "Ġways": 2741,
      "Ġchallenge": 2742,
      "both": 2743,
      "mar": 2744,
      "Ġcitiz": 2745,
      "Ġbank": 2746,
      "Ġgiving": 2747,
      "Ġwasn": 2748,
      "Ġnothing": 2749,
      "log": 2750,
      "ograp": 2751,
      "Ġphil": 2752,
      "Ġcampus": 2753,
      "Ġplayers": 2754,
      "Ġcontinues": 2755,
      "Ġviral": 2756,
      "Ġmentioned": 2757,
      "ried": 2758,
      "Ġice": 2759,
      "Ġflo": 2760,
      "lex": 2761,
      "Ġsevere": 2762,
      "idered": 2763,
      "Ġdoor": 2764,
      "Ġcommission": 2765,
      "Ġamb": 2766,
      "Ġactor": 2767,
      "Ġarrived": 2768,
      "Ġvehicle": 2769,
      "Ġvolunte": 2770,
      "Ġbeautiful": 2771,
      "law": 2772,
      "pri": 2773,
      "where": 2774,
      "Ġkore": 2775,
      "Ġext": 2776,
      "ibly": 2777,
      "Ġspr": 2778,
      "Ġinstagram": 2779,
      "Ġvoting": 2780,
      "Ġdistancing": 2781,
      "Ġrussia": 2782,
      "Ġsecretary": 2783,
      "iam": 2784,
      "Ġbas": 2785,
      "Ġgiven": 2786,
      "ctive": 2787,
      "Ġcross": 2788,
      "Ġconsidered": 2789,
      "Ġmichael": 2790,
      "Ġmental": 2791,
      "Ġjohnson": 2792,
      "ma": 2793,
      "oen": 2794,
      "ening": 2795,
      "Ġmel": 2796,
      "thous": 2797,
      "Ġru": 2798,
      "Ġagency": 2799,
      "Ġdriving": 2800,
      "Ġcrew": 2801,
      "Ġidentified": 2802,
      "frie": 2803,
      "Ġreturn": 2804,
      "Ġexperiences": 2805,
      "Ġschedul": 2806,
      "Ġorigin": 2807,
      "ders": 2808,
      "nal": 2809,
      "oh": 2810,
      "vir": 2811,
      "Ġcal": 2812,
      "oud": 2813,
      "enty": 2814,
      "Ġcomment": 2815,
      "eller": 2816,
      "Ġlooks": 2817,
      "Ġlooked": 2818,
      "Ġtalking": 2819,
      "Ġmiddle": 2820,
      "Ġcurrently": 2821,
      "Ġapartment": 2822,
      "ody": 2823,
      "Ġfine": 2824,
      "Ġbag": 2825,
      "Ġborn": 2826,
      "amin": 2827,
      "aging": 2828,
      "Ġkey": 2829,
      "Ġsenator": 2830,
      "Ġconcerned": 2831,
      "ruction": 2832,
      "Ġamazing": 2833,
      "Ġculture": 2834,
      "Ġwonderful": 2835,
      "bed": 2836,
      "Ġinfect": 2837,
      "icult": 2838,
      "Ġgather": 2839,
      "Ġonce": 2840,
      "Ġusers": 2841,
      "abama": 2842,
      "Ġcrow": 2843,
      "Ġearth": 2844,
      "Ġbuy": 2845,
      "Ġavoid": 2846,
      "Ġconsider": 2847,
      "Ġsearch": 2848,
      "Ġsymptoms": 2849,
      "30": 2850,
      "Ġcell": 2851,
      "Ġfbi": 2852,
      "izona": 2853,
      "Ġvotes": 2854,
      "Ġthanks": 2855,
      "Ġdelay": 2856,
      "Ġhotel": 2857,
      "ba": 2858,
      "ez": 2859,
      "end": 2860,
      "ler": 2861,
      "ris": 2862,
      "Ġdate": 2863,
      "Ġgar": 2864,
      "Ġ26": 2865,
      "Ġresign": 2866,
      "Ġqualif": 2867,
      "Ġdiff": 2868,
      "Ġmemor": 2869,
      "Ġresponsible": 2870,
      "Ġproblem": 2871,
      "Ġexecutive": 2872,
      "Ġsher": 2873,
      "Ġcondu": 2874,
      "Ġabuse": 2875,
      "Ġneighb": 2876,
      "ansas": 2877,
      "Ġimages": 2878,
      "Ġattention": 2879,
      "why": 2880,
      "inese": 2881,
      "Ġturned": 2882,
      "Ġpaper": 2883,
      "stein": 2884,
      "makers": 2885,
      "ny": 2886,
      "Ġrepl": 2887,
      "Ġbegan": 2888,
      "osi": 2889,
      "elosi": 2890,
      "Ġran": 2891,
      "Ġrespect": 2892,
      "Ġmedic": 2893,
      "Ġproblems": 2894,
      "bal": 2895,
      "wor": 2896,
      "Ġdav": 2897,
      "Ġinde": 2898,
      "Ġii": 2899,
      "Ġemail": 2900,
      "Ġspot": 2901,
      "Ġspeak": 2902,
      "Ġrestr": 2903,
      "fire": 2904,
      "aters": 2905,
      "asing": 2906,
      "Ġlake": 2907,
      "Ġnfl": 2908,
      "ude": 2909,
      "Ġoffer": 2910,
      "Ġaff": 2911,
      "Ġaffect": 2912,
      "lines": 2913,
      "Ġbow": 2914,
      "Ġtown": 2915,
      "Ġmale": 2916,
      "uries": 2917,
      "Ġresol": 2918,
      "Ġrequired": 2919,
      "Ġpressure": 2920,
      "Ġadvocacy": 2921,
      "Ġanimals": 2922,
      "Ġtarget": 2923,
      "mas": 2924,
      "Ġcard": 2925,
      "Ġoh": 2926,
      "Ġli": 2927,
      "Ġlic": 2928,
      "Ġroll": 2929,
      "Ġcaptions": 2930,
      "Ġlaws": 2931,
      "Ġfourth": 2932,
      "Ġwalking": 2933,
      "Ġrepresentative": 2934,
      "Ġinternet": 2935,
      "hold": 2936,
      "kins": 2937,
      "Ġil": 2938,
      "Ġlink": 2939,
      "Ġchick": 2940,
      "Ġproper": 2941,
      "Ġteach": 2942,
      "uci": 2943,
      "Ġresults": 2944,
      "Ġbernie": 2945,
      "Ġadults": 2946,
      "Ġdifficult": 2947,
      "bt": 2948,
      "den": 2949,
      "dem": 2950,
      "tu": 2951,
      "Ġ#": 2952,
      "Ġpan": 2953,
      "Ġstage": 2954,
      "Ġsele": 2955,
      "Ġcanada": 2956,
      "Ġcenters": 2957,
      "Ġsouthern": 2958,
      "Ġbroad": 2959,
      "Ġproviding": 2960,
      "Ġgunman": 2961,
      "Ġraised": 2962,
      "Ġfigure": 2963,
      "Ġsurvey": 2964,
      "een": 2965,
      "mod": 2966,
      "take": 2967,
      "Ġten": 2968,
      "Ġsun": 2969,
      "Ġcateg": 2970,
      "Ġbase": 2971,
      "Ġhundreds": 2972,
      "Ġansw": 2973,
      "ully": 2974,
      "emp": 2975,
      "Ġwords": 2976,
      "Ġmeas": 2977,
      "Ġarizona": 2978,
      "Ġworks": 2979,
      "Ġwrote": 2980,
      "Ġbrother": 2981,
      "Ġinjuries": 2982,
      "Ġintro": 2983,
      "Ġplaced": 2984,
      "Ġcandidates": 2985,
      "Ġtemper": 2986,
      "Ġrescue": 2987,
      "friend": 2988,
      "Ġfell": 2989,
      "Ġbit": 2990,
      "Ġgas": 2991,
      "Ġforced": 2992,
      "aming": 2993,
      "Ġteen": 2994,
      "Ġcounts": 2995,
      "Ġscient": 2996,
      "Ġdecide": 2997,
      "Ġremote": 2998,
      "Ġelect": 2999,
      "Ġvoters": 3000,
      "Ġcreated": 3001,
      "Ġskills": 3002,
      "body": 3003,
      "Ġdetails": 3004,
      "Ġdangerous": 3005,
      "Ġhusband": 3006,
      "Ġscheduled": 3007,
      "Ġtakes": 3008,
      "Ġath": 3009,
      "aylor": 3010,
      "Ġeat": 3011,
      "Ġchinese": 3012,
      "Ġnoticed": 3013,
      "aps": 3014,
      "ancy": 3015,
      "Ġdescrib": 3016,
      "Ġenglish": 3017,
      "Ġmillions": 3018,
      "Ġdelegates": 3019,
      "10": 3020,
      "mart": 3021,
      "Ġfat": 3022,
      "Ġnomin": 3023,
      "Ġalabama": 3024,
      "Ġfeed": 3025,
      "Ġfinanc": 3026,
      "apped": 3027,
      "Ġgener": 3028,
      "Ġauthor": 3029,
      "Ġhigher": 3030,
      "viron": 3031,
      "Ġrestrict": 3032,
      "Ġhuge": 3033,
      "Ġheavy": 3034,
      "Ġappoin": 3035,
      "Ġphys": 3036,
      "Ġopening": 3037,
      "Ġokay": 3038,
      "Ġcompetition": 3039,
      "Ġpulled": 3040,
      "Ġhawai": 3041,
      "ky": 3042,
      "Ġaid": 3043,
      "Ġpred": 3044,
      "Ġtruck": 3045,
      "Ġusually": 3046,
      "Ġended": 3047,
      "Ġdisability": 3048,
      "Ġfcc": 3049,
      "Ġlun": 3050,
      "Ġjump": 3051,
      "Ġshop": 3052,
      "Ġcrash": 3053,
      "Ġdecl": 3054,
      "Ġclean": 3055,
      "Ġcreate": 3056,
      "Ġclaims": 3057,
      "Ġdamage": 3058,
      "Ġcandidate": 3059,
      "inois": 3060,
      "Ġaustral": 3061,
      "Ġguidel": 3062,
      "Ġtro": 3063,
      "Ġtick": 3064,
      "Ġsports": 3065,
      "Ġcool": 3066,
      "org": 3067,
      "Ġfires": 3068,
      "Ġpubl": 3069,
      "aft": 3070,
      "Ġkid": 3071,
      "Ġhappens": 3072,
      "Ġchanged": 3073,
      "Ġrestaurant": 3074,
      "Ġfavorite": 3075,
      "iet": 3076,
      "like": 3077,
      "Ġreve": 3078,
      "Ġvo": 3079,
      "Ġvers": 3080,
      "Ġround": 3081,
      "Ġproduc": 3082,
      "Ġamount": 3083,
      "elling": 3084,
      "Ġguard": 3085,
      "Ġhistor": 3086,
      "Ġelse": 3087,
      "Ġracism": 3088,
      "Ġrecognize": 3089,
      "Ġefforts": 3090,
      "employ": 3091,
      "zer": 3092,
      "Ġaward": 3093,
      "Ġpers": 3094,
      "their": 3095,
      "Ġeast": 3096,
      "three": 3097,
      "Ġchamp": 3098,
      "Ġ60": 3099,
      "Ġcontract": 3100,
      "Ġfuneral": 3101,
      "Ġaccommod": 3102,
      "light": 3103,
      "hest": 3104,
      "Ġbed": 3105,
      "Ġliving": 3106,
      "Ġworksh": 3107,
      "Ġregard": 3108,
      "Ġdogs": 3109,
      "Ġtyp": 3110,
      "ylv": 3111,
      "rimin": 3112,
      "Ġcities": 3113,
      "Ġocc": 3114,
      "Ġhate": 3115,
      "Ġinfl": 3116,
      "uses": 3117,
      "Ġtrue": 3118,
      "Ġgoes": 3119,
      "Ġenviron": 3120,
      "Ġbrown": 3121,
      "Ġcharge": 3122,
      "Ġsurpr": 3123,
      "Ġplanning": 3124,
      "duce": 3125,
      "Ġpurp": 3126,
      "ylvania": 3127,
      "every": 3128,
      "ij": 3129,
      "Ġmis": 3130,
      "Ġinit": 3131,
      "Ġship": 3132,
      "nsylvania": 3133,
      "Ġaccessible": 3134,
      "Ġlargest": 3135,
      "Ġopportunities": 3136,
      "Ġmajority": 3137,
      "Ġindividual": 3138,
      "Ġbenefits": 3139,
      "ox": 3140,
      "sa": 3141,
      "rep": 3142,
      "itor": 3143,
      "Ġloss": 3144,
      "Ġnine": 3145,
      "Ġalone": 3146,
      "Ġalleg": 3147,
      "Ġusa": 3148,
      "Ġworth": 3149,
      "que": 3150,
      "quir": 3151,
      "Ġserve": 3152,
      "Ġfollowing": 3153,
      "Ġslow": 3154,
      "Ġremains": 3155,
      "Ġflooding": 3156,
      "Ġjournal": 3157,
      "ncil": 3158,
      "Ġalex": 3159,
      "inv": 3160,
      "Ġfest": 3161,
      "Ġpo": 3162,
      "Ġdivers": 3163,
      "aster": 3164,
      "Ġvrs": 3165,
      "ource": 3166,
      "unt": 3167,
      "several": 3168,
      "Ġprim": 3169,
      "Ġcouncil": 3170,
      "izing": 3171,
      "Ġcarry": 3172,
      "Ġleading": 3173,
      "Ġrequires": 3174,
      "Ġvoted": 3175,
      "phone": 3176,
      "Ġidentify": 3177,
      "Ġanimal": 3178,
      "Ġplaces": 3179,
      "Ġsleep": 3180,
      "Ġcitizens": 3181,
      "Ġmand": 3182,
      "oper": 3183,
      "Ġsuspend": 3184,
      "Ġappropri": 3185,
      "Ġterm": 3186,
      "Ġfunding": 3187,
      "Ġpotential": 3188,
      "500": 3189,
      "uff": 3190,
      "Ġtit": 3191,
      "atic": 3192,
      "ashed": 3193,
      "icide": 3194,
      "sec": 3195,
      "ught": 3196,
      "encies": 3197,
      "Ġrealized": 3198,
      "Ġbringing": 3199,
      "Ġpriority": 3200,
      "Ġreopening": 3201,
      "Ġremoved": 3202,
      "hol": 3203,
      "atory": 3204,
      "Ġbi": 3205,
      "Ġdan": 3206,
      "aches": 3207,
      "Ġrally": 3208,
      "Ġorders": 3209,
      "Ġinteract": 3210,
      "Ġcaught": 3211,
      "ensive": 3212,
      "Ġmeetings": 3213,
      "Ġdiscrimin": 3214,
      "ahoma": 3215,
      "Ġadvis": 3216,
      "Ġteams": 3217,
      "Ġproposed": 3218,
      "Ġguidelines": 3219,
      "di": 3220,
      "pan": 3221,
      "vin": 3222,
      "rel": 3223,
      "Ġcred": 3224,
      "Ġfear": 3225,
      "Ġpelosi": 3226,
      "imate": 3227,
      "Ġinstit": 3228,
      "Ġillinois": 3229,
      "Ġconditions": 3230,
      "Ġagreement": 3231,
      "Ġwitnesses": 3232,
      "aslcaptions": 3233,
      "Ġsheriff": 3234,
      "Ġilleg": 3235,
      "fight": 3236,
      "house": 3237,
      "iate": 3238,
      "ps": 3239,
      "Ġgi": 3240,
      "ston": 3241,
      "resear": 3242,
      "Ġcausing": 3243,
      "Ġemot": 3244,
      "Ġhealthcare": 3245,
      "Ġplaying": 3246,
      "Ġstopped": 3247,
      "Ġsuspects": 3248,
      "going": 3249,
      "Ġequal": 3250,
      "Ġwaiting": 3251,
      "Ġphoto": 3252,
      "Ġpennsylvania": 3253,
      "Ġcertain": 3254,
      "biden": 3255,
      "bucks": 3256,
      "ken": 3257,
      "lahoma": 3258,
      "since": 3259,
      "Ġnames": 3260,
      "Ġgold": 3261,
      "Ġextr": 3262,
      "Ġcommon": 3263,
      "Ġcris": 3264,
      "Ġcommunities": 3265,
      "Ġairport": 3266,
      "Ġidentity": 3267,
      "Ġmovies": 3268,
      "Ġmassive": 3269,
      "Ġnationwide": 3270,
      "Ġillness": 3271,
      "Ġbattle": 3272,
      "Ġfurther": 3273,
      "pite": 3274,
      "tain": 3275,
      "wow": 3276,
      "Ġcook": 3277,
      "Ġoffered": 3278,
      "Ġnurs": 3279,
      "aded": 3280,
      "Ġvlog": 3281,
      "Ġseem": 3282,
      "Ġexact": 3283,
      "Ġ27": 3284,
      "Ġproud": 3285,
      "Ġadop": 3286,
      "Ġ202": 3287,
      "Ġannouncement": 3288,
      "Ġideas": 3289,
      "Ġclasses": 3290,
      "Ġpriorities": 3291,
      "Ġballots": 3292,
      "Ġambass": 3293,
      "Ġenvironment": 3294,
      "bc": 3295,
      "ob": 3296,
      "erto": 3297,
      "Ġcir": 3298,
      "Ġdou": 3299,
      "Ġmike": 3300,
      "ural": 3301,
      "Ġproject": 3302,
      "Ġdoz": 3303,
      "Ġdifferen": 3304,
      "Ġceo": 3305,
      "nesota": 3306,
      "Ġwalked": 3307,
      "Ġdeveloped": 3308,
      "Ġholding": 3309,
      "Ġsil": 3310,
      "Ġsite": 3311,
      "Ġfile": 3312,
      "Ġinquir": 3313,
      "lymp": 3314,
      "Ġking": 3315,
      "Ġhealthy": 3316,
      "Ġbroke": 3317,
      "Ġsuccessful": 3318,
      "Ġsingle": 3319,
      "Ġcriticized": 3320,
      "Ġeconomy": 3321,
      "Ġparticipate": 3322,
      "thousand": 3323,
      "Ġbowl": 3324,
      "Ġfinancial": 3325,
      "Ġreveal": 3326,
      "?\"": 3327,
      "even": 3328,
      "fires": 3329,
      "wood": 3330,
      "ese": 3331,
      "roy": 3332,
      "ibut": 3333,
      "nsel": 3334,
      "Ġchec": 3335,
      "Ġmovement": 3336,
      "Ġapplic": 3337,
      "Ġimmigration": 3338,
      "Ġcancel": 3339,
      "Ġterror": 3340,
      "Ġeuro": 3341,
      "Ġafrican": 3342,
      "Ġmaryland": 3343,
      "have": 3344,
      "uing": 3345,
      "Ġgreen": 3346,
      "owa": 3347,
      "verage": 3348,
      "Ġitems": 3349,
      "Ġwhole": 3350,
      "Ġmeant": 3351,
      "Ġimage": 3352,
      "Ġlawmakers": 3353,
      "before": 3354,
      "Ġexplos": 3355,
      "Ġcerem": 3356,
      "Ġ911": 3357,
      "Ġcrowd": 3358,
      "health": 3359,
      "arm": 3360,
      "asons": 3361,
      "Ġgrew": 3362,
      "Ġrate": 3363,
      "Ġriver": 3364,
      "Ġkong": 3365,
      "Ġprob": 3366,
      "Ġprogress": 3367,
      "Ġcounsel": 3368,
      "Ġdraw": 3369,
      "Ġflag": 3370,
      "Ġfeeling": 3371,
      "Ġloved": 3372,
      "Ġhopes": 3373,
      "Ġ70": 3374,
      "Ġtreatment": 3375,
      "Ġagreed": 3376,
      "ria": 3377,
      "Ġbing": 3378,
      "ersey": 3379,
      "uty": 3380,
      "ably": 3381,
      "Ġrecover": 3382,
      "ression": 3383,
      "Ġ31": 3384,
      "Ġcontinued": 3385,
      "Ġnormal": 3386,
      "Ġ198": 3387,
      "Ġmueller": 3388,
      "Ġinterested": 3389,
      "Ġadditional": 3390,
      "Ġcomplaint": 3391,
      "Ġlatest": 3392,
      "Ġcrisis": 3393,
      "ha": 3394,
      "ium": 3395,
      "ush": 3396,
      "Ġbeat": 3397,
      "Ġstab": 3398,
      "Ġjersey": 3399,
      "Ġtraff": 3400,
      "Ġproceed": 3401,
      "play": 3402,
      "Ġperio": 3403,
      "ground": 3404,
      "Ġminister": 3405,
      "Ġemployment": 3406,
      "Ġsentenc": 3407,
      "Ġlevels": 3408,
      "Ġcondition": 3409,
      "Ġfauci": 3410,
      "Ġevacu": 3411,
      "Ġfloor": 3412,
      "Ġcategory": 3413,
      "Ġathlet": 3414,
      "fall": 3415,
      "Ġver": 3416,
      "once": 3417,
      "avan": 3418,
      "Ġrobert": 3419,
      "Ġtransport": 3420,
      "Ġfighting": 3421,
      "Ġmarket": 3422,
      "Ġchristmas": 3423,
      "Ġoklahoma": 3424,
      "Ġgrowing": 3425,
      "Ġlimited": 3426,
      "ropical": 3427,
      "Ġlouisiana": 3428,
      "Ġproposal": 3429,
      "Ġeurope": 3430,
      "face": 3431,
      "gre": 3432,
      "night": 3433,
      "sp": 3434,
      "rec": 3435,
      "Ġpm": 3436,
      "entucky": 3437,
      "Ġhair": 3438,
      "str": 3439,
      "ieve": 3440,
      "berg": 3441,
      "Ġcontain": 3442,
      "Ġactions": 3443,
      "Ġtests": 3444,
      "Ġinvestigating": 3445,
      "please": 3446,
      "aught": 3447,
      "Ġdeadly": 3448,
      "Ġcustody": 3449,
      "Ġemployee": 3450,
      "Ġtype": 3451,
      "burg": 3452,
      "Ġpassengers": 3453,
      "Ġneighbor": 3454,
      "25": 3455,
      "ding": 3456,
      "hood": 3457,
      "val": 3458,
      "yal": 3459,
      "Ġmount": 3460,
      "Ġyoutu": 3461,
      "Ġiowa": 3462,
      "Ġkim": 3463,
      "Ġsignific": 3464,
      "Ġadmitted": 3465,
      "Ġbod": 3466,
      "Ġwarned": 3467,
      "Ġsenators": 3468,
      "Ġelections": 3469,
      "Ġwrit": 3470,
      "Ġ80": 3471,
      "Ġraise": 3472,
      "Ġphotograp": 3473,
      "Ġprinc": 3474,
      "Ġarticles": 3475,
      "Ġspokes": 3476,
      "Ġchicken": 3477,
      "Ġtaylor": 3478,
      "Ġsometimes": 3479,
      "ouston": 3480,
      "urance": 3481,
      "Ġgov": 3482,
      "Ġblind": 3483,
      "Ġkept": 3484,
      "Ġadded": 3485,
      "Ġnorthern": 3486,
      "Ġowner": 3487,
      "Ġevening": 3488,
      "flix": 3489,
      "Ġstanding": 3490,
      "Ġinteresting": 3491,
      "Ġanti": 3492,
      "Ġhighest": 3493,
      "Ġallegedly": 3494,
      "Ġappeared": 3495,
      "Ġpuerto": 3496,
      "Ġestablish": 3497,
      "Ġohio": 3498,
      "researchers": 3499,
      "nel": 3500,
      "uct": 3501,
      "erve": 3502,
      "Ġtoll": 3503,
      "Ġlif": 3504,
      "Ġrise": 3505,
      "Ġfranc": 3506,
      "ume": 3507,
      "ession": 3508,
      "Ġminnesota": 3509,
      "Ġartist": 3510,
      "Ġadminist": 3511,
      "Ġattacks": 3512,
      "Ġpaid": 3513,
      "Ġpractice": 3514,
      "Ġgraduated": 3515,
      "Ġambassador": 3516,
      "fit": 3517,
      "Ġbom": 3518,
      "Ġoption": 3519,
      "ala": 3520,
      "Ġkick": 3521,
      "Ġtopic": 3522,
      "Ġindust": 3523,
      "Ġpayments": 3524,
      "Ġyoutube": 3525,
      "gbt": 3526,
      "mine": 3527,
      "Ġdom": 3528,
      "Ġnas": 3529,
      "Ġrico": 3530,
      "Ġsuff": 3531,
      "Ġ29": 3532,
      "Ġamend": 3533,
      "Ġunion": 3534,
      "Ġstudies": 3535,
      "Ġexpert": 3536,
      "Ġplayer": 3537,
      "Ġpatient": 3538,
      "Ġapproved": 3539,
      "Ġdevelopment": 3540,
      "Ġvictim": 3541,
      "Ġsupposed": 3542,
      "Ġcelebrate": 3543,
      "Ġdocument": 3544,
      "Ġhawaii": 3545,
      "des": 3546,
      "eth": 3547,
      "may": 3548,
      "west": 3549,
      "Ġpil": 3550,
      "omas": 3551,
      "Ġtrad": 3552,
      "Ġtrip": 3553,
      "Ġchat": 3554,
      "ulation": 3555,
      "Ġabs": 3556,
      "Ġunemploy": 3557,
      "Ġapple": 3558,
      "Ġspeaker": 3559,
      "Ġ2014": 3560,
      "Ġcharacter": 3561,
      "Ġinvestigate": 3562,
      "Ġinvestigators": 3563,
      "Ġsenior": 3564,
      "Ġrefer": 3565,
      "Ġeventually": 3566,
      "Ġsending": 3567,
      "Ġrestaurants": 3568,
      "Ġdocuments": 3569,
      "Ġkorea": 3570,
      "gu": 3571,
      "gle": 3572,
      "ios": 3573,
      "sy": 3574,
      "Ġfal": 3575,
      "Ġdor": 3576,
      "Ġoptions": 3577,
      "Ġeye": 3578,
      "Ġdegree": 3579,
      "Ġweap": 3580,
      "Ġapparent": 3581,
      "Ġboat": 3582,
      "Ġofficially": 3583,
      "Ġcoach": 3584,
      "Ġcap": 3585,
      "ordan": 3586,
      "Ġfeature": 3587,
      "Ġplayed": 3588,
      "Ġbiggest": 3589,
      "Ġhurt": 3590,
      "Ġprotection": 3591,
      "Ġfocused": 3592,
      "Ġcritical": 3593,
      "Ġcolorado": 3594,
      "Ġdenied": 3595,
      "Ġjourney": 3596,
      "Ġsanders": 3597,
      "Ġcapitol": 3598,
      "Ġindepend": 3599,
      "Ġpurpose": 3600,
      "Ġperiod": 3601,
      "fin": 3602,
      "ta": 3603,
      "Ġsat": 3604,
      "Ġsad": 3605,
      "Ġtheaters": 3606,
      "orter": 3607,
      "Ġfif": 3608,
      "Ġdiv": 3609,
      "Ġmic": 3610,
      "thony": 3611,
      "ipment": 3612,
      "ordin": 3613,
      "apan": 3614,
      "Ġ2015": 3615,
      "Ġdiscovered": 3616,
      "ification": 3617,
      "Ġfaces": 3618,
      "Ġexpand": 3619,
      "Ġapproach": 3620,
      "Ġrecords": 3621,
      "Ġwindow": 3622,
      "Ġeasy": 3623,
      "Ġappears": 3624,
      "Ġarticle": 3625,
      "Ġdefend": 3626,
      "Ġsignificant": 3627,
      "Ġtask": 3628,
      "Ġcy": 3629,
      "Ġlines": 3630,
      "Ġger": 3631,
      "Ġalert": 3632,
      "Ġvia": 3633,
      "about": 3634,
      "ellig": 3635,
      "Ġblock": 3636,
      "degree": 3637,
      "Ġtalked": 3638,
      "Ġharris": 3639,
      "Ġpoints": 3640,
      "Ġequipment": 3641,
      "Ġdropped": 3642,
      "iffs": 3643,
      "Ġquarant": 3644,
      "Ġthinking": 3645,
      "american": 3646,
      "Ġfestival": 3647,
      "Ġpie": 3648,
      "isions": 3649,
      "Ġdeep": 3650,
      "Ġitaly": 3651,
      "Ġkentucky": 3652,
      "bery": 3653,
      "Ġdisapp": 3654,
      "ratulations": 3655,
      "Ġinsurance": 3656,
      "Ġjeff": 3657,
      "fortun": 3658,
      "second": 3659,
      "Ġprincip": 3660,
      "ele": 3661,
      "Ġfair": 3662,
      "Ġfda": 3663,
      "Ġbal": 3664,
      "Ġreact": 3665,
      "lee": 3666,
      "Ġut": 3667,
      "elly": 3668,
      "Ġfrust": 3669,
      "Ġtrust": 3670,
      "Ġleaving": 3671,
      "Ġbrain": 3672,
      "because": 3673,
      "Ġconferences": 3674,
      "mean": 3675,
      "Ġintellig": 3676,
      "Ġphotos": 3677,
      "Ġviewers": 3678,
      "Ġforeign": 3679,
      "Ġtouch": 3680,
      "cing": 3681,
      "nam": 3682,
      "Ġdak": 3683,
      "Ġovers": 3684,
      "Ġhy": 3685,
      "tery": 3686,
      "Ġacad": 3687,
      "Ġgrab": 3688,
      "blind": 3689,
      "Ġstrateg": 3690,
      "onsin": 3691,
      "Ġolder": 3692,
      "Ġconcern": 3693,
      "Ġdrove": 3694,
      "exper": 3695,
      "Ġdetermine": 3696,
      "isconsin": 3697,
      "Ġawareness": 3698,
      "Ġdestroy": 3699,
      "known": 3700,
      "Ġdiagn": 3701,
      "Ġinquiry": 3702,
      "Ġfrancis": 3703,
      "Ġfully": 3704,
      "Ġjury": 3705,
      "abor": 3706,
      "Ġcru": 3707,
      "Ġquality": 3708,
      "ensus": 3709,
      "Ġfinished": 3710,
      "Ġcommunications": 3711,
      "Ġpossibly": 3712,
      "Ġdiscussed": 3713,
      "Ġsimple": 3714,
      "ledge": 3715,
      "Ġpowerful": 3716,
      "Ġcompletely": 3717,
      "Ġanswer": 3718,
      "investig": 3719,
      "isher": 3720,
      "Ġoreg": 3721,
      "Ġho": 3722,
      "Ġhong": 3723,
      "Ġnatur": 3724,
      "Ġbecoming": 3725,
      "Ġstation": 3726,
      "Ġones": 3727,
      "Ġ28": 3728,
      "astic": 3729,
      "cap": 3730,
      "Ġagencies": 3731,
      "Ġcaptioned": 3732,
      "Ġpartners": 3733,
      "Ġregist": 3734,
      "airs": 3735,
      "Ġclearly": 3736,
      "Ġmainst": 3737,
      "Ġchoose": 3738,
      "fighters": 3739,
      "lympics": 3740,
      "Ġoregon": 3741,
      "int": 3742,
      "ories": 3743,
      "Ġbond": 3744,
      "Ġbott": 3745,
      "Ġhous": 3746,
      "Ġlgbt": 3747,
      "ili": 3748,
      "Ġbeach": 3749,
      "aced": 3750,
      "olis": 3751,
      "Ġbrit": 3752,
      "iction": 3753,
      "Ġpregn": 3754,
      "Ġperfect": 3755,
      "reme": 3756,
      "aham": 3757,
      "Ġannounce": 3758,
      "Ġsmart": 3759,
      "Ġfacility": 3760,
      "Ġsubmit": 3761,
      "okay": 3762,
      "Ġconvention": 3763,
      "Ġrule": 3764,
      "Ġrestrictions": 3765,
      "Ġpublished": 3766,
      "avanaugh": 3767,
      "Ġadministrat": 3768,
      "cong": 3769,
      "ghan": 3770,
      "âĢ": 3771,
      "Ġach": 3772,
      "outh": 3773,
      "Ġpurch": 3774,
      "Ġow": 3775,
      "Ġhouston": 3776,
      "ican": 3777,
      "ades": 3778,
      "uties": 3779,
      "Ġsave": 3780,
      "aves": 3781,
      "Ġtopics": 3782,
      "Ġhelping": 3783,
      "Ġfeels": 3784,
      "aska": 3785,
      "Ġmatch": 3786,
      "Ġrealize": 3787,
      "Ġfarm": 3788,
      "Ġchallenges": 3789,
      "Ġbeginning": 3790,
      "Ġcontroversy": 3791,
      "Ġallegations": 3792,
      "meanwhile": 3793,
      "investigators": 3794,
      "la": 3795,
      "Ġbul": 3796,
      "ani": 3797,
      "anch": 3798,
      "Ġreasons": 3799,
      "Ġrich": 3800,
      "Ġrap": 3801,
      "Ġknows": 3802,
      "Ġblue": 3803,
      "Ġlanguages": 3804,
      "Ġthrow": 3805,
      "Ġtelling": 3806,
      "Ġenjoyed": 3807,
      "clear": 3808,
      "Ġpush": 3809,
      "donald": 3810,
      "Ġtelev": 3811,
      "Ġaustralia": 3812,
      "Ġappropriate": 3813,
      "Ġunemployment": 3814,
      "car": 3815,
      "gins": 3816,
      "lt": 3817,
      "vent": 3818,
      "Ġdall": 3819,
      "roit": 3820,
      "Ġanthony": 3821,
      "ope": 3822,
      "Ġken": 3823,
      "Ġprime": 3824,
      "Ġbelow": 3825,
      "Ġvisited": 3826,
      "Ġbarr": 3827,
      "Ġexpress": 3828,
      "Ġdiscussion": 3829,
      "Ġfunds": 3830,
      "Ġadvocate": 3831,
      "rael": 3832,
      "Ġlawyers": 3833,
      "Ġprepared": 3834,
      "Ġaustin": 3835,
      "Ġdetermin": 3836,
      "Ġglobal": 3837,
      "Ġqualified": 3838,
      "Ġdakota": 3839,
      "Ġdallas": 3840,
      "miss": 3841,
      "mission": 3842,
      "Ġtough": 3843,
      "Ġtropical": 3844,
      "itation": 3845,
      "icated": 3846,
      "Ġlower": 3847,
      "Ġlived": 3848,
      "adel": 3849,
      "Ġhaven": 3850,
      "Ġvri": 3851,
      "oogle": 3852,
      "Ġabove": 3853,
      "agement": 3854,
      "Ġagree": 3855,
      "black": 3856,
      "Ġacting": 3857,
      "apolis": 3858,
      "Ġregister": 3859,
      "Ġplanned": 3860,
      "Ġretail": 3861,
      "ergy": 3862,
      "Ġvirt": 3863,
      "Ġcosts": 3864,
      "Ġnetflix": 3865,
      "Ġinfections": 3866,
      "Ġbodies": 3867,
      "Ġintelligence": 3868,
      "experts": 3869,
      "cy": 3870,
      "giving": 3871,
      "Ġwisconsin": 3872,
      "Ġcold": 3873,
      "Ġpun": 3874,
      "Ġmist": 3875,
      "estic": 3876,
      "ocking": 3877,
      "Ġspeed": 3878,
      "issipp": 3879,
      "rating": 3880,
      "Ġannivers": 3881,
      "Ġbills": 3882,
      "Ġveter": 3883,
      "Ġcommitted": 3884,
      "phia": 3885,
      "Ġmax": 3886,
      "Ġthoughts": 3887,
      "Ġeastern": 3888,
      "Ġattended": 3889,
      "Ġresearchers": 3890,
      "Ġquarter": 3891,
      "Ġconversation": 3892,
      "Ġceremony": 3893,
      "adelphia": 3894,
      "ees": 3895,
      "four": 3896,
      "look": 3897,
      "round": 3898,
      "uter": 3899,
      "Ġfres": 3900,
      "ara": 3901,
      "Ġrepe": 3902,
      "oph": 3903,
      "Ġsho": 3904,
      "Ġkne": 3905,
      "Ġoffering": 3906,
      "Ġcof": 3907,
      "Ġcooper": 3908,
      "Ġcoordin": 3909,
      "Ġspoke": 3910,
      "Ġprefer": 3911,
      "Ġtestim": 3912,
      "Ġlock": 3913,
      "Ġowners": 3914,
      "Ġbarri": 3915,
      "Ġwinter": 3916,
      "Ġpackage": 3917,
      "Ġfootball": 3918,
      "Ġnegot": 3919,
      "Ġinspired": 3920,
      "Ġclaimed": 3921,
      "Ġtemperatures": 3922,
      "Ġversion": 3923,
      "Ġregarding": 3924,
      "Ġprimary": 3925,
      "issippi": 3926,
      "Ġanniversary": 3927,
      "roll": 3928,
      "Ġton": 3929,
      "Ġaverage": 3930,
      "Ġcensus": 3931,
      "ici": 3932,
      "Ġlog": 3933,
      "vered": 3934,
      "Ġstim": 3935,
      "cting": 3936,
      "Ġnecess": 3937,
      "Ġdisney": 3938,
      "Ġmaybe": 3939,
      "ogue": 3940,
      "who": 3941,
      "Ġturkey": 3942,
      "Ġrefused": 3943,
      "Ġhosted": 3944,
      "Ġstarbucks": 3945,
      "Ġpeace": 3946,
      "Ġactivities": 3947,
      "Ġconsumers": 3948,
      "Ġfailed": 3949,
      "Ġaccommodations": 3950,
      "Ġcirc": 3951,
      ";&": 3952,
      "pd": 3953,
      "Ġpit": 3954,
      "iling": 3955,
      "Ġrev": 3956,
      "Ġheat": 3957,
      "Ġjapan": 3958,
      "Ġtruly": 3959,
      "fee": 3960,
      "Ġupcoming": 3961,
      "Ġcrimes": 3962,
      "Ġdisp": 3963,
      "Ġdrin": 3964,
      "Ġactive": 3965,
      "Ġroyal": 3966,
      "Ġspent": 3967,
      "ences": 3968,
      "Ġminor": 3969,
      "Ġboys": 3970,
      "Ġobst": 3971,
      "board": 3972,
      "Ġdetroit": 3973,
      "Ġconnection": 3974,
      "Ġsteps": 3975,
      "ikes": 3976,
      "Ġnetwork": 3977,
      "Ġlaunched": 3978,
      "Ġproperty": 3979,
      "ique": 3980,
      "lies": 3981,
      "ros": 3982,
      "oned": 3983,
      "Ġpath": 3984,
      "Ġmart": 3985,
      "Ġeyes": 3986,
      "Ġcomb": 3987,
      "Ġaccident": 3988,
      "Ġmonitor": 3989,
      "Ġspar": 3990,
      "Ġremind": 3991,
      "Ġannual": 3992,
      "Ġadvance": 3993,
      "Ġlocation": 3994,
      "Ġallows": 3995,
      "Ġdeadline": 3996,
      "Ġcollabor": 3997,
      "Ġdifference": 3998,
      "Ġdomestic": 3999,
      "Ġstimul": 4000,
      "100": 4001,
      "hib": 4002,
      "ov": 4003,
      "Ġfill": 4004,
      "Ġpence": 4005,
      "Ġnative": 4006,
      "Ġongoing": 4007,
      "Ġdegre": 4008,
      "Ġcomfort": 4009,
      "ains": 4010,
      "Ġabort": 4011,
      "pted": 4012,
      "Ġapps": 4013,
      "Ġcontent": 4014,
      "Ġpartner": 4015,
      "Ġsitting": 4016,
      "Ġenter": 4017,
      "Ġeconomic": 4018,
      "Ġintroduc": 4019,
      "Ġdegrees": 4020,
      ".,": 4021,
      "based": 4022,
      "gen": 4023,
      "iams": 4024,
      "lc": 4025,
      "tt": 4026,
      "uana": 4027,
      "Ġid": 4028,
      "Ġmph": 4029,
      "utions": 4030,
      "Ġrad": 4031,
      "elled": 4032,
      "Ġfamous": 4033,
      "Ġspend": 4034,
      "Ġ500": 4035,
      "azil": 4036,
      "Ġmississippi": 4037,
      "Ġwalmart": 4038,
      "Ġbelieves": 4039,
      "Ġskin": 4040,
      "Ġviolent": 4041,
      "Ġdrop": 4042,
      "Ġmessages": 4043,
      "Ġlegislative": 4044,
      "Ġoppos": 4045,
      "Ġshutdown": 4046,
      "Ġphiladelphia": 4047,
      "Ġmemorial": 4048,
      "democrat": 4049,
      "Ġsuspended": 4050,
      "Ġdiscrimination": 4051,
      "Ġfalse": 4052,
      "Ġprincipal": 4053,
      "bol": 4054,
      "gth": 4055,
      "oft": 4056,
      "tty": 4057,
      "Ġtens": 4058,
      "Ġcart": 4059,
      "Ġcup": 4060,
      "Ġobs": 4061,
      "Ġrecap": 4062,
      "star": 4063,
      "izes": 4064,
      "Ġages": 4065,
      "Ġcomputer": 4066,
      "Ġbush": 4067,
      "Ġnearby": 4068,
      "Ġkeeping": 4069,
      "Ġencouraged": 4070,
      "Ġsupplies": 4071,
      "Ġcelebration": 4072,
      "Ġexperienced": 4073,
      "Ġlegislators": 4074,
      "Ġrussian": 4075,
      "Ġscientists": 4076,
      "ijuana": 4077,
      "fortunately": 4078,
      "ae": 4079,
      "uations": 4080,
      "Ġandrew": 4081,
      "icious": 4082,
      "Ġlack": 4083,
      "Ġnancy": 4084,
      "lear": 4085,
      "lement": 4086,
      "tha": 4087,
      "Ġanal": 4088,
      "Ġproje": 4089,
      "Ġworst": 4090,
      "fection": 4091,
      "Ġdisplay": 4092,
      "Ġremove": 4093,
      "Ġtestify": 4094,
      "Ġworldwide": 4095,
      "Ġguy": 4096,
      "Ġbusy": 4097,
      "Ġbreath": 4098,
      "Ġwrite": 4099,
      "Ġvision": 4100,
      "Ġbelieved": 4101,
      "Ġcongressional": 4102,
      "Ġlisten": 4103,
      "Ġdesigned": 4104,
      "Ġprofessional": 4105,
      "Ġsurviv": 4106,
      "Ġindustry": 4107,
      "set": 4108,
      "Ġign": 4109,
      "ined": 4110,
      "rey": 4111,
      "Ġsong": 4112,
      "Ġcu": 4113,
      "Ġpounds": 4114,
      "icop": 4115,
      "Ġreduce": 4116,
      "lebl": 4117,
      "keep": 4118,
      "Ġfrance": 4119,
      "Ġfraud": 4120,
      "Ġtrail": 4121,
      "Ġkavanaugh": 4122,
      "Ġwilling": 4123,
      "istlebl": 4124,
      "again": 4125,
      "Ġcrashed": 4126,
      "Ġdemon": 4127,
      "Ġrelig": 4128,
      "Ġsusp": 4129,
      "Ġsettle": 4130,
      "Ġparking": 4131,
      "tended": 4132,
      "Ġwinner": 4133,
      "Ġassociations": 4134,
      "Ġprevention": 4135,
      "cohol": 4136,
      "Ġconvicted": 4137,
      "ipped": 4138,
      "Ġtempor": 4139,
      "Ġdirectly": 4140,
      "Ġnegative": 4141,
      "Ġdetective": 4142,
      "Ġphysical": 4143,
      "Ġtroops": 4144,
      "Ġinflu": 4145,
      "Ġtonight": 4146,
      "ply": 4147,
      "orm": 4148,
      "Ġbud": 4149,
      "Ġmater": 4150,
      "ented": 4151,
      "etts": 4152,
      "Ġapprec": 4153,
      "Ġincred": 4154,
      "Ġitself": 4155,
      "Ġrelief": 4156,
      "Ġpostp": 4157,
      "alex": 4158,
      "Ġsentence": 4159,
      "Ġengland": 4160,
      "Ġconfirm": 4161,
      "Ġsandw": 4162,
      "Ġwildfires": 4163,
      "Ġclinton": 4164,
      "Ġearthqu": 4165,
      "Ġprobably": 4166,
      "Ġcoffee": 4167,
      "dis": 4168,
      "poen": 4169,
      "Ġtips": 4170,
      "Ġwish": 4171,
      "Ġbol": 4172,
      "Ġdow": 4173,
      "Ġmix": 4174,
      "Ġylc": 4175,
      "Ġgro": 4176,
      "Ġisol": 4177,
      "earlier": 4178,
      "Ġko": 4179,
      "ulf": 4180,
      "Ġdeafblind": 4181,
      "former": 4182,
      "Ġhoward": 4183,
      "Ġeducational": 4184,
      "Ġproviders": 4185,
      "asket": 4186,
      "Ġsubpoen": 4187,
      "Ġadvocates": 4188,
      "Ġdrugs": 4189,
      "cription": 4190,
      "Ġargum": 4191,
      "Ġstimulus": 4192,
      "bu": 4193,
      "col": 4194,
      "gg": 4195,
      "pass": 4196,
      "Ġtree": 4197,
      "iled": 4198,
      "idge": 4199,
      "usion": 4200,
      "Ġgoogle": 4201,
      "thr": 4202,
      "imum": 4203,
      "Ġwhistlebl": 4204,
      "Ġalcohol": 4205,
      "atever": 4206,
      "istic": 4207,
      "Ġbrand": 4208,
      "Ġinvited": 4209,
      "Ġcars": 4210,
      "Ġinterpret": 4211,
      "Ġsociety": 4212,
      "Ġthroughout": 4213,
      "Ġaccessibility": 4214,
      "Ġallowing": 4215,
      "Ġsituations": 4216,
      "Ġwedding": 4217,
      "Ġbehav": 4218,
      "from": 4219,
      "Ġpolicies": 4220,
      "Ġreturned": 4221,
      "Ġactivity": 4222,
      "Ġexactly": 4223,
      "Ġdestroyed": 4224,
      "fund": 4225,
      "home": 4226,
      "Ġic": 4227,
      "Ġtable": 4228,
      "Ġmal": 4229,
      "Ġmac": 4230,
      "Ġthomas": 4231,
      "omo": 4232,
      "Ġstren": 4233,
      "Ġaren": 4234,
      "els": 4235,
      "Ġrates": 4236,
      "Ġplant": 4237,
      "Ġgoals": 4238,
      "Ġmanager": 4239,
      "Ġgrap": 4240,
      "Ġtheme": 4241,
      "Ġwouldn": 4242,
      "ibute": 4243,
      "Ġgets": 4244,
      "Ġspeaking": 4245,
      "Ġhelps": 4246,
      "Ġstruck": 4247,
      "nessee": 4248,
      "Ġcareer": 4249,
      "Ġprovides": 4250,
      "Ġchris": 4251,
      "Ġpromot": 4252,
      "Ġpresentation": 4253,
      "Ġbirthday": 4254,
      "Ġdavid": 4255,
      "related": 4256,
      "mun": 4257,
      "part": 4258,
      "ery": 4259,
      "Ġtool": 4260,
      "Ġisrael": 4261,
      "irt": 4262,
      "Ġrout": 4263,
      "Ġshown": 4264,
      "Ġkelly": 4265,
      "ocks": 4266,
      "Ġacqu": 4267,
      "ague": 4268,
      "Ġinches": 4269,
      "Ġcontest": 4270,
      "Ġmoder": 4271,
      "Ġfirefighters": 4272,
      "Ġairlines": 4273,
      "Ġdeveloping": 4274,
      "Ġtariffs": 4275,
      "Ġaudience": 4276,
      "Ġepstein": 4277,
      "Ġconstit": 4278,
      "Ġdeliver": 4279,
      "Ġjackson": 4280,
      "Ġsentenced": 4281,
      "âĢĻ": 4282,
      "has": 4283,
      "Ġx": 4284,
      "Ġfit": 4285,
      "Ġbought": 4286,
      "Ġlady": 4287,
      "Ġeating": 4288,
      "Ġweight": 4289,
      "stay": 4290,
      "Ġju": 4291,
      "Ġsection": 4292,
      "Ġtrade": 4293,
      "Ġkansas": 4294,
      "Ġacres": 4295,
      "Ġstatements": 4296,
      "Ġsurger": 4297,
      "apping": 4298,
      "Ġshooter": 4299,
      "Ġexposed": 4300,
      "Ġbuildings": 4301,
      "Ġdevast": 4302,
      "Ġwarnings": 4303,
      "Ġtornadoes": 4304,
      "Ġresolution": 4305,
      "Ġfeedback": 4306,
      "Ġcredit": 4307,
      "Ġemotional": 4308,
      "Ġrevealed": 4309,
      "Ġwritten": 4310,
      "Ġspokesperson": 4311,
      "Ġfrustr": 4312,
      "Ġfrancisco": 4313,
      "Ġtestimony": 4314,
      "15": 4315,
      "fd": 4316,
      "kin": 4317,
      "life": 4318,
      "mich": 4319,
      "mother": 4320,
      "mark": 4321,
      "pa": 4322,
      "wed": 4323,
      "whel": 4324,
      "Ġnt": 4325,
      "ouri": 4326,
      "Ġwilliams": 4327,
      "Ġworry": 4328,
      "Ġarm": 4329,
      "Ġenergy": 4330,
      "Ġrecovered": 4331,
      "Ġbackground": 4332,
      "Ġmarijuana": 4333,
      "Ġwarren": 4334,
      "Ġdespite": 4335,
      "Ġgender": 4336,
      "Ġsales": 4337,
      "Ġangry": 4338,
      "Ġresponsibility": 4339,
      "Ġamazon": 4340,
      "Ġpushed": 4341,
      "profit": 4342,
      "Ġshelter": 4343,
      "works": 4344,
      "Ġvoice": 4345,
      "Ġextra": 4346,
      "Ġregistered": 4347,
      "cher": 4348,
      "gun": 4349,
      "overy": 4350,
      "Ġble": 4351,
      "Ġhire": 4352,
      "Ġly": 4353,
      "lets": 4354,
      "Ġgain": 4355,
      "Ġstress": 4356,
      "Ġrather": 4357,
      "gender": 4358,
      "umb": 4359,
      "Ġuses": 4360,
      "Ġexch": 4361,
      "ability": 4362,
      "izz": 4363,
      "Ġclub": 4364,
      "Ġoverwhel": 4365,
      "Ġfeatures": 4366,
      "Ġscen": 4367,
      "Ġscience": 4368,
      "Ġ300": 4369,
      "Ġopin": 4370,
      "Ġstaying": 4371,
      "Ġlocations": 4372,
      "Ġreportedly": 4373,
      "Ġimpacted": 4374,
      "Ġhonored": 4375,
      "Ġdefin": 4376,
      "Ġfelony": 4377,
      "Ġdollar": 4378,
      "Ġreading": 4379,
      "chester": 4380,
      "Ġseattle": 4381,
      "Ġprosecutors": 4382,
      "Ġnomination": 4383,
      "Ġdeclared": 4384,
      "Ġtraffic": 4385,
      "Ġwhistleblower": 4386,
      "met": 4387,
      "mavrick": 4388,
      "wom": 4389,
      "Ġtear": 4390,
      "Ġsens": 4391,
      "ato": 4392,
      "itude": 4393,
      "Ġreun": 4394,
      "illance": 4395,
      "Ġnotice": 4396,
      "Ġcorre": 4397,
      "Ġ36": 4398,
      "Ġhospitalized": 4399,
      "Ġproduct": 4400,
      "Ġtraveling": 4401,
      "Ġdistur": 4402,
      "Ġtreated": 4403,
      "Ġimmigrants": 4404,
      "monday": 4405,
      "Ġknife": 4406,
      "Ġinstitute": 4407,
      "Ġillegal": 4408,
      "Ġathletes": 4409,
      "Ġindependent": 4410,
      "ni": 4411,
      "poin": 4412,
      "Ġmad": 4413,
      "arily": 4414,
      "Ġinfection": 4415,
      "Ġlose": 4416,
      "usetts": 4417,
      "Ġbey": 4418,
      "Ġbear": 4419,
      "Ġfort": 4420,
      "stand": 4421,
      "Ġworse": 4422,
      "Ġneck": 4423,
      "abeth": 4424,
      "izabeth": 4425,
      "achusetts": 4426,
      "Ġserved": 4427,
      "Ġthrilled": 4428,
      "Ġsurge": 4429,
      "Ġsense": 4430,
      "aze": 4431,
      "Ġhighway": 4432,
      "Ġmissed": 4433,
      "Ġ90": 4434,
      "Ġpointed": 4435,
      "Ġincreased": 4436,
      "Ġukrainian": 4437,
      "Ġchoice": 4438,
      "Ġantib": 4439,
      "Ġprepare": 4440,
      "Ġpreviously": 4441,
      "Ġoriginal": 4442,
      "Ġtelevision": 4443,
      "rit": 4444,
      "sch": 4445,
      "win": 4446,
      "hey": 4447,
      "Ġsister": 4448,
      "eration": 4449,
      "Ġcash": 4450,
      "Ġfake": 4451,
      "Ġfox": 4452,
      "Ġny": 4453,
      "Ġbell": 4454,
      "Ġhero": 4455,
      "Ġjun": 4456,
      "Ġvent": 4457,
      "Ġros": 4458,
      "Ġlee": 4459,
      "Ġcoug": 4460,
      "Ġhelicop": 4461,
      "Ġphones": 4462,
      "Ġstrike": 4463,
      "Ġ2012": 4464,
      "Ġsupporting": 4465,
      "Ġtransgender": 4466,
      "Ġbars": 4467,
      "ields": 4468,
      "Ġinterviews": 4469,
      "casters": 4470,
      "stead": 4471,
      "Ġlimit": 4472,
      "Ġconsidering": 4473,
      "Ġchairman": 4474,
      "Ġmagaz": 4475,
      "Ġextreme": 4476,
      "Ġworkshops": 4477,
      "Ġlgbtq": 4478,
      "Ġnegoti": 4479,
      "Ġnecessary": 4480,
      "gas": 4481,
      "tuesday": 4482,
      "intend": 4483,
      "instead": 4484,
      "reamed": 4485,
      "Ġboss": 4486,
      "Ġmer": 4487,
      "Ġinf": 4488,
      "ays": 4489,
      "state": 4490,
      "Ġrom": 4491,
      "Ġcong": 4492,
      "Ġmeat": 4493,
      "Ġplastic": 4494,
      "Ġprince": 4495,
      "Ġstorms": 4496,
      "Ġpretty": 4497,
      "Ġstra": 4498,
      "issa": 4499,
      "Ġgovernors": 4500,
      "Ġguest": 4501,
      "Ġletters": 4502,
      "Ġhoping": 4503,
      "Ġcurious": 4504,
      "Ġharm": 4505,
      "Ġproduction": 4506,
      "Ġclosely": 4507,
      "Ġjoined": 4508,
      "Ġthanksgiving": 4509,
      "Ġbaseball": 4510,
      "Ġappoint": 4511,
      "Ġperspect": 4512,
      "Ġdiversity": 4513,
      "Ġdaniel": 4514,
      "Ġnatural": 4515,
      "Ġntid": 4516,
      "12": 4517,
      "200": 4518,
      "lished": 4519,
      "sometimes": 4520,
      "wal": 4521,
      "xy": 4522,
      "ze": 4523,
      "Ġsanta": 4524,
      "Ġsource": 4525,
      "Ġdark": 4526,
      "Ġnavy": 4527,
      "Ġwhit": 4528,
      "Ġanch": 4529,
      "char": 4530,
      "Ġconcept": 4531,
      "Ġunique": 4532,
      "Ġactress": 4533,
      "next": 4534,
      "Ġassign": 4535,
      "Ġregular": 4536,
      "Ġ197": 4537,
      "Ġcentral": 4538,
      "Ġbroken": 4539,
      "Ġsimply": 4540,
      "Ġhomel": 4541,
      "Ġrecorded": 4542,
      "Ġracial": 4543,
      "Ġmassachusetts": 4544,
      "Ġbabies": 4545,
      "Ġlinked": 4546,
      "Ġstruggling": 4547,
      "Ġcaptured": 4548,
      "Ġlicens": 4549,
      "Ġhistoric": 4550,
      "Ġbritish": 4551,
      "Ġvirtual": 4552,
      "Ġfresh": 4553,
      "Ġsettlement": 4554,
      "ban": 4555,
      "good": 4556,
      "hy": 4557,
      "war": 4558,
      "Ġ&": 4559,
      "Ġsell": 4560,
      "Ġben": 4561,
      "Ġlew": 4562,
      "oses": 4563,
      "Ġanger": 4564,
      "Ġjew": 4565,
      "ocol": 4566,
      "Ġclip": 4567,
      "Ġmob": 4568,
      "Ġcovered": 4569,
      "Ġstudio": 4570,
      "Ġsurround": 4571,
      "Ġfeelings": 4572,
      "Ġ196": 4573,
      "Ġsetting": 4574,
      "Ġdiscussions": 4575,
      "Ġsuspected": 4576,
      "Ġzoo": 4577,
      "Ġdevices": 4578,
      "Ġspring": 4579,
      "Ġlicense": 4580,
      "Ġdescribed": 4581,
      "Ġlung": 4582,
      "Ġtitle": 4583,
      "iciary": 4584,
      "Ġwu": 4585,
      "Ġcop": 4586,
      "Ġfisher": 4587,
      "Ġbasket": 4588,
      "Ġnba": 4589,
      "Ġforces": 4590,
      "Ġstock": 4591,
      "Ġcanad": 4592,
      "Ġknowledge": 4593,
      "Ġinvest": 4594,
      "Ġdrivers": 4595,
      "Ġfeat": 4596,
      "Ġactors": 4597,
      "Ġseeking": 4598,
      "Ġreporting": 4599,
      "Ġhowever": 4600,
      "Ġindiana": 4601,
      "Ġfaced": 4602,
      "Ġentered": 4603,
      "Ġgirls": 4604,
      "Ġparticular": 4605,
      "Ġballot": 4606,
      "Ġiranian": 4607,
      "Ġtennessee": 4608,
      "Ġoccur": 4609,
      "Ġadopt": 4610,
      "Ġfifth": 4611,
      "Ġgrocer": 4612,
      "cin": 4613,
      "cnn": 4614,
      "each": 4615,
      "tig": 4616,
      "Ġsides": 4617,
      "Ġfan": 4618,
      "Ġfish": 4619,
      "Ġmach": 4620,
      "Ġmigr": 4621,
      "aries": 4622,
      "theast": 4623,
      "Ġstuck": 4624,
      "Ġtend": 4625,
      "ounded": 4626,
      "Ġmoon": 4627,
      "Ġcohen": 4628,
      "Ġspan": 4629,
      "Ġdecisions": 4630,
      "ference": 4631,
      "Ġpassion": 4632,
      "Ġchem": 4633,
      "Ġconnected": 4634,
      "Ġmaintain": 4635,
      "Ġesca": 4636,
      "Ġestim": 4637,
      "Ġmotive": 4638,
      "Ġcertified": 4639,
      "Ġperformance": 4640,
      "Ġbenefit": 4641,
      "Ġpupp": 4642,
      "Ġstatus": 4643,
      "Ġbroadcast": 4644,
      "Ġ2021": 4645,
      "Ġapparently": 4646,
      "congratulations": 4647,
      "Ġbehavior": 4648,
      "reut": 4649,
      "Ġdream": 4650,
      "arant": 4651,
      "olf": 4652,
      "ifying": 4653,
      "Ġjames": 4654,
      "Ġride": 4655,
      "Ġcomed": 4656,
      "Ġshocked": 4657,
      "Ġsaud": 4658,
      "antic": 4659,
      "Ġsuicide": 4660,
      "Ġbob": 4661,
      "Ġbrazil": 4662,
      "Ġemb": 4663,
      "Ġrochester": 4664,
      "Ġspons": 4665,
      "neapolis": 4666,
      "Ġsoccer": 4667,
      "Ġwriting": 4668,
      "Ġmissouri": 4669,
      "Ġfinding": 4670,
      "Ġengine": 4671,
      "Ġexciting": 4672,
      "Ġpaul": 4673,
      "Ġeasier": 4674,
      "Ġhosting": 4675,
      "Ġvariety": 4676,
      "Ġthreats": 4677,
      "Ġcriticism": 4678,
      "Ġclosing": 4679,
      "Ġapologized": 4680,
      "oenix": 4681,
      "Ġchampions": 4682,
      "Ġdozens": 4683,
      "maybe": 4684,
      "Ġpilot": 4685,
      "Ġquarantine": 4686,
      "Ġbarriers": 4687,
      "Ġsparked": 4688,
      "Ġgraphic": 4689,
      "aq": 4690,
      "kes": 4691,
      "kansas": 4692,
      "lu": 4693,
      "rol": 4694,
      "vada": 4695,
      "Ġawards": 4696,
      "Ġsqu": 4697,
      "Ġbail": 4698,
      "ites": 4699,
      "Ġpal": 4700,
      "Ġdig": 4701,
      "icut": 4702,
      "owers": 4703,
      "aco": 4704,
      "Ġwhatever": 4705,
      "Ġalum": 4706,
      "Ġjim": 4707,
      "Ġrare": 4708,
      "Ġrough": 4709,
      "Ġchain": 4710,
      "ulian": 4711,
      "sex": 4712,
      "loom": 4713,
      "Ġmanagement": 4714,
      "Ġworker": 4715,
      "Ġagents": 4716,
      "rench": 4717,
      "Ġfollowed": 4718,
      "Ġ45": 4719,
      "Ġminute": 4720,
      "Ġadvice": 4721,
      "Ġbelong": 4722,
      "Ġbreast": 4723,
      "Ġjudiciary": 4724,
      "rupt": 4725,
      "Ġburned": 4726,
      "Ġholly": 4727,
      "Ġsurveillance": 4728,
      "Ġlaunch": 4729,
      "Ġconnecticut": 4730,
      "Ġvolunteers": 4731,
      "Ġconduct": 4732,
      "Ġpregnant": 4733,
      "Ġachieve": 4734,
      "Ġstraight": 4735,
      "cons": 4736,
      "fast": 4737,
      "ga": 4738,
      "iest": 4739,
      "ring": 4740,
      "tim": 4741,
      "uit": 4742,
      "Ġsize": 4743,
      "Ġpump": 4744,
      "Ġdial": 4745,
      "ications": 4746,
      "Ġlas": 4747,
      "Ġeld": 4748,
      "aces": 4749,
      "irty": 4750,
      "opher": 4751,
      "Ġdeaflympics": 4752,
      "ization": 4753,
      "Ġgrate": 4754,
      "Ġunclear": 4755,
      "Ġphoenix": 4756,
      "Ġsupports": 4757,
      "Ġimplement": 4758,
      "Ġsmo": 4759,
      "Ġemphas": 4760,
      "Ġsky": 4761,
      "Ġresponders": 4762,
      "Ġfocuses": 4763,
      "Ġsuperintend": 4764,
      "Ġspecifically": 4765,
      "Ġestablished": 4766,
      "Ġcanceled": 4767,
      "Ġdetermined": 4768,
      "through": 4769,
      "Ġsaudi": 4770,
      "\".": 4771,
      "ape": 4772,
      "ham": 4773,
      "nell": 4774,
      "will": 4775,
      "Ġ[": 4776,
      "Ġswe": 4777,
      "Ġhired": 4778,
      "arks": 4779,
      "usive": 4780,
      "Ġgay": 4781,
      "imed": 4782,
      "Ġweb": 4783,
      "Ġwhose": 4784,
      "Ġjer": 4785,
      "Ġrit": 4786,
      "Ġrus": 4787,
      "Ġram": 4788,
      "Ġability": 4789,
      "ieg": 4790,
      "Ġspir": 4791,
      "Ġtestified": 4792,
      "Ġinformed": 4793,
      "Ġelected": 4794,
      "Ġexpressed": 4795,
      "Ġwinning": 4796,
      "Ġfoods": 4797,
      "Ġrefle": 4798,
      "Ġburning": 4799,
      "Ġeasily": 4800,
      "Ġseriously": 4801,
      "Ġrequirements": 4802,
      "Ġtaxes": 4803,
      "Ġhunter": 4804,
      "Ġdelivery": 4805,
      "Ġeuropean": 4806,
      "Ġlockdown": 4807,
      "Ġsubpoena": 4808,
      "five": 4809,
      "fact": 4810,
      "water": 4811,
      "Ġfir": 4812,
      "Ġpurs": 4813,
      "Ġdin": 4814,
      "Ġoce": 4815,
      "Ġnyle": 4816,
      "ading": 4817,
      "Ġwilliam": 4818,
      "Ġsued": 4819,
      "Ġdoors": 4820,
      "Ġflash": 4821,
      "Ġspending": 4822,
      "Ġstruct": 4823,
      "Ġsmoke": 4824,
      "Ġtransfer": 4825,
      "Ġunderstanding": 4826,
      "Ġattacked": 4827,
      "Ġthreatened": 4828,
      "Ġlawsuits": 4829,
      "Ġfootage": 4830,
      "Ġautom": 4831,
      "Ġcapital": 4832,
      "Ġshopping": 4833,
      "Ġnursing": 4834,
      "sych": 4835,
      "Ġabortion": 4836,
      "Ġdisturbing": 4837,
      "Ġbasketball": 4838,
      "Ġgrateful": 4839,
      "iers": 4840,
      "mates": 4841,
      "ode": 4842,
      "pir": 4843,
      "Ġtow": 4844,
      "aling": 4845,
      "Ġlu": 4846,
      "Ġven": 4847,
      "Ġarkansas": 4848,
      "Ġamy": 4849,
      "Ġreporters": 4850,
      "place": 4851,
      "Ġstarts": 4852,
      "comes": 4853,
      "Ġmostly": 4854,
      "Ġinvolve": 4855,
      "Ġharass": 4856,
      "Ġelizabeth": 4857,
      "Ġsystems": 4858,
      "Ġchanging": 4859,
      "Ġfundra": 4860,
      "Ġbooks": 4861,
      "Ġruled": 4862,
      "Ġcameras": 4863,
      "Ġbanned": 4864,
      "Ġvehicles": 4865,
      "Ġjumped": 4866,
      "Ġtransportation": 4867,
      "Ġtradition": 4868,
      "Ġcruise": 4869,
      "Ġmartin": 4870,
      "Ġsurvivors": 4871,
      "40": 4872,
      "born": 4873,
      "put": 4874,
      "sl": 4875,
      "oring": 4876,
      "Ġbird": 4877,
      "Ġpas": 4878,
      "asio": 4879,
      "Ġeth": 4880,
      "urate": 4881,
      "Ġvac": 4882,
      "Ġiv": 4883,
      "Ġkr": 4884,
      "Ġsuf": 4885,
      "emy": 4886,
      "Ġproced": 4887,
      "Ġabc": 4888,
      "Ġmeth": 4889,
      "Ġplus": 4890,
      "Ġtwice": 4891,
      "Ġafford": 4892,
      "Ġclimate": 4893,
      "itely": 4894,
      "Ġcauses": 4895,
      "Ġblocked": 4896,
      "othing": 4897,
      "Ġmarried": 4898,
      "Ġsupported": 4899,
      "Ġsupporters": 4900,
      "Ġindia": 4901,
      "Ġinvestigations": 4902,
      "Ġminneapolis": 4903,
      "Ġconserv": 4904,
      "Ġimportance": 4905,
      "appy": 4906,
      "Ġracist": 4907,
      "Ġincidents": 4908,
      "Ġmotor": 4909,
      "Ġmeaning": 4910,
      "Ġchristopher": 4911,
      "Ġpicked": 4912,
      "Ġtournam": 4913,
      "Ġcreating": 4914,
      "Ġcontroversial": 4915,
      "Ġteaching": 4916,
      "Ġkidn": 4917,
      "Ġutah": 4918,
      "Ġreligious": 4919,
      "fundme": 4920,
      "Ġsurgery": 4921,
      "wednesday": 4922,
      "happy": 4923,
      "mc": 4924,
      "nick": 4925,
      "pers": 4926,
      "vious": 4927,
      "Ġwave": 4928,
      "onnell": 4929,
      "Ġfing": 4930,
      "ises": 4931,
      "Ġhorr": 4932,
      "Ġbee": 4933,
      "Ġforget": 4934,
      "Ġstands": 4935,
      "oster": 4936,
      "Ġrol": 4937,
      "Ġchan": 4938,
      "Ġkit": 4939,
      "Ġwheel": 4940,
      "Ġarmed": 4941,
      "Ġincome": 4942,
      "aping": 4943,
      "Ġ32": 4944,
      "Ġ2010": 4945,
      "Ġreporter": 4946,
      "Ġdepart": 4947,
      "Ġfederation": 4948,
      "Ġvegas": 4949,
      "Ġpositions": 4950,
      "apper": 4951,
      "Ġstreets": 4952,
      "Ġthreatening": 4953,
      "Ġruling": 4954,
      "Ġappearance": 4955,
      "Ġpenal": 4956,
      "Ġsinger": 4957,
      "Ġtouched": 4958,
      "Ġaccepted": 4959,
      "Ġrecalled": 4960,
      "Ġspoken": 4961,
      "Ġmedicine": 4962,
      "Ġamendment": 4963,
      "Ġdiagnosed": 4964,
      "Ġlewis": 4965,
      "Ġsuffered": 4966,
      "kr": 4967,
      "num": 4968,
      "Ġsam": 4969,
      "ero": 4970,
      "Ġpsych": 4971,
      "Ġhid": 4972,
      "Ġnom": 4973,
      "ently": 4974,
      "owing": 4975,
      "olute": 4976,
      "Ġvan": 4977,
      "Ġgofundme": 4978,
      "Ġdisaster": 4979,
      "Ġoffices": 4980,
      "Ġrecording": 4981,
      "Ġveget": 4982,
      "Ġmission": 4983,
      "Ġtalks": 4984,
      "Ġhopkins": 4985,
      "Ġ75": 4986,
      "Ġinternal": 4987,
      "Ġze": 4988,
      "lett": 4989,
      "Ġhandle": 4990,
      "rett": 4991,
      "Ġpolitics": 4992,
      "Ġattending": 4993,
      "Ġfalling": 4994,
      "Ġmotiv": 4995,
      "Ġreduc": 4996,
      "Ġlabor": 4997,
      "Ġattempted": 4998,
      "Ġflying": 4999,
      "iami": 5000,
      "Ġresigned": 5001,
      "Ġfatal": 5002,
      "Ġsurprise": 5003,
      "Ġiniti": 5004,
      "Ġcarrying": 5005,
      "Ġexplosion": 5006,
      "Ġstrategy": 5007,
      "Ġwuhan": 5008,
      "Ġelder": 5009,
      "brating": 5010,
      "cor": 5011,
      "gall": 5012,
      "ker": 5013,
      "yan": 5014,
      "Ġsamp": 5015,
      "Ġband": 5016,
      "ital": 5017,
      "Ġdomin": 5018,
      "Ġmsd": 5019,
      "Ġham": 5020,
      "Ġhang": 5021,
      "ilt": 5022,
      "Ġreform": 5023,
      "Ġreward": 5024,
      "Ġgest": 5025,
      "Ġforum": 5026,
      "Ġalive": 5027,
      "Ġjose": 5028,
      "Ġrif": 5029,
      "Ġrose": 5030,
      "pping": 5031,
      "Ġsuv": 5032,
      "Ġexerc": 5033,
      "Ġprice": 5034,
      "Ġnevada": 5035,
      "aked": 5036,
      "Ġresort": 5037,
      "Ġtwenty": 5038,
      "ossible": 5039,
      "Ġmedal": 5040,
      "Ġcharl": 5041,
      "Ġassess": 5042,
      "Ġposts": 5043,
      "Ġregistration": 5044,
      "Ġsmith": 5045,
      "Ġtransl": 5046,
      "Ġuniversities": 5047,
      "nov": 5048,
      "Ġartists": 5049,
      "Ġheaded": 5050,
      "Ġapproval": 5051,
      "Ġputting": 5052,
      "Ġharry": 5053,
      "joh": 5054,
      "Ġterms": 5055,
      "Ġsummit": 5056,
      "Ġstandards": 5057,
      "Ġspreading": 5058,
      "Ġdevice": 5059,
      "Ġcatch": 5060,
      "Ġdiego": 5061,
      "Ġelectric": 5062,
      "Ġtypically": 5063,
      "republic": 5064,
      "Ġgiant": 5065,
      "Ġneighborhood": 5066,
      "Ġshoes": 5067,
      "Ġintroduced": 5068,
      "Ġhelicopter": 5069,
      "Ġanchor": 5070,
      "tigieg": 5071,
      "reutzer": 5072,
      "Ġchampionship": 5073,
      "loomberg": 5074,
      "--": 5075,
      "bet": 5076,
      "oks": 5077,
      "Ġtent": 5078,
      "Ġtip": 5079,
      "Ġtherap": 5080,
      "Ġtoward": 5081,
      "Ġdu": 5082,
      "Ġoc": 5083,
      "Ġhal": 5084,
      "ication": 5085,
      "Ġrand": 5086,
      "arters": 5087,
      "isting": 5088,
      "Ġgod": 5089,
      "oston": 5090,
      "Ġcommerc": 5091,
      "Ġmanh": 5092,
      "Ġcompared": 5093,
      "ondon": 5094,
      "Ġdrink": 5095,
      "Ġserving": 5096,
      "Ġwars": 5097,
      "Ġfilms": 5098,
      "Ġcontribut": 5099,
      "Ġattorneys": 5100,
      "Ġbehalf": 5101,
      "Ġboyfriend": 5102,
      "Ġlisted": 5103,
      "Ġcelebrating": 5104,
      "Ġpopulation": 5105,
      "Ġfilming": 5106,
      "Ġimmune": 5107,
      "Ġcomplex": 5108,
      "Ġrecognition": 5109,
      "lined": 5110,
      "Ġpetition": 5111,
      "ennial": 5112,
      "Ġflights": 5113,
      "Ġpredict": 5114,
      "Ġrepeated": 5115,
      "Ġsandwich": 5116,
      "Ġmagazine": 5117,
      "Ġcanadian": 5118,
      "Ġchemical": 5119,
      "Ġnomine": 5120,
      "18": 5121,
      "cur": 5122,
      "did": 5123,
      "lit": 5124,
      "pet": 5125,
      "parent": 5126,
      "vard": 5127,
      "Ġsor": 5128,
      "Ġsweet": 5129,
      "ats": 5130,
      "Ġfrench": 5131,
      "Ġbath": 5132,
      "Ġdre": 5133,
      "Ġmall": 5134,
      "Ġoil": 5135,
      "Ġlay": 5136,
      "Ġnav": 5137,
      "Ġrent": 5138,
      "osing": 5139,
      "Ġrange": 5140,
      "aine": 5141,
      "Ġsoft": 5142,
      "teen": 5143,
      "Ġjoy": 5144,
      "Ġdecades": 5145,
      "grav": 5146,
      "commun": 5147,
      "Ġshootings": 5148,
      "estern": 5149,
      "Ġclassroom": 5150,
      "Ġiraq": 5151,
      "Ġhonest": 5152,
      "Ġyounger": 5153,
      "ipping": 5154,
      "Ġmotion": 5155,
      "Ġislands": 5156,
      "Ġmcdonald": 5157,
      "Ġselected": 5158,
      "Ġmeasures": 5159,
      "Ġhousing": 5160,
      "Ġkneel": 5161,
      "Ġincredible": 5162,
      "400": 5163,
      "iation": 5164,
      "later": 5165,
      "mo": 5166,
      "nor": 5167,
      "show": 5168,
      "ua": 5169,
      "was": 5170,
      "Ġaids": 5171,
      "Ġwide": 5172,
      "Ġcorn": 5173,
      "Ġped": 5174,
      "Ġdance": 5175,
      "Ġmouth": 5176,
      "Ġhart": 5177,
      "Ġlondon": 5178,
      "lew": 5179,
      "Ġgam": 5180,
      "Ġgives": 5181,
      "Ġdepend": 5182,
      "ads": 5183,
      "term": 5184,
      "Ġfrank": 5185,
      "Ġhasn": 5186,
      "Ġarch": 5187,
      "Ġbrut": 5188,
      "Ġaccus": 5189,
      "Ġflames": 5190,
      "Ġroc": 5191,
      "Ġwatched": 5192,
      "Ġmartha": 5193,
      "Ġwarr": 5194,
      "Ġstayed": 5195,
      "Ġinspect": 5196,
      "Ġfilmed": 5197,
      "Ġreceiving": 5198,
      "Ġinstru": 5199,
      "Ġpatrol": 5200,
      "Ġheadqu": 5201,
      "Ġreality": 5202,
      "Ġcommittees": 5203,
      "Ġintention": 5204,
      "Ġrising": 5205,
      "Ġeffects": 5206,
      "Ġpreparing": 5207,
      "Ġlandfall": 5208,
      "Ġepis": 5209,
      "scient": 5210,
      "Ġthinks": 5211,
      "Ġticket": 5212,
      "Ġtickets": 5213,
      "Ġworkshop": 5214,
      "Ġearthquake": 5215,
      "%.": 5216,
      "field": 5217,
      "Ġtas": 5218,
      "Ġsar": 5219,
      "Ġsca": 5220,
      "Ġsources": 5221,
      "Ġcow": 5222,
      "Ġpool": 5223,
      "anes": 5224,
      "Ġluck": 5225,
      "iles": 5226,
      "thes": 5227,
      "Ġgat": 5228,
      "Ġgift": 5229,
      "Ġasian": 5230,
      "ntown": 5231,
      "Ġworried": 5232,
      "acking": 5233,
      "Ġleague": 5234,
      "agers": 5235,
      "Ġourselves": 5236,
      "Ġaggrav": 5237,
      "Ġclient": 5238,
      "Ġenroll": 5239,
      "icking": 5240,
      "Ġqueen": 5241,
      "Ġ35": 5242,
      "Ġfinish": 5243,
      "Ġbuilt": 5244,
      "Ġpaying": 5245,
      "Ġcream": 5246,
      "Ġsystemic": 5247,
      "Ġrefund": 5248,
      "Ġstreaming": 5249,
      "Ġpromote": 5250,
      "Ġdamaged": 5251,
      "Ġcustomer": 5252,
      "Ġpackages": 5253,
      "Ġapplied": 5254,
      "Ġnurses": 5255,
      "Ġweapons": 5256,
      "Ġacademy": 5257,
      "Ġmainstream": 5258,
      "Ġpurchase": 5259,
      "Ġheadquarters": 5260,
      "chen": 5261,
      "gl": 5262,
      "gm": 5263,
      "hab": 5264,
      "mont": 5265,
      "nas": 5266,
      "pay": 5267,
      "ray": 5268,
      "whe": 5269,
      "Ġtied": 5270,
      "Ġsession": 5271,
      "atch": 5272,
      "Ġbay": 5273,
      "Ġmos": 5274,
      "Ġmiami": 5275,
      "idency": 5276,
      "Ġforg": 5277,
      "olen": 5278,
      "osp": 5279,
      "etime": 5280,
      "Ġchap": 5281,
      "unfortunately": 5282,
      "Ġip": 5283,
      "Ġnote": 5284,
      "Ġexamin": 5285,
      "ension": 5286,
      "Ġdepr": 5287,
      "Ġfoundation": 5288,
      "Ġvoter": 5289,
      "Ġfacilities": 5290,
      "Ġentert": 5291,
      "Ġsexually": 5292,
      "Ġrequested": 5293,
      "Ġprofession": 5294,
      "Ġglass": 5295,
      "Ġpractices": 5296,
      "Ġfreed": 5297,
      "Ġconversations": 5298,
      "Ġdouble": 5299,
      "Ġrecovering": 5300,
      "ordano": 5301,
      "Ġdemonstr": 5302,
      "Ġbudget": 5303,
      "Ġappreciate": 5304,
      "Ġalumni": 5305,
      "Ġsuperintendent": 5306,
      "bes": 5307,
      "bel": 5308,
      "cal": 5309,
      "Ġast": 5310,
      "Ġclo": 5311,
      "Ġcards": 5312,
      "orse": 5313,
      "eding": 5314,
      "Ġbure": 5315,
      "Ġmor": 5316,
      "Ġmans": 5317,
      "Ġod": 5318,
      "Ġlying": 5319,
      "Ġstars": 5320,
      "acing": 5321,
      "amm": 5322,
      "rooms": 5323,
      "Ġsem": 5324,
      "Ġtrou": 5325,
      "ulate": 5326,
      "istan": 5327,
      "Ġplenty": 5328,
      "Ġherself": 5329,
      "Ġunve": 5330,
      "anks": 5331,
      "ella": 5332,
      "Ġblast": 5333,
      "Ġcounties": 5334,
      "Ġfever": 5335,
      "Ġseek": 5336,
      "Ġ33": 5337,
      "iance": 5338,
      "enses": 5339,
      "white": 5340,
      "Ġconfident": 5341,
      "Ġdirection": 5342,
      "onym": 5343,
      "gov": 5344,
      "Ġequality": 5345,
      "Ġequival": 5346,
      "Ġsucceed": 5347,
      "Ġpleaded": 5348,
      "ysis": 5349,
      "Ġreturns": 5350,
      "Ġbatt": 5351,
      "Ġkinds": 5352,
      "Ġaccounts": 5353,
      "Ġaudio": 5354,
      "Ġlosing": 5355,
      "Ġsolution": 5356,
      "Ġmodels": 5357,
      "Ġrecommendations": 5358,
      "Ġassistance": 5359,
      "Ġmcconnell": 5360,
      "Ġmelissa": 5361,
      "Ġdelayed": 5362,
      "Ġappointed": 5363,
      "Ġbiennial": 5364,
      "Ġdorian": 5365,
      "Ġpartnership": 5366,
      "Ġdowntown": 5367,
      "michael": 5368,
      "Ġdialogue": 5369,
      "Ġocean": 5370,
      "Ġaggravated": 5371,
      "Ġentertain": 5372,
      "aid": 5373,
      "hs": 5374,
      "iors": 5375,
      "rd": 5376,
      "rom": 5377,
      "six": 5378,
      "Ġtaught": 5379,
      "Ġboston": 5380,
      "ann": 5381,
      "Ġhiring": 5382,
      "Ġnut": 5383,
      "them": 5384,
      "Ġell": 5385,
      "Ġisis": 5386,
      "Ġstolen": 5387,
      "kee": 5388,
      "Ġarab": 5389,
      "Ġimpl": 5390,
      "Ġadmit": 5391,
      "Ġunknown": 5392,
      "ipl": 5393,
      "ibr": 5394,
      "Ġpresidents": 5395,
      "Ġrod": 5396,
      "Ġperman": 5397,
      "Ġdeputy": 5398,
      "braska": 5399,
      "Ġposting": 5400,
      "Ġhighlight": 5401,
      "Ġparis": 5402,
      "Ġjudges": 5403,
      "Ġexplaining": 5404,
      "Ġmenu": 5405,
      "Ġirs": 5406,
      "Ġhumans": 5407,
      "Ġdetail": 5408,
      "Ġincreasing": 5409,
      "Ġtrees": 5410,
      "draw": 5411,
      "Ġgrandmother": 5412,
      "Ġpushing": 5413,
      "Ġholidays": 5414,
      "Ġappeal": 5415,
      "Ġlinks": 5416,
      "Ġautops": 5417,
      "Ġlouisville": 5418,
      "Ġaccompl": 5419,
      "Ġprosecutor": 5420,
      "Ġdemanding": 5421,
      "Ġsuggested": 5422,
      "Ġaffili": 5423,
      "Ġteenager": 5424,
      "Ġmountain": 5425,
      "Ġbomb": 5426,
      "Ġexchange": 5427,
      "Ġbureau": 5428,
      "aa": 5429,
      "hand": 5430,
      "ufact": 5431,
      "vis": 5432,
      "only": 5433,
      "Ġfilled": 5434,
      "Ġdry": 5435,
      "Ġdiet": 5436,
      "Ġnur": 5437,
      "Ġnerv": 5438,
      "ider": 5439,
      "ollett": 5440,
      "Ġaler": 5441,
      "Ġanthem": 5442,
      "utional": 5443,
      "Ġvaping": 5444,
      "early": 5445,
      "Ġiphone": 5446,
      "ortez": 5447,
      "ivity": 5448,
      "isted": 5449,
      "istent": 5450,
      "sey": 5451,
      "Ġpray": 5452,
      "Ġarbery": 5453,
      "Ġresource": 5454,
      "Ġunable": 5455,
      "ondland": 5456,
      "Ġdayton": 5457,
      "Ġeverywhere": 5458,
      "Ġmont": 5459,
      "Ġattr": 5460,
      "Ġcolumb": 5461,
      "Ġpassing": 5462,
      "Ġfireworks": 5463,
      "Ġending": 5464,
      "prosecut": 5465,
      "Ġvictory": 5466,
      "Ġdetained": 5467,
      "Ġtraum": 5468,
      "Ġforecast": 5469,
      "Ġbreakfast": 5470,
      "Ġapplies": 5471,
      "Ġopposed": 5472,
      "Ġvalue": 5473,
      "Ġurging": 5474,
      "yeah": 5475,
      "Ġassistant": 5476,
      "Ġpolls": 5477,
      "Ġcells": 5478,
      "Ġnasa": 5479,
      "finally": 5480,
      "ltc": 5481,
      "Ġcomfortable": 5482,
      "democrats": 5483,
      "Ġcuomo": 5484,
      "Ġtemporary": 5485,
      "Ġgrocery": 5486,
      "gallaudet": 5487,
      "Ġnominee": 5488,
      "scientists": 5489,
      "Ġnervous": 5490,
      "\",": 5491,
      "zz": 5492,
      "Ġsom": 5493,
      "Ġwfd": 5494,
      "Ġcoc": 5495,
      "Ġdw": 5496,
      "Ġthrew": 5497,
      "entially": 5498,
      "Ġgulf": 5499,
      "eline": 5500,
      "Ġkur": 5501,
      "antage": 5502,
      "Ġoral": 5503,
      "Ġsue": 5504,
      "Ġresume": 5505,
      "Ġclar": 5506,
      "Ġcontamin": 5507,
      "Ġoverd": 5508,
      "icks": 5509,
      "Ġparties": 5510,
      "Ġque": 5511,
      "Ġ2011": 5512,
      "forecasters": 5513,
      "Ġremarks": 5514,
      "Ġ400": 5515,
      "Ġimpossible": 5516,
      "Ġwarm": 5517,
      "under": 5518,
      "aho": 5519,
      "Ġelement": 5520,
      "Ġearn": 5521,
      "approp": 5522,
      "Ġparks": 5523,
      "enez": 5524,
      "Ġbrooks": 5525,
      "Ġassociated": 5526,
      "Ġelig": 5527,
      "Ġsubmitted": 5528,
      "Ġ150": 5529,
      "Ġcontacted": 5530,
      "Ġcoverage": 5531,
      "Ġconducted": 5532,
      "Ġtypes": 5533,
      "Ġbreathing": 5534,
      "Ġpostponed": 5535,
      "Ġroughly": 5536,
      "Ġhollywood": 5537,
      "Ġelderly": 5538,
      "Ġscared": 5539,
      "prosecutors": 5540,
      "appropri": 5541,
      "cu": 5542,
      "ek": 5543,
      "mel": 5544,
      "ination": 5545,
      "recent": 5546,
      "Ġtheater": 5547,
      "onic": 5548,
      "onna": 5549,
      "Ġfuel": 5550,
      "Ġfoster": 5551,
      "Ġdar": 5552,
      "Ġmr": 5553,
      "Ġhi": 5554,
      "Ġhoc": 5555,
      "Ġling": 5556,
      "Ġren": 5557,
      "ander": 5558,
      "antly": 5559,
      "istics": 5560,
      "Ġprices": 5561,
      "Ġmanufact": 5562,
      "anged": 5563,
      "percent": 5564,
      "Ġsole": 5565,
      "Ġbridge": 5566,
      "thanks": 5567,
      "Ġprel": 5568,
      "Ġstrict": 5569,
      "Ġshouldn": 5570,
      "Ġ48": 5571,
      "Ġindian": 5572,
      "Ġmemory": 5573,
      "Ġcontinuing": 5574,
      "Ġlocated": 5575,
      "Ġconfl": 5576,
      "Ġbarack": 5577,
      "Ġtweets": 5578,
      "Ġgreater": 5579,
      "Ġrape": 5580,
      "Ġproduce": 5581,
      "Ġwindows": 5582,
      "Ġbriefings": 5583,
      "raid": 5584,
      "Ġcompleted": 5585,
      "Ġargued": 5586,
      "Ġoperations": 5587,
      "Ġpassenger": 5588,
      "Ġsurprised": 5589,
      "Ġillnesses": 5590,
      "Ġseemed": 5591,
      "Ġapplication": 5592,
      "Ġpiece": 5593,
      "Ġbottom": 5594,
      "Ġstrength": 5595,
      "uliani": 5596,
      "olutely": 5597,
      "Ġcommercial": 5598,
      "onymous": 5599,
      "13": 5600,
      "800": 5601,
      "?!": 5602,
      "har": 5603,
      "make": 5604,
      "oj": 5605,
      "sm": 5606,
      "ware": 5607,
      "hered": 5608,
      "iny": 5609,
      "Ġsac": 5610,
      "Ġfix": 5611,
      "Ġpair": 5612,
      "esome": 5613,
      "Ġlucky": 5614,
      "Ġyap": 5615,
      "Ġbecomes": 5616,
      "Ġstad": 5617,
      "igen": 5618,
      "imer": 5619,
      "imately": 5620,
      "Ġwithdraw": 5621,
      "vert": 5622,
      "Ġanaly": 5623,
      "Ġshift": 5624,
      "essential": 5625,
      "acked": 5626,
      "Ġblake": 5627,
      "Ġhearings": 5628,
      "Ġdonation": 5629,
      "Ġdonate": 5630,
      "Ġ2013": 5631,
      "Ġ49": 5632,
      "ighter": 5633,
      "Ġadding": 5634,
      "Ġfiling": 5635,
      "azy": 5636,
      "Ġinvolving": 5637,
      "Ġbigger": 5638,
      "Ġruns": 5639,
      "Ġguns": 5640,
      "Ġviolation": 5641,
      "Ġdistribut": 5642,
      "Ġencouraging": 5643,
      "Ġmoments": 5644,
      "Ġviews": 5645,
      "Ġresponses": 5646,
      "Ġexperiencing": 5647,
      "Ġactivist": 5648,
      "Ġaddressed": 5649,
      "Ġapart": 5650,
      "Ġimmediate": 5651,
      "Ġauthority": 5652,
      "Ġweapon": 5653,
      "Ġreaction": 5654,
      "Ġobstruction": 5655,
      "Ġprojects": 5656,
      "school": 5657,
      "Ġmigrants": 5658,
      "Ġestimated": 5659,
      "Ġtournament": 5660,
      "Ġchannel": 5661,
      "Ġprelimin": 5662,
      "Ġstadium": 5663,
      "16": 5664,
      "bda": 5665,
      "dad": 5666,
      "iar": 5667,
      "net": 5668,
      "tur": 5669,
      "Ġtall": 5670,
      "really": 5671,
      "Ġwestern": 5672,
      "ndy": 5673,
      "Ġbaham": 5674,
      "Ġpac": 5675,
      "Ġdi": 5676,
      "Ġdad": 5677,
      "Ġdna": 5678,
      "aro": 5679,
      "Ġinn": 5680,
      "icient": 5681,
      "Ġlie": 5682,
      "Ġlau": 5683,
      "third": 5684,
      "osh": 5685,
      "Ġaltern": 5686,
      "Ġanx": 5687,
      "Ġanonymous": 5688,
      "Ġsea": 5689,
      "Ġexhib": 5690,
      "pends": 5691,
      "ables": 5692,
      "force": 5693,
      "Ġafraid": 5694,
      "Ġdisag": 5695,
      "Ġbrings": 5696,
      "owned": 5697,
      "Ġovernight": 5698,
      "Ġcauc": 5699,
      "Ġharder": 5700,
      "Ġdeputies": 5701,
      "Ġindicted": 5702,
      "Ġadvantage": 5703,
      "Ġreleasing": 5704,
      "Ġcontroll": 5705,
      "doctors": 5706,
      "Ġsyria": 5707,
      "Ġdealing": 5708,
      "Ġlegislation": 5709,
      "sdb": 5710,
      "Ġconstruction": 5711,
      "Ġsoldiers": 5712,
      "Ġcreative": 5713,
      "Ġiii": 5714,
      "Ġspotted": 5715,
      "Ġchecks": 5716,
      "Ġstabbed": 5717,
      "Ġgermany": 5718,
      "Ġowned": 5719,
      "Ġanalysis": 5720,
      "point": 5721,
      "Ġbeyond": 5722,
      "Ġjunior": 5723,
      "Ġappointment": 5724,
      "Ġpaso": 5725,
      "Ġsorry": 5726,
      "mary": 5727,
      "nbc": 5728,
      "Ġ.": 5729,
      "Ġsust": 5730,
      "Ġcin": 5731,
      "Ġfought": 5732,
      "iser": 5733,
      "ilson": 5734,
      "Ġrehab": 5735,
      "Ġbegins": 5736,
      "Ġforth": 5737,
      "acity": 5738,
      "Ġdeport": 5739,
      "osure": 5740,
      "start": 5741,
      "Ġrow": 5742,
      "Ġrivers": 5743,
      "Ġnebraska": 5744,
      "agon": 5745,
      "acted": 5746,
      "Ġaccurate": 5747,
      "Ġeval": 5748,
      "Ġ34": 5749,
      "Ġprem": 5750,
      "Ġguarant": 5751,
      "Ġseconds": 5752,
      "iolog": 5753,
      "residents": 5754,
      "Ġcolleges": 5755,
      "Ġinjury": 5756,
      "door": 5757,
      "Ġstronger": 5758,
      "craft": 5759,
      "Ġoperation": 5760,
      "Ġprofessor": 5761,
      "Ġurged": 5762,
      "Ġgeneration": 5763,
      "Ġdozen": 5764,
      "facebook": 5765,
      "Ġdrinks": 5766,
      "Ġconstitution": 5767,
      "Ġdefinitely": 5768,
      "Ġextremely": 5769,
      "Ġmobile": 5770,
      "number": 5771,
      "Ġclothes": 5772,
      "Ġnurse": 5773,
      "Ġpreliminary": 5774,
      "99": 5775,
      "ki": 5776,
      "kreutzer": 5777,
      "mem": 5778,
      "Ġcree": 5779,
      "Ġbacter": 5780,
      "Ġpets": 5781,
      "Ġmuse": 5782,
      "Ġmitch": 5783,
      "arms": 5784,
      "icing": 5785,
      "icians": 5786,
      "opez": 5787,
      "Ġrapper": 5788,
      "htag": 5789,
      "Ġhashtag": 5790,
      "Ġoutr": 5791,
      "Ġupon": 5792,
      "Ġrecovery": 5793,
      "bled": 5794,
      "Ġdonated": 5795,
      "Ġdemands": 5796,
      "Ġsurf": 5797,
      "Ġconspir": 5798,
      "Ġcheese": 5799,
      "Ġcourtroom": 5800,
      "Ġjean": 5801,
      "Ġairline": 5802,
      "Ġvisual": 5803,
      "Ġvisiting": 5804,
      "Ġharvard": 5805,
      "Ġburger": 5806,
      "Ġsyn": 5807,
      "Ġfunction": 5808,
      "Ġrisks": 5809,
      "itnesses": 5810,
      "Ġpeak": 5811,
      "Ġpresented": 5812,
      "Ġactivists": 5813,
      "Ġtreas": 5814,
      "Ġsafely": 5815,
      "Ġvisitors": 5816,
      "Ġinspir": 5817,
      "Ġrelationships": 5818,
      "Ġeru": 5819,
      "Ġkorean": 5820,
      "Ġcrews": 5821,
      "Ġinfectious": 5822,
      "Ġevacuate": 5823,
      "Ġcoordinator": 5824,
      "Ġinfluence": 5825,
      "Ġjewish": 5826,
      "timore": 5827,
      "Ġharassment": 5828,
      "Ġgathered": 5829,
      "Ġautopsy": 5830,
      "300": 5831,
      "fed": 5832,
      "fam": 5833,
      "hur": 5834,
      "tom": 5835,
      "inc": 5836,
      "Ġsport": 5837,
      "Ġwounded": 5838,
      "Ġpip": 5839,
      "Ġdump": 5840,
      "Ġdates": 5841,
      "Ġdaught": 5842,
      "Ġmap": 5843,
      "Ġhat": 5844,
      "aland": 5845,
      "Ġinappropri": 5846,
      "Ġanderson": 5847,
      "Ġnature": 5848,
      "Ġreven": 5849,
      "Ġegg": 5850,
      "Ġformed": 5851,
      "Ġforms": 5852,
      "child": 5853,
      "Ġring": 5854,
      "Ġshout": 5855,
      "Ġsud": 5856,
      "ocal": 5857,
      "Ġpride": 5858,
      "Ġprize": 5859,
      "Ġacknow": 5860,
      "Ġpresidency": 5861,
      "Ġeverybody": 5862,
      "Ġactual": 5863,
      "Ġquiet": 5864,
      "Ġpersons": 5865,
      "Ġcarr": 5866,
      "Ġdonations": 5867,
      "which": 5868,
      "Ġdepression": 5869,
      "Ġelev": 5870,
      "liest": 5871,
      "inson": 5872,
      "Ġshots": 5873,
      "Ġapproached": 5874,
      "Ġcollect": 5875,
      "joe": 5876,
      "Ġviolated": 5877,
      "Ġdisabled": 5878,
      "Ġswed": 5879,
      "Ġgranted": 5880,
      "Ġconvo": 5881,
      "Ġrecognized": 5882,
      "Ġsuccessfully": 5883,
      "Ġmexican": 5884,
      "Ġcultural": 5885,
      "Ġsymbol": 5886,
      "Ġpotentially": 5887,
      "Ġconsumer": 5888,
      "Ġvolunteer": 5889,
      "Ġdavis": 5890,
      "Ġbrothers": 5891,
      "Ġcleaning": 5892,
      "Ġsleeping": 5893,
      "Ġdrawing": 5894,
      "Ġidaho": 5895,
      "Ġinitiative": 5896,
      "Ġexercise": 5897,
      "Ġwarrant": 5898,
      "Ġelementary": 5899,
      "Ġdaughters": 5900,
      "22": 5901,
      "call": 5902,
      "cious": 5903,
      "cont": 5904,
      "hour": 5905,
      "haps": 5906,
      "hope": 5907,
      "laughter": 5908,
      "mill": 5909,
      "mond": 5910,
      "ster": 5911,
      "ule": 5912,
      "Ġwow": 5913,
      "Ġfiring": 5914,
      "itt": 5915,
      "Ġdun": 5916,
      "Ġdipl": 5917,
      "Ġoxy": 5918,
      "Ġinters": 5919,
      "Ġnick": 5920,
      "vey": 5921,
      "Ġgy": 5922,
      "Ġstone": 5923,
      "oween": 5924,
      "Ġonto": 5925,
      "iger": 5926,
      "Ġdepends": 5927,
      "add": 5928,
      "adv": 5929,
      "lying": 5930,
      "stit": 5931,
      "Ġjay": 5932,
      "Ġjur": 5933,
      "china": 5934,
      "Ġrum": 5935,
      "Ġtrapped": 5936,
      "Ġcha": 5937,
      "aste": 5938,
      "Ġallies": 5939,
      "Ġarms": 5940,
      "angers": 5941,
      "Ġclim": 5942,
      "Ġemails": 5943,
      "Ġflav": 5944,
      "athan": 5945,
      "Ġfamiliar": 5946,
      "Ġpharm": 5947,
      "Ġperry": 5948,
      "Ġpayment": 5949,
      "someone": 5950,
      "Ġpossibility": 5951,
      "shire": 5952,
      "Ġthanked": 5953,
      "Ġzo": 5954,
      "Ġtraveled": 5955,
      "Ġcelebrities": 5956,
      "Ġsmaller": 5957,
      "Ġcovering": 5958,
      "month": 5959,
      "Ġbags": 5960,
      "Ġgatherings": 5961,
      "Ġtargeted": 5962,
      "Ġtemperature": 5963,
      "Ġillegally": 5964,
      "Ġchecked": 5965,
      "election": 5966,
      "ilingual": 5967,
      "Ġbolton": 5968,
      "Ġinterpretation": 5969,
      "Ġtools": 5970,
      "Ġscenes": 5971,
      "Ġopinion": 5972,
      "Ġperspective": 5973,
      "Ġmachine": 5974,
      "Ġspanish": 5975,
      "Ġconservative": 5976,
      "Ġdepartments": 5977,
      "Ġpenalty": 5978,
      "Ġrifle": 5979,
      "current": 5980,
      "Ġprofessionals": 5981,
      "Ġhockey": 5982,
      "igenous": 5983,
      "Ġconspiracy": 5984,
      "Ġsudden": 5985,
      "hdi": 5986,
      "iot": 5987,
      "ipe": 5988,
      "men": 5989,
      "rid": 5990,
      "ya": 5991,
      "Ġing": 5992,
      "Ġsale": 5993,
      "Ġselling": 5994,
      "erous": 5995,
      "Ġcordano": 5996,
      "Ġfro": 5997,
      "Ġbac": 5998,
      "Ġpizz": 5999,
      "Ġduty": 6000,
      "Ġmir": 6001,
      "Ġlip": 6002,
      "Ġnations": 6003,
      "Ġstuff": 6004,
      "though": 6005,
      "ifts": 6006,
      "Ġkam": 6007,
      "Ġsuing": 6008,
      "Ġmeghan": 6009,
      "Ġpled": 6010,
      "Ġpra": 6011,
      "bernie": 6012,
      "Ġarmy": 6013,
      "Ġclients": 6014,
      "Ġknowing": 6015,
      "Ġdrone": 6016,
      "Ġscout": 6017,
      "helle": 6018,
      "Ġsecure": 6019,
      "Ġindigenous": 6020,
      "Ġbrew": 6021,
      "Ġendors": 6022,
      "Ġpublicly": 6023,
      "Ġexplo": 6024,
      "Ġturns": 6025,
      "ashion": 6026,
      "Ġentering": 6027,
      "Ġlights": 6028,
      "Ġdiscussing": 6029,
      "Ġzone": 6030,
      "Ġhomicide": 6031,
      "Ġcritics": 6032,
      "Ġswim": 6033,
      "Ġchallenging": 6034,
      "Ġimproved": 6035,
      "idespread": 6036,
      "Ġshortly": 6037,
      "Ġpete": 6038,
      "Ġcancelled": 6039,
      "Ġsurvived": 6040,
      "Ġafrica": 6041,
      "Ġcommissioner": 6042,
      "Ġgarage": 6043,
      "Ġaffairs": 6044,
      "Ġslowly": 6045,
      "Ġcapacity": 6046,
      "Ġhoy": 6047,
      "Ġguyger": 6048,
      "Ġargument": 6049,
      "Ġzealand": 6050,
      "Ġastron": 6051,
      "Ġmanslaughter": 6052,
      "recently": 6053,
      "Ġconflict": 6054,
      "Ġbahamas": 6055,
      "Ġmuseum": 6056,
      "75": 6057,
      "iat": 6058,
      "lim": 6059,
      "Ġtam": 6060,
      "onies": 6061,
      "Ġcdi": 6062,
      "Ġbid": 6063,
      "Ġbun": 6064,
      "Ġbloomberg": 6065,
      "Ġdress": 6066,
      "ales": 6067,
      "ashes": 6068,
      "Ġlane": 6069,
      "Ġretr": 6070,
      "Ġstood": 6071,
      "Ġweak": 6072,
      "elens": 6073,
      "Ġramp": 6074,
      "ivation": 6075,
      "acks": 6076,
      "Ġleaves": 6077,
      "Ġbuttigieg": 6078,
      "Ġimag": 6079,
      "Ġaclu": 6080,
      "tered": 6081,
      "uclear": 6082,
      "action": 6083,
      "Ġcode": 6084,
      "iley": 6085,
      "Ġspike": 6086,
      "Ġcorpor": 6087,
      "grounds": 6088,
      "Ġassem": 6089,
      "minute": 6090,
      "Ġ600": 6091,
      "Ġdirected": 6092,
      "Ġ800": 6093,
      "Ġheading": 6094,
      "Ġelimin": 6095,
      "Ġgirlfriend": 6096,
      "Ġjoining": 6097,
      "odies": 6098,
      "Ġcelebrated": 6099,
      "Ġfocusing": 6100,
      "Ġstepped": 6101,
      "Ġthousand": 6102,
      "Ġflooded": 6103,
      "Ġgrowth": 6104,
      "Ġformal": 6105,
      "Ġformally": 6106,
      "Ġnonprofit": 6107,
      "Ġstruggled": 6108,
      "Ġportland": 6109,
      "Ġhillary": 6110,
      "Ġproposals": 6111,
      "Ġfrequ": 6112,
      "Ġevacuation": 6113,
      "Ġbanks": 6114,
      "Ġbasis": 6115,
      "Ġbasic": 6116,
      "Ġselect": 6117,
      "Ġdiverse": 6118,
      "Ġgiuliani": 6119,
      "Ġproceedings": 6120,
      "despite": 6121,
      "Ġbaltimore": 6122,
      "Ġmainstreamed": 6123,
      "Ġdrinking": 6124,
      "Ġsuspicious": 6125,
      "paper": 6126,
      "Ġventil": 6127,
      "Ġwhitaker": 6128,
      "Ġroles": 6129,
      "Ġdeprivation": 6130,
      "equ": 6131,
      "hop": 6132,
      "ole": 6133,
      "tained": 6134,
      "witnesses": 6135,
      "Ġsne": 6136,
      "Ġwidespread": 6137,
      "Ġba": 6138,
      "Ġbip": 6139,
      "Ġbilingual": 6140,
      "Ġtox": 6141,
      "Ġduc": 6142,
      "Ġdough": 6143,
      "Ġdebut": 6144,
      "ifer": 6145,
      "ura": 6146,
      "Ġconcl": 6147,
      "Ġtrig": 6148,
      "Ġtrillion": 6149,
      "ivered": 6150,
      "Ġbylaw": 6151,
      "Ġadam": 6152,
      "Ġcrying": 6153,
      "Ġunf": 6154,
      "pernick": 6155,
      "Ġclick": 6156,
      "Ġboost": 6157,
      "never": 6158,
      "Ġdeclined": 6159,
      "Ġpermission": 6160,
      "ysts": 6161,
      "Ġindic": 6162,
      "Ġplays": 6163,
      "Ġrequiring": 6164,
      "Ġnorm": 6165,
      "Ġloans": 6166,
      "rics": 6167,
      "Ġsett": 6168,
      "Ġunderway": 6169,
      "Ġbreaking": 6170,
      "Ġgotten": 6171,
      "Ġlots": 6172,
      "Ġdesk": 6173,
      "Ġemployers": 6174,
      "Ġcollected": 6175,
      "Ġupdated": 6176,
      "Ġzero": 6177,
      "Ġtechnical": 6178,
      "Ġdelivered": 6179,
      "Ġarrive": 6180,
      "Ġprivile": 6181,
      "ylc": 6182,
      "Ġcollaps": 6183,
      "attan": 6184,
      "Ġrecommended": 6185,
      "Ġmccain": 6186,
      "Ġmelania": 6187,
      "Ġoriginally": 6188,
      "Ġrolled": 6189,
      "Ġmeasure": 6190,
      "Ġintroduce": 6191,
      "Ġdescribe": 6192,
      "Ġproduced": 6193,
      "Ġpieces": 6194,
      "aepernick": 6195,
      "Ġfrustrated": 6196,
      "Ġcorrect": 6197,
      "Ġbathroom": 6198,
      "Ġfreedom": 6199,
      "Ġunveiled": 6200,
      "Ġpermanent": 6201,
      "Ġlingu": 6202,
      "Ġrehabil": 6203,
      "Ġbacteria": 6204,
      "federal": 6205,
      "Ġinappropriate": 6206,
      "Ġpizza": 6207,
      "35": 6208,
      "bly": 6209,
      "bro": 6210,
      "fc": 6211,
      "long": 6212,
      "nter": 6213,
      "national": 6214,
      "si": 6215,
      "tv": 6216,
      "zen": 6217,
      "Ġtor": 6218,
      "real": 6219,
      "reach": 6220,
      "Ġsight": 6221,
      "Ġsess": 6222,
      "Ġsound": 6223,
      "erved": 6224,
      "Ġpink": 6225,
      "ica": 6226,
      "lead": 6227,
      "Ġhen": 6228,
      "Ġwash": 6229,
      "Ġjon": 6230,
      "Ġjosh": 6231,
      "pper": 6232,
      "resp": 6233,
      "Ġsevent": 6234,
      "geor": 6235,
      "Ġuser": 6236,
      "Ġdoj": 6237,
      "Ġagent": 6238,
      "Ġclips": 6239,
      "Ġincor": 6240,
      "Ġcontained": 6241,
      "ously": 6242,
      "acters": 6243,
      "Ġstudying": 6244,
      "Ġfled": 6245,
      "Ġwaters": 6246,
      "Ġsplit": 6247,
      "Ġscore": 6248,
      "Ġ38": 6249,
      "Ġmaria": 6250,
      "Ġcharacters": 6251,
      "Ġexperim": 6252,
      "Ġleads": 6253,
      "Ġ46": 6254,
      "Ġsurpass": 6255,
      "Ġminimum": 6256,
      "hess": 6257,
      "Ġinvolves": 6258,
      "florida": 6259,
      "Ġrepresenting": 6260,
      "Ġobvious": 6261,
      "Ġfunny": 6262,
      "Ġdiseases": 6263,
      "Ġreturning": 6264,
      "Ġsupply": 6265,
      "Ġdistance": 6266,
      "Ġdebt": 6267,
      "Ġchristian": 6268,
      "Ġvaccines": 6269,
      "Ġsolid": 6270,
      "Ġschedule": 6271,
      "Ġstruggle": 6272,
      "Ġroads": 6273,
      "Ġgraduate": 6274,
      "Ġcomplaints": 6275,
      "Ġmccl": 6276,
      "Ġelectron": 6277,
      "Ġnascar": 6278,
      "Ġdisappear": 6279,
      "Ġgrabbed": 6280,
      "Ġrichard": 6281,
      "Ġrapid": 6282,
      "Ġmistakes": 6283,
      "Ġveterans": 6284,
      "ocolate": 6285,
      "Ġsurrounding": 6286,
      "Ġfeatured": 6287,
      "Ġfirm": 6288,
      "krones": 6289,
      "Ġmanhattan": 6290,
      "Ġentertainment": 6291,
      "elensky": 6292,
      "95": 6293,
      "dom": 6294,
      "fa": 6295,
      "hh": 6296,
      "lan": 6297,
      "mes": 6298,
      "ror": 6299,
      "ss": 6300,
      "sem": 6301,
      "Ġq": 6302,
      "Ġtul": 6303,
      "Ġwins": 6304,
      "Ġcab": 6305,
      "Ġmisc": 6306,
      "Ġomar": 6307,
      "Ġhug": 6308,
      "ali": 6309,
      "arian": 6310,
      "armed": 6311,
      "Ġintended": 6312,
      "Ġnone": 6313,
      "Ġnose": 6314,
      "Ġyell": 6315,
      "Ġyelling": 6316,
      "Ġgard": 6317,
      "Ġet": 6318,
      "Ġends": 6319,
      "Ġford": 6320,
      "owed": 6321,
      "otic": 6322,
      "ammed": 6323,
      "Ġital": 6324,
      "Ġalaska": 6325,
      "Ġaside": 6326,
      "Ġchur": 6327,
      "Ġshirt": 6328,
      "Ġsav": 6329,
      "Ġextend": 6330,
      "Ġprove": 6331,
      "essed": 6332,
      "Ġoffers": 6333,
      "Ġcounter": 6334,
      "Ġafghan": 6335,
      "Ġgrade": 6336,
      "texas": 6337,
      "Ġmoves": 6338,
      "awn": 6339,
      "Ġquite": 6340,
      "Ġnewspaper": 6341,
      "Ġ41": 6342,
      "Ġgovernments": 6343,
      "Ġfounded": 6344,
      "Ġopio": 6345,
      "Ġnumerous": 6346,
      "Ġunderwater": 6347,
      "apple": 6348,
      "Ġraising": 6349,
      "ologists": 6350,
      "Ġclassic": 6351,
      "Ġlistening": 6352,
      "Ġresponding": 6353,
      "Ġstrongly": 6354,
      "Ġoppression": 6355,
      "Ġgraduation": 6356,
      "Ġsearching": 6357,
      "Ġprint": 6358,
      "Ġrescued": 6359,
      "Ġreaching": 6360,
      "Ġhalloween": 6361,
      "Ġhung": 6362,
      "Ġliked": 6363,
      "Ġadvisor": 6364,
      "Ġadopted": 6365,
      "Ġenvironmental": 6366,
      "Ġvermont": 6367,
      "Ġadministrators": 6368,
      "Ġminority": 6369,
      "Ġmonitoring": 6370,
      "Ġopposition": 6371,
      "Ġmaterials": 6372,
      "Ġantibodies": 6373,
      "Ġescape": 6374,
      "Ġpuppy": 6375,
      "Ġkidnapping": 6376,
      "Ġmotivated": 6377,
      "Ġrepeatedly": 6378,
      "Ġarabia": 6379,
      "Ġeligible": 6380,
      "Ġduchess": 6381,
      "60": 6382,
      "600": 6383,
      "cre": 6384,
      "dro": 6385,
      "eor": 6386,
      "ka": 6387,
      "nard": 6388,
      "oy": 6389,
      "Ġsondland": 6390,
      "Ġwore": 6391,
      "atically": 6392,
      "Ġbuck": 6393,
      "Ġpap": 6394,
      "ishes": 6395,
      "Ġda": 6396,
      "Ġdying": 6397,
      "Ġopt": 6398,
      "Ġhamp": 6399,
      "Ġinput": 6400,
      "asion": 6401,
      "Ġlind": 6402,
      "Ġgaming": 6403,
      "igare": 6404,
      "imp": 6405,
      "illa": 6406,
      "elle": 6407,
      "anded": 6408,
      "Ġchocolate": 6409,
      "Ġmeal": 6410,
      "Ġhispan": 6411,
      "Ġupset": 6412,
      "Ġbright": 6413,
      "formation": 6414,
      "Ġdrag": 6415,
      "Ġguide": 6416,
      "Ġchest": 6417,
      "Ġbuying": 6418,
      "Ġconfron": 6419,
      "Ġdescription": 6420,
      "Ġmatt": 6421,
      "Ġinterviewed": 6422,
      "jected": 6423,
      "Ġeaster": 6424,
      "Ġpromise": 6425,
      "Ġprompted": 6426,
      "Ġdelta": 6427,
      "Ġawesome": 6428,
      "Ġmarkle": 6429,
      "breaking": 6430,
      "Ġwondering": 6431,
      "Ġvolcan": 6432,
      "Ġcertific": 6433,
      "Ġseats": 6434,
      "Ġwildfire": 6435,
      "Ġwildlife": 6436,
      "Ġknocked": 6437,
      "americans": 6438,
      "everyone": 6439,
      "Ġevacuated": 6440,
      "Ġabsent": 6441,
      "Ġadministrative": 6442,
      "Ġbullets": 6443,
      "Ġcollaboration": 6444,
      "Ġmixed": 6445,
      "Ġarguments": 6446,
      "Ġoverwhelmed": 6447,
      "Ġspirit": 6448,
      "Ġprocedures": 6449,
      "Ġbeef": 6450,
      "Ġrandom": 6451,
      "24": 6452,
      "bit": 6453,
      "dish": 6454,
      "gi": 6455,
      "oa": 6456,
      "pot": 6457,
      "sources": 6458,
      "wa": 6459,
      "Ġspect": 6460,
      "Ġfaster": 6461,
      "Ġtot": 6462,
      "Ġpound": 6463,
      "ena": 6464,
      "Ġdating": 6465,
      "icip": 6466,
      "ician": 6467,
      "iding": 6468,
      "Ġgang": 6469,
      "osen": 6470,
      "Ġvul": 6471,
      "andal": 6472,
      "Ġshock": 6473,
      "Ġresist": 6474,
      "Ġgrass": 6475,
      "Ġgrown": 6476,
      "Ġunless": 6477,
      "Ġclothing": 6478,
      "bling": 6479,
      "Ġcounted": 6480,
      "Ġanywhere": 6481,
      "Ġphase": 6482,
      "nson": 6483,
      "nship": 6484,
      "Ġ55": 6485,
      "Ġconsult": 6486,
      "mex": 6487,
      "Ġarrests": 6488,
      "Ġexpensive": 6489,
      "Ġpatrick": 6490,
      "Ġcareful": 6491,
      "Ġfewer": 6492,
      "Ġburied": 6493,
      "Ġobject": 6494,
      "Ġhitting": 6495,
      "does": 6496,
      "Ġmaine": 6497,
      "Ġlaid": 6498,
      "Ġsalt": 6499,
      "Ġsalmon": 6500,
      "Ġprivacy": 6501,
      "Ġreopened": 6502,
      "Ġdenver": 6503,
      "Ġrains": 6504,
      "Ġriding": 6505,
      "Ġspray": 6506,
      "Ġpanel": 6507,
      "Ġdisappoin": 6508,
      "Ġacademic": 6509,
      "Ġbullet": 6510,
      "Ġroutine": 6511,
      "women": 6512,
      "woman": 6513,
      "Ġadoption": 6514,
      "Ġsquare": 6515,
      "Ġjerry": 6516,
      "Ġjoseph": 6517,
      "parents": 6518,
      "Ġcolumbia": 6519,
      "Ġhampshire": 6520,
      "14": 6521,
      "80": 6522,
      "bar": 6523,
      "due": 6524,
      "event": 6525,
      "game": 6526,
      "mat": 6527,
      "page": 6528,
      "russ": 6529,
      "ront": 6530,
      "sun": 6531,
      "tit": 6532,
      "uk": 6533,
      "word": 6534,
      "erate": 6535,
      "Ġflew": 6536,
      "Ġfashion": 6537,
      "Ġbreat": 6538,
      "Ġpages": 6539,
      "Ġder": 6540,
      "Ġduties": 6541,
      "Ġhorn": 6542,
      "Ġinmates": 6543,
      "usa": 6544,
      "Ġstom": 6545,
      "osis": 6546,
      "Ġult": 6547,
      "stud": 6548,
      "Ġjenn": 6549,
      "chan": 6550,
      "chair": 6551,
      "Ġrud": 6552,
      "Ġconse": 6553,
      "uman": 6554,
      "Ġshar": 6555,
      "eman": 6556,
      "ements": 6557,
      "Ġ2000": 6558,
      "Ġmeals": 6559,
      "Ġoffensive": 6560,
      "Ġcrpd": 6561,
      "Ġcrazy": 6562,
      "Ġoverall": 6563,
      "Ġjoke": 6564,
      "others": 6565,
      "Ġrelax": 6566,
      "Ġseniors": 6567,
      "Ġplanes": 6568,
      "lando": 6569,
      "Ġlob": 6570,
      "Ġconfused": 6571,
      "prot": 6572,
      "Ġeducate": 6573,
      "Ġretired": 6574,
      "Ġfacial": 6575,
      "Ġentry": 6576,
      "Ġpatri": 6577,
      "Ġmothers": 6578,
      "Ġtermin": 6579,
      "friday": 6580,
      "Ġmetal": 6581,
      "Ġpromised": 6582,
      "Ġjoint": 6583,
      "Ġplea": 6584,
      "officers": 6585,
      "Ġchoices": 6586,
      "Ġpickup": 6587,
      "Ġprotective": 6588,
      "Ġinspire": 6589,
      "Ġlabel": 6590,
      "Ġsuggests": 6591,
      "Ġcrossing": 6592,
      "Ġreplaced": 6593,
      "Ġpredicted": 6594,
      "Ġmandatory": 6595,
      "Ġflags": 6596,
      "Ġstabbing": 6597,
      "Ġabsolutely": 6598,
      "Ġdivision": 6599,
      "Ġcomedy": 6600,
      "Ġbrutality": 6601,
      "Ġsarah": 6602,
      "Ġpacific": 6603,
      "starting": 6604,
      "Ġoxygen": 6605,
      "Ġkamala": 6606,
      "Ġcollapsed": 6607,
      "Ġrehabilitation": 6608,
      "Ġsessions": 6609,
      "Ġabsentee": 6610,
      "dog": 6611,
      "free": 6612,
      "fox": 6613,
      "hill": 6614,
      "jack": 6615,
      "los": 6616,
      "local": 6617,
      "sund": 6618,
      "Ġtank": 6619,
      "ints": 6620,
      "Ġcure": 6621,
      "Ġtoil": 6622,
      "isan": 6623,
      "Ġdpan": 6624,
      "Ġmile": 6625,
      "Ġlen": 6626,
      "Ġlibr": 6627,
      "Ġrevers": 6628,
      "Ġgal": 6629,
      "Ġgord": 6630,
      "Ġgolf": 6631,
      "Ġehdi": 6632,
      "Ġwendy": 6633,
      "ete": 6634,
      "Ġjordan": 6635,
      "Ġvig": 6636,
      "Ġron": 6637,
      "Ġric": 6638,
      "Ġrub": 6639,
      "Ġtrib": 6640,
      "Ġsaved": 6641,
      "oren": 6642,
      "aint": 6643,
      "Ġprohib": 6644,
      "Ġcann": 6645,
      "istry": 6646,
      "ardo": 6647,
      "Ġworkplace": 6648,
      "Ġmod": 6649,
      "ibilities": 6650,
      "Ġblame": 6651,
      "Ġemer": 6652,
      "Ġempt": 6653,
      "ampa": 6654,
      "Ġscott": 6655,
      "Ġanymore": 6656,
      "Ġ37": 6657,
      "Ġpersonnel": 6658,
      "although": 6659,
      "Ġremem": 6660,
      "Ġ51": 6661,
      "auvin": 6662,
      "Ġkevin": 6663,
      "brown": 6664,
      "underst": 6665,
      "Ġregulations": 6666,
      "Ġfirearms": 6667,
      "Ġearned": 6668,
      "Ġsmollett": 6669,
      "Ġconfront": 6670,
      "Ġempower": 6671,
      "Ġbrett": 6672,
      "Ġprotesting": 6673,
      "Ġsoutheast": 6674,
      "Ġmembership": 6675,
      "Ġprocessing": 6676,
      "ruption": 6677,
      "Ġski": 6678,
      "Ġrefuge": 6679,
      "Ġpastor": 6680,
      "Ġzelensky": 6681,
      "doing": 6682,
      "Ġcustoms": 6683,
      "Ġlapt": 6684,
      "Ġatlantic": 6685,
      "Ġpending": 6686,
      "Ġquestioned": 6687,
      "Ġforest": 6688,
      "Ġseparated": 6689,
      "Ġprincess": 6690,
      "Ġparticipated": 6691,
      "burn": 6692,
      "Ġstruggles": 6693,
      "senate": 6694,
      "Ġmagn": 6695,
      "Ġgathering": 6696,
      "Ġresignation": 6697,
      "Ġmemories": 6698,
      "Ġneighbors": 6699,
      "Ġliber": 6700,
      "Ġlunch": 6701,
      "Ġpoor": 6702,
      "Ġgolden": 6703,
      "Ġterrorist": 6704,
      "Ġsuffering": 6705,
      "Ġdocumentary": 6706,
      "anchard": 6707,
      "Ġmaximum": 6708,
      "Ġpitts": 6709,
      "Ġassigned": 6710,
      "Ġhomeland": 6711,
      "Ġhomeless": 6712,
      "Ġparticularly": 6713,
      "Ġsmooth": 6714,
      "Ġrushed": 6715,
      "Ġdinner": 6716,
      "Ġtraditional": 6717,
      "Ġreduced": 6718,
      "Ġtherapy": 6719,
      "shows": 6720,
      "Ġrocks": 6721,
      "Ġchapter": 6722,
      "Ġaccomplish": 6723,
      "Ġinspiration": 6724,
      "currently": 6725,
      "protest": 6726,
      "sunday": 6727,
      "17": 6728,
      "bus": 6729,
      "bie": 6730,
      "bott": 6731,
      "father": 6732,
      "harr": 6733,
      "lif": 6734,
      "nut": 6735,
      "nearly": 6736,
      "oe": 6737,
      "oon": 6738,
      "rac": 6739,
      "run": 6740,
      "ses": 6741,
      "vide": 6742,
      "yn": 6743,
      "yard": 6744,
      "reens": 6745,
      "Ġtheft": 6746,
      "Ġfits": 6747,
      "Ġfields": 6748,
      "itors": 6749,
      "Ġpent": 6750,
      "Ġmour": 6751,
      "Ġinnov": 6752,
      "Ġnash": 6753,
      "Ġnuclear": 6754,
      "Ġgear": 6755,
      "Ġstun": 6756,
      "Ġash": 6757,
      "Ġross": 6758,
      "Ġrounds": 6759,
      "Ġtrials": 6760,
      "Ġtrucks": 6761,
      "Ġorange": 6762,
      "Ġorlando": 6763,
      "Ġnotes": 6764,
      "Ġproof": 6765,
      "seven": 6766,
      "Ġnewly": 6767,
      "Ġuns": 6768,
      "Ġpolling": 6769,
      "Ġdismiss": 6770,
      "aware": 6771,
      "Ġcomprom": 6772,
      "Ġeveryday": 6773,
      "Ġdram": 6774,
      "Ġemoj": 6775,
      "Ġflat": 6776,
      "Ġrooms": 6777,
      "Ġspaces": 6778,
      "Ġ39": 6779,
      "Ġdecre": 6780,
      "Ġstrikes": 6781,
      "Ġ44": 6782,
      "Ġ47": 6783,
      "Ġmonthly": 6784,
      "being": 6785,
      "aha": 6786,
      "Ġregional": 6787,
      "Ġhighly": 6788,
      "Ġaircraft": 6789,
      "Ġoldest": 6790,
      "Ġwoodall": 6791,
      "Ġturk": 6792,
      "Ġturning": 6793,
      "Ġartwork": 6794,
      "Ġgunsh": 6795,
      "Ġgunfire": 6796,
      "ological": 6797,
      "Ġsynd": 6798,
      "Ġhandling": 6799,
      "Ġexcl": 6800,
      "bye": 6801,
      "Ġ250": 6802,
      "Ġtreatments": 6803,
      "Ġpacked": 6804,
      "ylum": 6805,
      "Ġperforming": 6806,
      "Ġepid": 6807,
      "Ġsurvive": 6808,
      "Ġterrible": 6809,
      "Ġapology": 6810,
      "Ġfailure": 6811,
      "thousands": 6812,
      "Ġaustralian": 6813,
      "Ġapplications": 6814,
      "riage": 6815,
      "burgh": 6816,
      "Ġfarmers": 6817,
      "often": 6818,
      "Ġmodern": 6819,
      "Ġoverwhelming": 6820,
      "Ġinvolvement": 6821,
      "Ġdreams": 6822,
      "Ġbattling": 6823,
      "Ġtoxic": 6824,
      "Ġbylaws": 6825,
      "Ġitalian": 6826,
      "eventually": 6827,
      "Ġempty": 6828,
      "cortez": 6829,
      "dd": 6830,
      "eight": 6831,
      "ls": 6832,
      "las": 6833,
      "mate": 6834,
      "spe": 6835,
      "tell": 6836,
      "vrs": 6837,
      "Ġtony": 6838,
      "Ġtaco": 6839,
      "inated": 6840,
      "Ġwilson": 6841,
      "Ġtheat": 6842,
      "onents": 6843,
      "Ġcbs": 6844,
      "atl": 6845,
      "Ġpin": 6846,
      "Ġdoug": 6847,
      "Ġosc": 6848,
      "asd": 6849,
      "Ġthirty": 6850,
      "leans": 6851,
      "lete": 6852,
      "Ġgins": 6853,
      "Ġgreg": 6854,
      "Ġbears": 6855,
      "iran": 6856,
      "amaz": 6857,
      "lyn": 6858,
      "Ġwithhold": 6859,
      "cture": 6860,
      "Ġvenez": 6861,
      "Ġasylum": 6862,
      "Ġrh": 6863,
      "Ġryan": 6864,
      "Ġsean": 6865,
      "Ġtribute": 6866,
      "oore": 6867,
      "Ġorleans": 6868,
      "ula": 6869,
      "Ġextended": 6870,
      "iable": 6871,
      "Ġplate": 6872,
      "Ġplants": 6873,
      "abc": 6874,
      "Ġarts": 6875,
      "Ġgraham": 6876,
      "Ġinterv": 6877,
      "Ġunlike": 6878,
      "Ġens": 6879,
      "actor": 6880,
      "Ġcomply": 6881,
      "Ġrecru": 6882,
      "Ġacts": 6883,
      "Ġcarried": 6884,
      "Ġdecor": 6885,
      "Ġmarks": 6886,
      "Ġperhaps": 6887,
      "nedy": 6888,
      "Ġshoulder": 6889,
      "Ġdepos": 6890,
      "Ġfounder": 6891,
      "Ġrespir": 6892,
      "Ġwarns": 6893,
      "Ġconfed": 6894,
      "Ġwrapped": 6895,
      "Ġcareg": 6896,
      "Ġlightning": 6897,
      "Ġputin": 6898,
      "Ġlarger": 6899,
      "Ġyoungest": 6900,
      "Ġadvocating": 6901,
      "Ġraces": 6902,
      "Ġmidnight": 6903,
      "Ġstandard": 6904,
      "Ġ2008": 6905,
      "Ġbattery": 6906,
      "Ġchoke": 6907,
      "Ġforever": 6908,
      "Ġpulling": 6909,
      "Ġcutting": 6910,
      "Ġargue": 6911,
      "Ġrecommends": 6912,
      "Ġinspiring": 6913,
      "Ġcloser": 6914,
      "Ġcapture": 6915,
      "Ġapologize": 6916,
      "Ġrolling": 6917,
      "Ġanswers": 6918,
      "Ġinitially": 6919,
      "Ġmandate": 6920,
      "Ġreferred": 6921,
      "Ġsatis": 6922,
      "Ġjefferson": 6923,
      "Ġcircum": 6924,
      "Ġcontestants": 6925,
      "Ġnypd": 6926,
      "Ġtrouble": 6927,
      "Ġinnoc": 6928,
      "Ġanxiety": 6929,
      "children": 6930,
      "Ġsweden": 6931,
      "Ġopioid": 6932,
      "Ġhispanic": 6933,
      "Ġvulner": 6934,
      "Ġsalmonella": 6935,
      "Ġstomach": 6936,
      "Ġginsburg": 6937,
      "Ġvenezuel": 6938,
      "45": 6939,
      "700": 6940,
      "</": 6941,
      "cdc": 6942,
      "eing": 6943,
      "fare": 6944,
      "nat": 6945,
      "nice": 6946,
      "pat": 6947,
      "uth": 6948,
      "watch": 6949,
      "zing": 6950,
      "Ġtun": 6951,
      "Ġwake": 6952,
      "Ġcher": 6953,
      "Ġbot": 6954,
      "Ġpow": 6955,
      "Ġpitch": 6956,
      "Ġdim": 6957,
      "Ġdressed": 6958,
      "anced": 6959,
      "Ġlikes": 6960,
      "ompe": 6961,
      "Ġgifts": 6962,
      "Ġstem": 6963,
      "Ġstake": 6964,
      "Ġstick": 6965,
      "otte": 6966,
      "Ġdeals": 6967,
      "ett": 6968,
      "Ġuber": 6969,
      "Ġhail": 6970,
      "Ġalthough": 6971,
      "Ġrat": 6972,
      "Ġrall": 6973,
      "Ġrush": 6974,
      "anda": 6975,
      "Ġseed": 6976,
      "estyle": 6977,
      "ulated": 6978,
      "eoph": 6979,
      "Ġoutreach": 6980,
      "berts": 6981,
      "Ġads": 6982,
      "Ġadvert": 6983,
      "Ġcry": 6984,
      "Ġdisin": 6985,
      "Ġbrian": 6986,
      "Ġcave": 6987,
      "Ġcaution": 6988,
      "Ġinvite": 6989,
      "Ġnobody": 6990,
      "Ġbackgrounds": 6991,
      "Ġcarter": 6992,
      "Ġcheer": 6993,
      "Ġnortheast": 6994,
      "ricult": 6995,
      "Ġbreonna": 6996,
      "Ġcentury": 6997,
      "Ġparade": 6998,
      "Ġ73": 6999,
      "Ġfindings": 7000,
      "Ġstopping": 7001,
      "Ġheads": 7002,
      "Ġtells": 7003,
      "Ġpointing": 7004,
      "Ġslammed": 7005,
      "Ġmidwest": 7006,
      "Ġ2009": 7007,
      "Ġtravelers": 7008,
      "Ġcondem": 7009,
      "Ġfactors": 7010,
      "Ġcats": 7011,
      "Ġaudism": 7012,
      "Ġtouching": 7013,
      "Ġtelephone": 7014,
      "Ġglad": 7015,
      "Ġfriendly": 7016,
      "Ġpaint": 7017,
      "Ġwallace": 7018,
      "senator": 7019,
      "Ġshelters": 7020,
      "Ġreplace": 7021,
      "Ġranch": 7022,
      "Ġaffects": 7023,
      "Ġfellow": 7024,
      "Ġproducer": 7025,
      "Ġhistorical": 7026,
      "Ġsilence": 7027,
      "Ġcycl": 7028,
      "Ġveteran": 7029,
      "Ġpreferred": 7030,
      "Ġtrailer": 7031,
      "Ġcongratulations": 7032,
      "Ġlicensure": 7033,
      "Ġoccurred": 7034,
      "Ġpumpkin": 7035,
      "Ġstructure": 7036,
      "Ġtransferred": 7037,
      "Ġaffordable": 7038,
      "Ġmotorcy": 7039,
      "Ġsamples": 7040,
      "Ġnavig": 7041,
      "Ġsoftware": 7042,
      "Ġfranklin": 7043,
      "hurricane": 7044,
      "Ġhenry": 7045,
      "Ġjoshua": 7046,
      "Ġseventh": 7047,
      "Ġchurches": 7048,
      "Ġmagnitude": 7049,
      "ompeo": 7050,
      "ares": 7051,
      "bum": 7052,
      "cbs": 7053,
      "california": 7054,
      "greg": 7055,
      "hundreds": 7056,
      "hdad": 7057,
      "jud": 7058,
      "nltc": 7059,
      "rome": 7060,
      "saturday": 7061,
      "uro": 7062,
      "Ġtag": 7063,
      "Ġaven": 7064,
      "rell": 7065,
      "Ġcath": 7066,
      "Ġfer": 7067,
      "Ġbump": 7068,
      "itz": 7069,
      "Ġpard": 7070,
      "isa": 7071,
      "Ġmort": 7072,
      "ashing": 7073,
      "Ġna": 7074,
      "Ġnic": 7075,
      "Ġrein": 7076,
      "Ġstyle": 7077,
      "olic": 7078,
      "Ġheav": 7079,
      "imani": 7080,
      "Ġitem": 7081,
      "Ġvid": 7082,
      "Ġrank": 7083,
      "Ġrides": 7084,
      "unk": 7085,
      "ortiz": 7086,
      "Ġsuit": 7087,
      "Ġsubs": 7088,
      "Ġaband": 7089,
      "ques": 7090,
      "Ġagricult": 7091,
      "Ġinterven": 7092,
      "Ġunif": 7093,
      "Ġunity": 7094,
      "Ġuncon": 7095,
      "text": 7096,
      "irez": 7097,
      "Ġenjo": 7098,
      "Ġschol": 7099,
      "Ġcovers": 7100,
      "Ġaccusing": 7101,
      "Ġblamed": 7102,
      "Ġnovel": 7103,
      "Ġdraft": 7104,
      "Ġquit": 7105,
      "ressive": 7106,
      "Ġdecline": 7107,
      "Ġ53": 7108,
      "Ġdeploy": 7109,
      "Ġgoods": 7110,
      "eyes": 7111,
      "Ġbelief": 7112,
      "Ġexplore": 7113,
      "Ġ65": 7114,
      "Ġairports": 7115,
      "phones": 7116,
      "Ġsites": 7117,
      "Ġ85": 7118,
      "Ġexplains": 7119,
      "Ġmurdered": 7120,
      "Ġburn": 7121,
      "Ġimmun": 7122,
      "Ġexamples": 7123,
      "Ġsanitiz": 7124,
      "Ġdenies": 7125,
      "Ġfactor": 7126,
      "delta": 7127,
      "Ġparticipating": 7128,
      "Ġfema": 7129,
      "Ġvalley": 7130,
      "Ġstole": 7131,
      "Ġrecalling": 7132,
      "Ġdetect": 7133,
      "Ġbasically": 7134,
      "working": 7135,
      "Ġaffecting": 7136,
      "Ġextrad": 7137,
      "Ġsilent": 7138,
      "Ġphotographer": 7139,
      "missions": 7140,
      "Ġmistake": 7141,
      "Ġconfirmation": 7142,
      "disney": 7143,
      "Ġopinions": 7144,
      "Ġcough": 7145,
      "warren": 7146,
      "Ġpursue": 7147,
      "Ġhartford": 7148,
      "Ġoutrage": 7149,
      "Ġastronaut": 7150,
      "Ġmcclain": 7151,
      "Ġyellow": 7152,
      "Ġafghanistan": 7153,
      "Ġconfronted": 7154,
      "Ġvolcano": 7155,
      "Ġbreathe": 7156,
      "Ġtoilet": 7157,
      "Ġgordon": 7158,
      "Ġvigil": 7159,
      "Ġpittsburgh": 7160,
      "Ġpentagon": 7161,
      "Ġsyndrome": 7162,
      "Ġintervention": 7163,
      "Ġvulnerable": 7164,
      "bor": 7165,
      "fil": 7166,
      "great": 7167,
      "ii": 7168,
      "iking": 7169,
      "join": 7170,
      "ko": 7171,
      "mm": 7172,
      "pn": 7173,
      "py": 7174,
      "ran": 7175,
      "vs": 7176,
      "yap": 7177,
      "za": 7178,
      "Ġtampa": 7179,
      "Ġaimed": 7180,
      "hearing": 7181,
      "inas": 7182,
      "Ġsi": 7183,
      "Ġcb": 7184,
      "Ġcore": 7185,
      "Ġflee": 7186,
      "isition": 7187,
      "Ġded": 7188,
      "Ġmath": 7189,
      "anim": 7190,
      "ario": 7191,
      "arco": 7192,
      "Ġnarr": 7193,
      "Ġnbc": 7194,
      "Ġnbda": 7195,
      "Ġye": 7196,
      "Ġgop": 7197,
      "Ġbeer": 7198,
      "Ġstro": 7199,
      "Ġstable": 7200,
      "igue": 7201,
      "ela": 7202,
      "stances": 7203,
      "Ġjen": 7204,
      "Ġasks": 7205,
      "Ġconven": 7206,
      "Ġchuck": 7207,
      "Ġchauvin": 7208,
      "Ġshields": 7209,
      "essa": 7210,
      "Ġpron": 7211,
      "ieved": 7212,
      "aks": 7213,
      "avis": 7214,
      "Ġherit": 7215,
      "Ġaggress": 7216,
      "Ġinternship": 7217,
      "pering": 7218,
      "together": 7219,
      "onduct": 7220,
      "Ġblanchard": 7221,
      "Ġfees": 7222,
      "Ġspain": 7223,
      "Ġscreens": 7224,
      "Ġanytime": 7225,
      "pected": 7226,
      "Ġcourts": 7227,
      "Ġ43": 7228,
      "Ġimpressed": 7229,
      "ferences": 7230,
      "bsp": 7231,
      "Ġindict": 7232,
      "Ġpostal": 7233,
      "Ġguess": 7234,
      "Ġbuff": 7235,
      "Ġsussex": 7236,
      "ricanes": 7237,
      "Ġtransition": 7238,
      "Ġmissile": 7239,
      "Ġvisible": 7240,
      "Ġexpectations": 7241,
      "Ġdirectors": 7242,
      "Ġexposure": 7243,
      "Ġconcert": 7244,
      "Ġheadlines": 7245,
      "Ġinje": 7246,
      "Ġhurricanes": 7247,
      "Ġintent": 7248,
      "Ġwaited": 7249,
      "Ġswit": 7250,
      "Ġspecialist": 7251,
      "Ġawa": 7252,
      "Ġfalls": 7253,
      "Ġhearts": 7254,
      "Ġsteve": 7255,
      "Ġdamages": 7256,
      "Ġcuts": 7257,
      "Ġsolutions": 7258,
      "Ġsugar": 7259,
      "Ġoperating": 7260,
      "Ġaccepting": 7261,
      "Ġsnake": 7262,
      "Ġclaiming": 7263,
      "Ġprosecution": 7264,
      "Ġslee": 7265,
      "Ġdemanded": 7266,
      "Ġcaptain": 7267,
      "Ġshelves": 7268,
      "Ġcalm": 7269,
      "Ġremotely": 7270,
      "Ġkidney": 7271,
      "Ġawarded": 7272,
      "Ġregardless": 7273,
      "Ġjournalist": 7274,
      "Ġhydro": 7275,
      "Ġkennedy": 7276,
      "Ġlogo": 7277,
      "Ġradio": 7278,
      "Ġacquisition": 7279,
      "Ġnegotiations": 7280,
      "Ġlungs": 7281,
      "Ġkitchen": 7282,
      "Ġgesture": 7283,
      "republican": 7284,
      "Ġcorner": 7285,
      "Ġenrolled": 7286,
      "Ġexaminer": 7287,
      "Ġkurdish": 7288,
      "Ġsoleimani": 7289,
      "members": 7290,
      "advoc": 7291,
      "Ġimagine": 7292,
      "Ġexperiment": 7293,
      "Ġsurpassed": 7294,
      "Ġmisconduct": 7295,
      "orence": 7296,
      "harris": 7297,
      "Ġtheatre": 7298,
      "Ġconfederate": 7299,
      "Ġvideoph": 7300,
      "Ġenjoying": 7301,
      "ded": 7302,
      "dan": 7303,
      "ec": 7304,
      "gent": 7305,
      "made": 7306,
      "sur": 7307,
      "ship": 7308,
      "tate": 7309,
      "wear": 7310,
      "Ġtsa": 7311,
      "Ġcas": 7312,
      "Ġfallen": 7313,
      "itis": 7314,
      "Ġtoy": 7315,
      "Ġpens": 7316,
      "isons": 7317,
      "Ġdancing": 7318,
      "esc": 7319,
      "Ġolympics": 7320,
      "alk": 7321,
      "aled": 7322,
      "leted": 7323,
      "Ġgre": 7324,
      "Ġisl": 7325,
      "Ġforcing": 7326,
      "Ġdebr": 7327,
      "thursday": 7328,
      "ament": 7329,
      "Ġali": 7330,
      "Ġalbum": 7331,
      "Ġvill": 7332,
      "Ġrot": 7333,
      "umm": 7334,
      "umer": 7335,
      "ummy": 7336,
      "Ġexcess": 7337,
      "Ġlege": 7338,
      "Ġleban": 7339,
      "Ġsignature": 7340,
      "Ġadjust": 7341,
      "Ġamid": 7342,
      "Ġtex": 7343,
      "ailand": 7344,
      "iban": 7345,
      "aws": 7346,
      "Ġcoch": 7347,
      "Ġrecre": 7348,
      "Ġdrones": 7349,
      "Ġflowers": 7350,
      "Ġspin": 7351,
      "Ġhello": 7352,
      "Ġinclusive": 7353,
      "nered": 7354,
      "Ġdonating": 7355,
      "Ġmarsh": 7356,
      "Ġmarriage": 7357,
      "Ġstrain": 7358,
      "anyone": 7359,
      "def": 7360,
      "Ġnationals": 7361,
      "Ġkend": 7362,
      "Ġkemp": 7363,
      "Ġsurface": 7364,
      "bered": 7365,
      "Ġdiscovery": 7366,
      "Ġinvestigated": 7367,
      "Ġcommunicating": 7368,
      "Ġorganized": 7369,
      "Ġrepresented": 7370,
      "Ġdeadliest": 7371,
      "such": 7372,
      "support": 7373,
      "tense": 7374,
      "Ġviolations": 7375,
      "Ġprotected": 7376,
      "Ġhandgun": 7377,
      "Ġbriefing": 7378,
      "Ġencourages": 7379,
      "Ġpoliticians": 7380,
      "Ġescal": 7381,
      "Ġincreases": 7382,
      "Ġviewed": 7383,
      "Ġpresentations": 7384,
      "Ġsuprem": 7385,
      "Ġsupervis": 7386,
      "Ġrequests": 7387,
      "Ġquestioning": 7388,
      "Ġcompete": 7389,
      "Ġloud": 7390,
      "Ġprotecting": 7391,
      "Ġlanded": 7392,
      "Ġparticipants": 7393,
      "Ġvalues": 7394,
      "Ġappeals": 7395,
      "Ġtelehealth": 7396,
      "Ġrobbery": 7397,
      "Ġmcmichael": 7398,
      "ervation": 7399,
      "Ġdiabet": 7400,
      "Ġcitizen": 7401,
      "Ġcrowds": 7402,
      "Ġmaleah": 7403,
      "Ġadviser": 7404,
      "Ġemotions": 7405,
      "Ġdifferences": 7406,
      "Ġterrorism": 7407,
      "Ġlifetime": 7408,
      "Ġcyber": 7409,
      "Ġdeeply": 7410,
      "Ġhouses": 7411,
      "rosoft": 7412,
      "starbucks": 7413,
      "Ġtemporarily": 7414,
      "Ġisolation": 7415,
      "Ġisolated": 7416,
      "standing": 7417,
      "Ġrosen": 7418,
      "johnson": 7419,
      "Ġepisode": 7420,
      "Ġequivalent": 7421,
      "Ġaffiliates": 7422,
      "Ġalternative": 7423,
      "Ġcontrolled": 7424,
      "Ġzoom": 7425,
      "Ġswimming": 7426,
      "Ġrudy": 7427,
      "Ġlaptop": 7428,
      "Ġheritage": 7429,
      "bell": 7430,
      "cigare": 7431,
      "ean": 7432,
      "nic": 7433,
      "nbsp": 7434,
      "rition": 7435,
      "south": 7436,
      "uce": 7437,
      "uate": 7438,
      "Ġtact": 7439,
      "Ġtiny": 7440,
      "Ġtaste": 7441,
      "rehe": 7442,
      "Ġsid": 7443,
      "Ġwoke": 7444,
      "onent": 7445,
      "Ġcad": 7446,
      "Ġtoys": 7447,
      "Ġhood": 7448,
      "arity": 7449,
      "Ġintense": 7450,
      "omatic": 7451,
      "leep": 7452,
      "Ġgene": 7453,
      "oted": 7454,
      "threat": 7455,
      "ette": 7456,
      "Ġalice": 7457,
      "ewhere": 7458,
      "ourt": 7459,
      "Ġripped": 7460,
      "Ġchose": 7461,
      "Ġchase": 7462,
      "umed": 7463,
      "Ġkaepernick": 7464,
      "Ġusual": 7465,
      "Ġnewest": 7466,
      "agan": 7467,
      "Ġinterim": 7468,
      "Ġdisorder": 7469,
      "Ġovertur": 7470,
      "Ġcoal": 7471,
      "orders": 7472,
      "Ġjustices": 7473,
      "Ġshowc": 7474,
      "amps": 7475,
      "ples": 7476,
      "plus": 7477,
      "rators": 7478,
      "Ġ54": 7479,
      "author": 7480,
      "Ġ42": 7481,
      "Ġdifferently": 7482,
      "ahn": 7483,
      "Ġpasses": 7484,
      "Ġadvent": 7485,
      "Ġsmell": 7486,
      "Ġ195": 7487,
      "Ġcandy": 7488,
      "Ġtalent": 7489,
      "Ġspecies": 7490,
      "Ġ700": 7491,
      "Ġexpecting": 7492,
      "Ġpossession": 7493,
      "Ġapprove": 7494,
      "Ġcollecting": 7495,
      "Ġmatters": 7496,
      "Ġidentities": 7497,
      "Ġburgl": 7498,
      "Ġtrained": 7499,
      "axios": 7500,
      "sonaro": 7501,
      "Ġattendance": 7502,
      "Ġchallenged": 7503,
      "Ġ2005": 7504,
      "Ġarrange": 7505,
      "Ġalleges": 7506,
      "Ġcertification": 7507,
      "Ġaccountability": 7508,
      "Ġselfie": 7509,
      "Ġauto": 7510,
      "Ġoutbreaks": 7511,
      "Ġfluent": 7512,
      "Ġvolunt": 7513,
      "Ġboxes": 7514,
      "Ġwalker": 7515,
      "Ġeffectively": 7516,
      "Ġdelays": 7517,
      "Ġpaperwork": 7518,
      "Ġmedication": 7519,
      "Ġspotlight": 7520,
      "holders": 7521,
      "101": 7522,
      "Ġadvisory": 7523,
      "Ġfears": 7524,
      "Ġtrafficking": 7525,
      "Ġlifted": 7526,
      "Ġbombs": 7527,
      "Ġkicked": 7528,
      "Ġsuffer": 7529,
      "Ġexpanded": 7530,
      "Ġretailers": 7531,
      "Ġanalysts": 7532,
      "Ġmaterial": 7533,
      "Ġiconic": 7534,
      "Ġstreng": 7535,
      "Ġdevastating": 7536,
      "Ġguests": 7537,
      "Ġcopy": 7538,
      "Ġpuppies": 7539,
      "Ġreflect": 7540,
      "mcdonald": 7541,
      "Ġocasio": 7542,
      "Ġtrauma": 7543,
      "Ġrenca": 7544,
      "Ġdisagre": 7545,
      "Ġsustained": 7546,
      "Ġassembly": 7547,
      "students": 7548,
      "Ġlength": 7549,
      "Ġlibrary": 7550,
      "Ġsatisf": 7551,
      "Ġscholars": 7552,
      "Ġdiabetes": 7553,
      "150": 7554,
      "70": 7555,
      "best": 7556,
      "count": 7557,
      "gar": 7558,
      "million": 7559,
      "mits": 7560,
      "pare": 7561,
      "top": 7562,
      "va": 7563,
      "would": 7564,
      "wau": 7565,
      "Ġeric": 7566,
      "Ġtack": 7567,
      "Ġtired": 7568,
      "hea": 7569,
      "Ġcro": 7570,
      "Ġbone": 7571,
      "Ġbull": 7572,
      "Ġpant": 7573,
      "Ġpompeo": 7574,
      "esus": 7575,
      "anne": 7576,
      "Ġol": 7577,
      "Ġomal": 7578,
      "Ġhits": 7579,
      "Ġlands": 7580,
      "omp": 7581,
      "oming": 7582,
      "Ġgate": 7583,
      "Ġgab": 7584,
      "accept": 7585,
      "ola": 7586,
      "thouse": 7587,
      "irts": 7588,
      "utral": 7589,
      "ello": 7590,
      "Ġjet": 7591,
      "Ġray": 7592,
      "Ġraw": 7593,
      "Ġtruth": 7594,
      "Ġkay": 7595,
      "Ġusda": 7596,
      "uded": 7597,
      "Ġabused": 7598,
      "week": 7599,
      "fere": 7600,
      "Ġpreserve": 7601,
      "aven": 7602,
      "Ġamber": 7603,
      "aga": 7604,
      "Ġmanaged": 7605,
      "Ġmanagers": 7606,
      "izations": 7607,
      "aren": 7608,
      "Ġcruc": 7609,
      "anka": 7610,
      "Ġcoda": 7611,
      "Ġcoaches": 7612,
      "Ġcounting": 7613,
      "Ġembr": 7614,
      "Ġstudied": 7615,
      "Ġroof": 7616,
      "Ġscrat": 7617,
      "Ġscoot": 7618,
      "Ġchildhood": 7619,
      "Ġinclusion": 7620,
      "Ġthrown": 7621,
      "Ġinterpreted": 7622,
      "Ġlasted": 7623,
      "Ġstrange": 7624,
      "Ġstranded": 7625,
      "remont": 7626,
      "bean": 7627,
      "Ġindo": 7628,
      "signs": 7629,
      "Ġ67": 7630,
      "Ġprotocol": 7631,
      "ucker": 7632,
      "Ġtalented": 7633,
      "Ġparked": 7634,
      "Ġinstance": 7635,
      "Ġinstruction": 7636,
      "phy": 7637,
      "Ġretire": 7638,
      "Ġcontribute": 7639,
      "shirt": 7640,
      "Ġidentification": 7641,
      "Ġsubst": 7642,
      "ologist": 7643,
      "Ġsouthwest": 7644,
      "Ġstreamed": 7645,
      "Ġengage": 7646,
      "Ġ2007": 7647,
      "Ġprofit": 7648,
      "Ġprofile": 7649,
      "Ġmulti": 7650,
      "Ġrecognizes": 7651,
      "Ġstealing": 7652,
      "Ġcomplicated": 7653,
      "Ġpicking": 7654,
      "Ġlanding": 7655,
      "Ġassaulted": 7656,
      "Ġlined": 7657,
      "arrass": 7658,
      "reaming": 7659,
      "Ġclinic": 7660,
      "Ġ1990": 7661,
      "Ġphilipp": 7662,
      "Ġtargeting": 7663,
      "ullying": 7664,
      "Ġscientist": 7665,
      "Ġnominated": 7666,
      "Ġpoison": 7667,
      "Ġcitizenship": 7668,
      "Ġtitled": 7669,
      "Ġkingdom": 7670,
      "Ġathletic": 7671,
      "Ġphotography": 7672,
      "Ġcapable": 7673,
      "secondly": 7674,
      "Ġtrustees": 7675,
      "Ġoversight": 7676,
      "Ġoversee": 7677,
      "Ġannouncements": 7678,
      "Ġthrowing": 7679,
      "Ġpunish": 7680,
      "Ġknee": 7681,
      "Ġpeaceful": 7682,
      "Ġcombat": 7683,
      "build": 7684,
      "Ġtears": 7685,
      "Ġperspectives": 7686,
      "Ġdigital": 7687,
      "Ġjimmy": 7688,
      "Ġfundraiser": 7689,
      "Ġfinger": 7690,
      "Ġfingers": 7691,
      "republicans": 7692,
      "Ġkneeling": 7693,
      "Ġaccusations": 7694,
      "Ġcowork": 7695,
      "Ġnutrition": 7696,
      "Ġcaucus": 7697,
      "Ġingred": 7698,
      "Ġtampering": 7699,
      "Ġnormally": 7700,
      "Ġincorpor": 7701,
      "Ġsolidarity": 7702,
      "semit": 7703,
      "Ġtulsa": 7704,
      "video": 7705,
      "Ġensuring": 7706,
      "Ġchokehold": 7707,
      "Ġcircumstances": 7708,
      "Ġrallies": 7709,
      "Ġcatholic": 7710,
      "waukee": 7711,
      "Ġomalu": 7712,
      "aire": 7713,
      "cia": 7714,
      "din": 7715,
      "hard": 7716,
      "mult": 7717,
      "nyle": 7718,
      "ties": 7719,
      "uber": 7720,
      "waters": 7721,
      "yer": 7722,
      "Ġessential": 7723,
      "held": 7724,
      "information": 7725,
      "Ġsort": 7726,
      "onia": 7727,
      "Ġcsd": 7728,
      "orable": 7729,
      "Ġbon": 7730,
      "Ġbug": 7731,
      "ito": 7732,
      "Ġinfr": 7733,
      "Ġoffe": 7734,
      "Ġec": 7735,
      "olved": 7736,
      "Ġdeleted": 7737,
      "thru": 7738,
      "Ġwealth": 7739,
      "Ġweigh": 7740,
      "rod": 7741,
      "Ġanton": 7742,
      "stop": 7743,
      "Ġasleep": 7744,
      "andrew": 7745,
      "resents": 7746,
      "Ġtrick": 7747,
      "umes": 7748,
      "Ġsaving": 7749,
      "allow": 7750,
      "Ġexce": 7751,
      "Ġexist": 7752,
      "pta": 7753,
      "qualif": 7754,
      "Ġneutral": 7755,
      "Ġprescription": 7756,
      "agogue": 7757,
      "anging": 7758,
      "tok": 7759,
      "Ġboeing": 7760,
      "Ġschiff": 7761,
      "assy": 7762,
      "blum": 7763,
      "Ġroberts": 7764,
      "ulty": 7765,
      "Ġwatches": 7766,
      "Ġquote": 7767,
      "Ġpreca": 7768,
      "Ġcharles": 7769,
      "Ġrepresents": 7770,
      "Ġcourses": 7771,
      "Ġkillings": 7772,
      "Ġdiscip": 7773,
      "anche": 7774,
      "Ġediting": 7775,
      "Ġlettu": 7776,
      "Ġbreed": 7777,
      "Ġlegs": 7778,
      "Ġtaliban": 7779,
      "Ġexpects": 7780,
      "Ġfaculty": 7781,
      "Ġexpenses": 7782,
      "Ġunderstood": 7783,
      "govern": 7784,
      "Ġfighters": 7785,
      "Ġstream": 7786,
      "Ġmetro": 7787,
      "Ġresulted": 7788,
      "Ġmurdering": 7789,
      "Ġpleas": 7790,
      "Ġinterests": 7791,
      "Ġhotline": 7792,
      "Ġsanctions": 7793,
      "Ġshortage": 7794,
      "iktok": 7795,
      "Ġperformed": 7796,
      "Ġperformers": 7797,
      "Ġfacts": 7798,
      "Ġrequirement": 7799,
      "alyn": 7800,
      "Ġtaxpay": 7801,
      "Ġimmigrant": 7802,
      "Ġarguing": 7803,
      "Ġdefending": 7804,
      "Ġscreening": 7805,
      "Ġwrongdoing": 7806,
      "Ġsnap": 7807,
      "Ġconstantly": 7808,
      "attorney": 7809,
      "loro": 7810,
      "Ġtexts": 7811,
      "Ġclinical": 7812,
      "Ġextension": 7813,
      "Ġresolve": 7814,
      "demean": 7815,
      "Ġproducers": 7816,
      "Ġbedroom": 7817,
      "Ġmisdemean": 7818,
      "Ġinitial": 7819,
      "represent": 7820,
      "Ġdoubt": 7821,
      "Ġsilver": 7822,
      "Ġmicro": 7823,
      "Ġmichelle": 7824,
      "Ġquarantined": 7825,
      "Ġjeffrey": 7826,
      "Ġbalance": 7827,
      "Ġbottles": 7828,
      "Ġquarterback": 7829,
      "democratic": 7830,
      "Ġignored": 7831,
      "Ġsuspic": 7832,
      "Ġacquit": 7833,
      "Ġbleeding": 7834,
      "Ġsensitive": 7835,
      "Ġembarrass": 7836,
      "Ġautomatically": 7837,
      "Ġvacation": 7838,
      "Ġmethod": 7839,
      "Ġhorrible": 7840,
      "Ġcharlotte": 7841,
      "Ġdepending": 7842,
      "Ġdetailed": 7843,
      "Ġalerts": 7844,
      "Ġcontaminated": 7845,
      "Ġqueens": 7846,
      "Ġcreek": 7847,
      "Ġrevenue": 7848,
      "Ġfrozen": 7849,
      "Ġbachel": 7850,
      "Ġdoughnut": 7851,
      "Ġhungry": 7852,
      "Ġjennifer": 7853,
      "Ġconsequ": 7854,
      "protesters": 7855,
      "Ġnashville": 7856,
      "atlanta": 7857,
      "amazon": 7858,
      "Ġrespiratory": 7859,
      "Ġunconstit": 7860,
      "Ġimmunity": 7861,
      "defense": 7862,
      "threatening": 7863,
      "Ġlettuce": 7864,
      "%,": 7865,
      "23": 7866,
      "bally": 7867,
      "cuff": 7868,
      "gom": 7869,
      "maker": 7870,
      "ores": 7871,
      "pence": 7872,
      "van": 7873,
      "Ġ0": 7874,
      "Ġtail": 7875,
      "Ġaim": 7876,
      "Ġaides": 7877,
      "Ġsounds": 7878,
      "Ġwire": 7879,
      "Ġcc": 7880,
      "orian": 7881,
      "Ġtodd": 7882,
      "Ġpour": 7883,
      "Ġdur": 7884,
      "Ġmit": 7885,
      "Ġmun": 7886,
      "Ġhorse": 7887,
      "alo": 7888,
      "almost": 7889,
      "aron": 7890,
      "Ġthailand": 7891,
      "Ġloot": 7892,
      "ilit": 7893,
      "thew": 7894,
      "Ġrejected": 7895,
      "Ġeve": 7896,
      "ige": 7897,
      "Ġvit": 7898,
      "Ġvest": 7899,
      "Ġvence": 7900,
      "Ġrice": 7901,
      "Ġriley": 7902,
      "Ġsees": 7903,
      "Ġchances": 7904,
      "Ġchosen": 7905,
      "Ġshocking": 7906,
      "Ġabdu": 7907,
      "Ġmechan": 7908,
      "Ġplaint": 7909,
      "Ġpros": 7910,
      "Ġoutcome": 7911,
      "Ġoutlets": 7912,
      "abis": 7913,
      "ieving": 7914,
      "lobu": 7915,
      "Ġadorable": 7916,
      "agic": 7917,
      "Ġcrack": 7918,
      "Ġcruel": 7919,
      "Ġunit": 7920,
      "Ġunex": 7921,
      "tee": 7922,
      "Ġbranch": 7923,
      "active": 7924,
      "Ġblocking": 7925,
      "Ġjustin": 7926,
      "ictions": 7927,
      "Ġacted": 7928,
      "Ġstudios": 7929,
      "Ġflorence": 7930,
      "Ġsche": 7931,
      "Ġbackyard": 7932,
      "Ġpersonally": 7933,
      "Ġprepar": 7934,
      "ounced": 7935,
      "Ġindicated": 7936,
      "Ġannouncing": 7937,
      "Ġconsistent": 7938,
      "Ġbillions": 7939,
      "Ġconfidence": 7940,
      "Ġconfusion": 7941,
      "Ġ64": 7942,
      "Ġtransmission": 7943,
      "Ġposing": 7944,
      "Ġlottery": 7945,
      "Ġrestrain": 7946,
      "Ġprovider": 7947,
      "Ġrepresentation": 7948,
      "Ġcollection": 7949,
      "Ġburst": 7950,
      "boy": 7951,
      "Ġengaged": 7952,
      "Ġdetention": 7953,
      "Ġstrongest": 7954,
      "Ġpropose": 7955,
      "Ġtyler": 7956,
      "twenty": 7957,
      "Ġcarolinas": 7958,
      "Ġarraign": 7959,
      "Ġmuslim": 7960,
      "Ġremaining": 7961,
      "Ġdebates": 7962,
      "Ġlegislature": 7963,
      "Ġcameron": 7964,
      "Ġbanning": 7965,
      "Ġassaulting": 7966,
      "Ġmiller": 7967,
      "Ġimprovements": 7968,
      "Ġpurple": 7969,
      "Ġstatistics": 7970,
      "Ġsoldier": 7971,
      "Ġhunt": 7972,
      "Ġcalories": 7973,
      "Ġauthorized": 7974,
      "Ġshoppers": 7975,
      "Ġvoices": 7976,
      "Ġapplicants": 7977,
      "Ġdrawn": 7978,
      "Ġamendments": 7979,
      "Ġdefended": 7980,
      "Ġgerman": 7981,
      "Ġopposite": 7982,
      "Ġearthquakes": 7983,
      "cola": 7984,
      "Ġpromoting": 7985,
      "points": 7986,
      "Ġcoughing": 7987,
      "Ġembassy": 7988,
      "Ġwheelchair": 7989,
      "Ġhidden": 7990,
      "john": 7991,
      "Ġwidely": 7992,
      "Ġepisod": 7993,
      "Ġforgot": 7994,
      "Ġdistributed": 7995,
      "Ġlauren": 7996,
      "Ġsynagogue": 7997,
      "iatric": 7998,
      "Ġfrequently": 7999,
      "Ġdisappointed": 8000,
      "Ġunlikely": 8001,
      "Ġdimarco": 8002,
      "Ġdisinfect": 8003,
      "Ġaggressive": 8004,
      "Ġdebris": 8005,
      "gomery": 8006,
      "lobuchar": 8007,
      "34": 8008,
      "few": 8009,
      "gs": 8010,
      "hon": 8011,
      "iences": 8012,
      "kim": 8013,
      "mu": 8014,
      "mail": 8015,
      "pm": 8016,
      "soc": 8017,
      "tens": 8018,
      "taylor": 8019,
      "ubs": 8020,
      "uits": 8021,
      "zed": 8022,
      "Ġ<": 8023,
      "Ġties": 8024,
      "Ġtight": 8025,
      "Ġtty": 8026,
      "Ġwishes": 8027,
      "Ġcake": 8028,
      "organ": 8029,
      "Ġfol": 8030,
      "Ġbare": 8031,
      "Ġbike": 8032,
      "Ġporn": 8033,
      "Ġpock": 8034,
      "Ġdust": 8035,
      "Ġmm": 8036,
      "Ġmild": 8037,
      "Ġoak": 8038,
      "icial": 8039,
      "Ġlor": 8040,
      "Ġnin": 8041,
      "Ġeli": 8042,
      "acle": 8043,
      "thur": 8044,
      "ira": 8045,
      "illy": 8046,
      "rock": 8047,
      "uters": 8048,
      "Ġvoc": 8049,
      "Ġaspect": 8050,
      "Ġtraged": 8051,
      "Ġtravis": 8052,
      "Ġkh": 8053,
      "Ġexcept": 8054,
      "asters": 8055,
      "quine": 8056,
      "Ġpriest": 8057,
      "Ġneither": 8058,
      "Ġsignal": 8059,
      "Ġcraw": 8060,
      "Ġblow": 8061,
      "aped": 8062,
      "Ġscam": 8063,
      "Ġcorruption": 8064,
      "Ġrepair": 8065,
      "Ġhardest": 8066,
      "comed": 8067,
      "comfort": 8068,
      "Ġcolors": 8069,
      "ounce": 8070,
      "Ġnights": 8071,
      "ahan": 8072,
      "Ġregul": 8073,
      "Ġfinance": 8074,
      "polit": 8075,
      "Ġbreach": 8076,
      "Ġairpl": 8077,
      "Ġdeserve": 8078,
      "Ġinstances": 8079,
      "Ġ72": 8080,
      "Ġwoods": 8081,
      "Ġwinners": 8082,
      "Ġmatches": 8083,
      "Ġmurders": 8084,
      "Ġrefusing": 8085,
      "Ġraid": 8086,
      "ups": 8087,
      "Ġhandcuff": 8088,
      "jects": 8089,
      "Ġimpacts": 8090,
      "Ġpercentage": 8091,
      "Ġbooker": 8092,
      "Ġmusk": 8093,
      "Ġmusical": 8094,
      "Ġresponsibilities": 8095,
      "Ġimproving": 8096,
      "Ġanticip": 8097,
      "Ġbreaks": 8098,
      "Ġcompeting": 8099,
      "Ġwitnessed": 8100,
      "Ġdistricts": 8101,
      "Ġdatab": 8102,
      "Ġdcs": 8103,
      "Ġfigures": 8104,
      "iveness": 8105,
      "Ġpracticing": 8106,
      "Ġrobots": 8107,
      "Ġdestruction": 8108,
      "Ġsnowboard": 8109,
      "Ġdelegate": 8110,
      "Ġfaith": 8111,
      "prior": 8112,
      "Ġcommented": 8113,
      "Ġqualify": 8114,
      "Ġselection": 8115,
      "Ġsurveyed": 8116,
      "Ġmeasles": 8117,
      "Ġfatally": 8118,
      "Ġgenerally": 8119,
      "Ġphysically": 8120,
      "Ġchampion": 8121,
      "Ġcontracted": 8122,
      "Ġinteraction": 8123,
      "Ġvlogs": 8124,
      "Ġevacuations": 8125,
      "Ġindependence": 8126,
      "Ġexpanding": 8127,
      "Ġapproaching": 8128,
      "Ġdefendant": 8129,
      "Ġreactions": 8130,
      "Ġnaturally": 8131,
      "congress": 8132,
      "Ġjapanese": 8133,
      "Ġdispute": 8134,
      "Ġreminder": 8135,
      "Ġintroducing": 8136,
      "Ġtensions": 8137,
      "Ġkobe": 8138,
      "Ġdevastated": 8139,
      "Ġreunited": 8140,
      "Ġescaped": 8141,
      "Ġcomedian": 8142,
      "Ġhanging": 8143,
      "communication": 8144,
      "Ġintentionally": 8145,
      "nasa": 8146,
      "whether": 8147,
      "Ġhighlights": 8148,
      "Ġoverdose": 8149,
      "cuomo": 8150,
      "tomorrow": 8151,
      "Ġacknowledge": 8152,
      "Ġflavors": 8153,
      "Ġsuddenly": 8154,
      "Ġlinguistic": 8155,
      "georgia": 8156,
      "Ġrapidly": 8157,
      "mexico": 8158,
      "Ġcoalition": 8159,
      "acceptable": 8160,
      "loroquine": 8161,
      "Ġunconstitutional": 8162,
      "47": 8163,
      "bon": 8164,
      "cam": 8165,
      "fel": 8166,
      "gy": 8167,
      "gro": 8168,
      "gahn": 8169,
      "hl": 8170,
      "high": 8171,
      "lar": 8172,
      "mus": 8173,
      "note": 8174,
      "rum": 8175,
      "rison": 8176,
      "rams": 8177,
      "sand": 8178,
      "vol": 8179,
      "wfd": 8180,
      "xit": 8181,
      "Ġ@": 8182,
      "Ġtape": 8183,
      "Ġairst": 8184,
      "heimer": 8185,
      "inter": 8186,
      "Ġsons": 8187,
      "era": 8188,
      "erk": 8189,
      "erves": 8190,
      "ora": 8191,
      "orms": 8192,
      "Ġfremont": 8193,
      "Ġpak": 8194,
      "Ġdrew": 8195,
      "Ġms": 8196,
      "Ġmol": 8197,
      "Ġhud": 8198,
      "Ġhide": 8199,
      "Ġhundred": 8200,
      "Ġintr": 8201,
      "astern": 8202,
      "Ġthick": 8203,
      "iches": 8204,
      "Ġlopez": 8205,
      "ento": 8206,
      "Ġstocks": 8207,
      "Ġheight": 8208,
      "osa": 8209,
      "imm": 8210,
      "amation": 8211,
      "Ġwhop": 8212,
      "Ġhaz": 8213,
      "uten": 8214,
      "Ġjam": 8215,
      "Ġjesus": 8216,
      "Ġrash": 8217,
      "Ġrival": 8218,
      "Ġatm": 8219,
      "Ġframe": 8220,
      "Ġseal": 8221,
      "atemal": 8222,
      "Ġtrips": 8223,
      "Ġshif": 8224,
      "unction": 8225,
      "Ġkits": 8226,
      "anted": 8227,
      "Ġorient": 8228,
      "eopard": 8229,
      "Ġexam": 8230,
      "Ġabd": 8231,
      "isters": 8232,
      "Ġallerg": 8233,
      "usts": 8234,
      "Ġbutter": 8235,
      "Ġups": 8236,
      "Ġupload": 8237,
      "ava": 8238,
      "avin": 8239,
      "Ġcouples": 8240,
      "agues": 8241,
      "awa": 8242,
      "Ġschumer": 8243,
      "Ġcompound": 8244,
      "Ġcompens": 8245,
      "Ġblank": 8246,
      "Ġanyway": 8247,
      "Ġperce": 8248,
      "Ġpermit": 8249,
      "anye": 8250,
      "Ġ52": 8251,
      "Ġ57": 8252,
      "ishing": 8253,
      "bra": 8254,
      "brit": 8255,
      "Ġministry": 8256,
      "Ġcampers": 8257,
      "Ġaddiction": 8258,
      "Ġfinals": 8259,
      "lands": 8260,
      "Ġloaded": 8261,
      "azz": 8262,
      "Ġletting": 8263,
      "Ġ62": 8264,
      "Ġtranspare": 8265,
      "Ġlegally": 8266,
      "Ġinstall": 8267,
      "Ġmilk": 8268,
      "Ġmilwaukee": 8269,
      "Ġbarb": 8270,
      "Ġ82": 8271,
      "Ġtweeting": 8272,
      "Ġharvey": 8273,
      "Ġinjust": 8274,
      "Ġrefr": 8275,
      "Ġobtain": 8276,
      "Ġobtained": 8277,
      "Ġviolates": 8278,
      "doors": 8279,
      "Ġstret": 8280,
      "Ġmeteor": 8281,
      "Ġwebsites": 8282,
      "Ġdropping": 8283,
      "Ġ2002": 8284,
      "Ġconviction": 8285,
      "Ġanimated": 8286,
      "Ġdelaware": 8287,
      "Ġremained": 8288,
      "Ġsteel": 8289,
      "Ġ130": 8290,
      "Ġtrend": 8291,
      "Ġfloodwaters": 8292,
      "Ġcriticizing": 8293,
      "Ġselfies": 8294,
      "Ġmentors": 8295,
      "Ġsearched": 8296,
      "Ġprinted": 8297,
      "burger": 8298,
      "Ġlowest": 8299,
      "Ġcancell": 8300,
      "Ġpainted": 8301,
      "Ġera": 8302,
      "attoo": 8303,
      "ncy": 8304,
      "Ġbeauty": 8305,
      "Ġseverely": 8306,
      "Ġreplied": 8307,
      "Ġliqu": 8308,
      "Ġbroadway": 8309,
      "Ġteenagers": 8310,
      "Ġscientific": 8311,
      "Ġathlete": 8312,
      "Ġjumping": 8313,
      "Ġdeclar": 8314,
      "Ġamounts": 8315,
      "Ġpurposes": 8316,
      "Ġcircle": 8317,
      "Ġchecking": 8318,
      "Ġreferring": 8319,
      "Ġpregnancy": 8320,
      "Ġowns": 8321,
      "ttes": 8322,
      "Ġsandwiches": 8323,
      "Ġkoala": 8324,
      "Ġroute": 8325,
      "Ġconstitutional": 8326,
      "Ġreunion": 8327,
      "walmart": 8328,
      "xych": 8329,
      "Ġfeaturing": 8330,
      "Ġsponsors": 8331,
      "Ġramirez": 8332,
      "Ġfundraising": 8333,
      "Ġdominican": 8334,
      "Ġgestures": 8335,
      "Ġtranslation": 8336,
      "Ġelectricity": 8337,
      "Ġduke": 8338,
      "north": 8339,
      "Ġmanufacture": 8340,
      "Ġpipeline": 8341,
      "Ġeggs": 8342,
      "Ġrumors": 8343,
      "Ġpraised": 8344,
      "Ġtrigger": 8345,
      "Ġcabin": 8346,
      "Ġpapers": 8347,
      "Ġmotorcycle": 8348,
      "ummings": 8349,
      "Ġlebanon": 8350,
      "Ġcochlear": 8351,
      "Ġsupervisor": 8352,
      "Ġconsequences": 8353,
      "Ġepisodes": 8354,
      "Ġtransparency": 8355,
      "bas": 8356,
      "dig": 8357,
      "fcc": 8358,
      "girl": 8359,
      "haw": 8360,
      "lash": 8361,
      "mic": 8362,
      "mcc": 8363,
      "public": 8364,
      "pelosi": 8365,
      "sing": 8366,
      "swe": 8367,
      "spec": 8368,
      "ximately": 8369,
      "zheimer": 8370,
      "Ġted": 8371,
      "Ġtel": 8372,
      "Ġtenn": 8373,
      "Ġah": 8374,
      "orah": 8375,
      "Ġbor": 8376,
      "Ġbound": 8377,
      "Ġbases": 8378,
      "itory": 8379,
      "ington": 8380,
      "Ġmoore": 8381,
      "Ġhack": 8382,
      "ascin": 8383,
      "Ġles": 8384,
      "Ġlisa": 8385,
      "Ġnar": 8386,
      "ila": 8387,
      "thet": 8388,
      "theastern": 8389,
      "Ġgown": 8390,
      "Ġgala": 8391,
      "Ġstall": 8392,
      "illing": 8393,
      "Ġwaste": 8394,
      "ewide": 8395,
      "Ġfried": 8396,
      "Ġseized": 8397,
      "Ġtragic": 8398,
      "Ġchart": 8399,
      "estin": 8400,
      "Ġkat": 8401,
      "Ġkpta": 8402,
      "ulum": 8403,
      "ulie": 8404,
      "ivals": 8405,
      "Ġabusing": 8406,
      "ardash": 8407,
      "Ġoutdoor": 8408,
      "Ġpresence": 8409,
      "Ġmanage": 8410,
      "Ġbrad": 8411,
      "Ġbrands": 8412,
      "Ġwhenever": 8413,
      "Ġpartnered": 8414,
      "Ġscr": 8415,
      "Ġscot": 8416,
      "hell": 8417,
      "Ġmedals": 8418,
      "Ġmarie": 8419,
      "Ġcourthouse": 8420,
      "Ġfollowers": 8421,
      "Ġkiller": 8422,
      "ounter": 8423,
      "Ġeditor": 8424,
      "Ġfirearm": 8425,
      "Ġplanet": 8426,
      "Ġbub": 8427,
      "riculum": 8428,
      "Ġexplan": 8429,
      "Ġopenly": 8430,
      "Ġcommitment": 8431,
      "Ġuniversal": 8432,
      "Ġmilest": 8433,
      "flight": 8434,
      "Ġcurriculum": 8435,
      "Ġmatthew": 8436,
      "Ġmural": 8437,
      "Ġthankful": 8438,
      "Ġburgers": 8439,
      "box": 8440,
      "Ġsixth": 8441,
      "Ġsummary": 8442,
      "dsd": 8443,
      "Ġwelfare": 8444,
      "Ġconnections": 8445,
      "Ġintegr": 8446,
      "Ġmidterm": 8447,
      "Ġswitch": 8448,
      "Ġpolitically": 8449,
      "Ġattendees": 8450,
      "Ġlaura": 8451,
      "Ġmaster": 8452,
      "Ġchoosing": 8453,
      "Ġperformances": 8454,
      "Ġbernard": 8455,
      "Ġrobot": 8456,
      "arrhea": 8457,
      "Ġportray": 8458,
      "Ġstatewide": 8459,
      "Ġremoving": 8460,
      "Ġguidance": 8461,
      "Ġgarner": 8462,
      "Ġaccommodate": 8463,
      "Ġbeds": 8464,
      "Ġoccup": 8465,
      "Ġsentencing": 8466,
      "Ġtransported": 8467,
      "Ġsignificantly": 8468,
      "laib": 8469,
      "looking": 8470,
      "Ġbarrier": 8471,
      "Ġincredibly": 8472,
      "Ġjacksonville": 8473,
      "Ġjuan": 8474,
      "Ġdevastation": 8475,
      "Ġcongrat": 8476,
      "Ġsponsor": 8477,
      "Ġbirds": 8478,
      "Ġcontributions": 8479,
      "schools": 8480,
      "Ġchannels": 8481,
      "Ġdiarrhea": 8482,
      "Ġriverside": 8483,
      "Ġfunctional": 8484,
      "family": 8485,
      "Ġchaos": 8486,
      "Ġventilators": 8487,
      "Ġgarden": 8488,
      "wait": 8489,
      "Ġremembered": 8490,
      "Ġdramatic": 8491,
      "Ġepidemic": 8492,
      "Ġstakeholders": 8493,
      "hdadi": 8494,
      "Ġintervene": 8495,
      "Ġjenkins": 8496,
      "Ġhydroxych": 8497,
      "Ġlegend": 8498,
      "Ġcrucial": 8499,
      "Ġphilippines": 8500,
      "semitic": 8501,
      "Ġantonio": 8502,
      "Ġunexpected": 8503,
      "social": 8504,
      "26": 8505,
      "250": 8506,
      "aqu": 8507,
      "bush": 8508,
      "cot": 8509,
      "cul": 8510,
      "eas": 8511,
      "foot": 8512,
      "gment": 8513,
      "gsw": 8514,
      "host": 8515,
      "hundred": 8516,
      "iw": 8517,
      "iated": 8518,
      "jka": 8519,
      "non": 8520,
      "pam": 8521,
      "pop": 8522,
      "rian": 8523,
      "wan": 8524,
      "Ġ,": 8525,
      "Ġ/": 8526,
      "Ġnd": 8527,
      "Ġtab": 8528,
      "Ġtires": 8529,
      "Ġtiktok": 8530,
      "Ġtattoo": 8531,
      "Ġax": 8532,
      "het": 8533,
      "Ġsdsd": 8534,
      "Ġwounds": 8535,
      "Ġtheory": 8536,
      "eria": 8537,
      "oria": 8538,
      "Ġfence": 8539,
      "Ġflex": 8540,
      "Ġfascin": 8541,
      "Ġbones": 8542,
      "Ġbdc": 8543,
      "Ġbaker": 8544,
      "Ġbullying": 8545,
      "italy": 8546,
      "Ġtooth": 8547,
      "Ġpne": 8548,
      "Ġdash": 8549,
      "Ġdgm": 8550,
      "Ġdangers": 8551,
      "Ġobl": 8552,
      "Ġhan": 8553,
      "asite": 8554,
      "Ġthro": 8555,
      "icit": 8556,
      "Ġluc": 8557,
      "Ġlap": 8558,
      "Ġnel": 8559,
      "thent": 8560,
      "Ġgian": 8561,
      "Ġbeard": 8562,
      "Ġbeaches": 8563,
      "Ġforbes": 8564,
      "acist": 8565,
      "igation": 8566,
      "thomas": 8567,
      "Ġweaken": 8568,
      "among": 8569,
      "Ġwhale": 8570,
      "stone": 8571,
      "Ġjac": 8572,
      "Ġjong": 8573,
      "chat": 8574,
      "Ġfruit": 8575,
      "andria": 8576,
      "afe": 8577,
      "Ġtrash": 8578,
      "igned": 8579,
      "Ġnewborn": 8580,
      "Ġweren": 8581,
      "iah": 8582,
      "osta": 8583,
      "Ġgrim": 8584,
      "Ġinterference": 8585,
      "Ġuncle": 8586,
      "Ġunarmed": 8587,
      "Ġclock": 8588,
      "ibution": 8589,
      "ibbean": 8590,
      "Ġcogsw": 8591,
      "bles": 8592,
      "Ġnoon": 8593,
      "Ġemmy": 8594,
      "Ġflavor": 8595,
      "Ġquo": 8596,
      "Ġscor": 8597,
      "Ġphr": 8598,
      "Ġindones": 8599,
      "Ġguatemal": 8600,
      "Ġelector": 8601,
      "tonight": 8602,
      "Ġregions": 8603,
      "Ġminors": 8604,
      "Ġbuzz": 8605,
      "Ġloving": 8606,
      "hips": 8607,
      "Ġwrap": 8608,
      "aleo": 8609,
      "Ġvisits": 8610,
      "Ġfinds": 8611,
      "Ġcurve": 8612,
      "Ġbrook": 8613,
      "Ġapproaches": 8614,
      "share": 8615,
      "sured": 8616,
      "Ġinterviewing": 8617,
      "Ġunderstands": 8618,
      "isma": 8619,
      "Ġviolating": 8620,
      "Ġclassrooms": 8621,
      "frame": 8622,
      "cohen": 8623,
      "contr": 8624,
      "Ġracing": 8625,
      "Ġmidst": 8626,
      "Ġliter": 8627,
      "officer": 8628,
      "Ġ504": 8629,
      "Ġrecognizing": 8630,
      "Ġvaccinated": 8631,
      "Ġtreats": 8632,
      "Ġcollins": 8633,
      "Ġglenn": 8634,
      "Ġautism": 8635,
      "Ġdeceased": 8636,
      "Ġrecommendation": 8637,
      "Ġportion": 8638,
      "Ġstatue": 8639,
      "Ġapplying": 8640,
      "Ġgloves": 8641,
      "Ġjackpot": 8642,
      "Ġvolunteering": 8643,
      "Ġconducting": 8644,
      "udeau": 8645,
      "Ġgenerations": 8646,
      "Ġalexander": 8647,
      "until": 8648,
      "Ġinteracting": 8649,
      "Ġcookie": 8650,
      "Ġcounseling": 8651,
      "Ġfrustrating": 8652,
      "Ġstrategies": 8653,
      "Ġdemonst": 8654,
      "party": 8655,
      "Ġjuven": 8656,
      "Ġantibody": 8657,
      "Ġromney": 8658,
      "Ġ1970": 8659,
      "Ġfishing": 8660,
      "Ġpassionate": 8661,
      "Ġemphasize": 8662,
      "Ġcontributed": 8663,
      "Ġpredicts": 8664,
      "washington": 8665,
      "Ġdemonstration": 8666,
      "Ġcocaine": 8667,
      "Ġsacr": 8668,
      "Ġanalyze": 8669,
      "Ġerupted": 8670,
      "Ġdunn": 8671,
      "Ġinterstate": 8672,
      "Ġlipre": 8673,
      "Ġprivilege": 8674,
      "Ġetc": 8675,
      "Ġultimately": 8676,
      "Ġdismissed": 8677,
      "Ġturkish": 8678,
      "Ġoscar": 8679,
      "Ġdeposit": 8680,
      "Ġcyclone": 8681,
      "Ġastronauts": 8682,
      "Ġnarrow": 8683,
      "Ġyeah": 8684,
      "Ġexcessive": 8685,
      "Ġrecreational": 8686,
      "Ġadventure": 8687,
      "qualified": 8688,
      "Ġplaintiffs": 8689,
      "Ġlori": 8690,
      "Ġdeclaration": 8691,
      "Ġhydroxychloroquine": 8692,
      "Ġpneum": 8693,
      "Ġnelson": 8694,
      "Ġcogswell": 8695,
      "Ġbrooklyn": 8696,
      ".'": 8697,
      "21": 8698,
      "27": 8699,
      "3101": 8700,
      "avery": 8701,
      "bow": 8702,
      "big": 8703,
      "bul": 8704,
      "bag": 8705,
      "bacc": 8706,
      "bbc": 8707,
      "die": 8708,
      "gging": 8709,
      "jay": 8710,
      "lad": 8711,
      "lopez": 8712,
      "nine": 8713,
      "nothing": 8714,
      "pack": 8715,
      "rad": 8716,
      "rich": 8717,
      "try": 8718,
      "uardo": 8719,
      "vo": 8720,
      "wall": 8721,
      "yles": 8722,
      "Ġaer": 8723,
      "ining": 8724,
      "inent": 8725,
      "inary": 8726,
      "instein": 8727,
      "reth": 8728,
      "Ġsore": 8729,
      "Ġwy": 8730,
      "onto": 8731,
      "Ġces": 8732,
      "Ġcute": 8733,
      "itement": 8734,
      "Ġdent": 8735,
      "Ġmud": 8736,
      "esville": 8737,
      "arus": 8738,
      "icent": 8739,
      "Ġlift": 8740,
      "iliate": 8741,
      "omers": 8742,
      "aya": 8743,
      "Ġreed": 8744,
      "Ġreass": 8745,
      "Ġyard": 8746,
      "Ġbees": 8747,
      "Ġbelo": 8748,
      "Ġeb": 8749,
      "acles": 8750,
      "acular": 8751,
      "oting": 8752,
      "Ġheated": 8753,
      "Ġdean": 8754,
      "imb": 8755,
      "imid": 8756,
      "ami": 8757,
      "etch": 8758,
      "etown": 8759,
      "step": 8760,
      "Ġvp": 8761,
      "Ġasia": 8762,
      "chron": 8763,
      "Ġseiz": 8764,
      "Ġiep": 8765,
      "Ġklobuchar": 8766,
      "ocr": 8767,
      "ocum": 8768,
      "emerg": 8769,
      "Ġnotified": 8770,
      "ivan": 8771,
      "ivir": 8772,
      "Ġabbott": 8773,
      "Ġ120": 8774,
      "Ġworship": 8775,
      "Ġbystand": 8776,
      "Ġplains": 8777,
      "Ġoffenses": 8778,
      "Ġsignatures": 8779,
      "Ġresidence": 8780,
      "Ġpressured": 8781,
      "izar": 8782,
      "izers": 8783,
      "Ġteens": 8784,
      "Ġgrants": 8785,
      "Ġunl": 8786,
      "Ġunsure": 8787,
      "Ġunacceptable": 8788,
      "Ġshed": 8789,
      "ucc": 8790,
      "Ġwanting": 8791,
      "away": 8792,
      "Ġrecip": 8793,
      "Ġbless": 8794,
      "Ġblaze": 8795,
      "Ġinviting": 8796,
      "Ġnoose": 8797,
      "Ġwatts": 8798,
      "Ġscandal": 8799,
      "Ġbacklash": 8800,
      "Ġhelpful": 8801,
      "Ġmargin": 8802,
      "Ġmarlee": 8803,
      "graded": 8804,
      "Ġcoli": 8805,
      "beat": 8806,
      "bron": 8807,
      "Ġmini": 8808,
      "Ġchef": 8809,
      "Ġadvanced": 8810,
      "Ġloan": 8811,
      "Ġsusan": 8812,
      "Ġ190": 8813,
      "Ġsets": 8814,
      "Ġbrexit": 8815,
      "Ġhospitalizations": 8816,
      "Ġreceives": 8817,
      "Ġsoul": 8818,
      "Ġfacilit": 8819,
      "Ġbarrett": 8820,
      "Ġcurling": 8821,
      "Ġkeeps": 8822,
      "Ġ95": 8823,
      "Ġshotgun": 8824,
      "Ġgenet": 8825,
      "Ġgreatest": 8826,
      "Ġviruses": 8827,
      "Ġidentifying": 8828,
      "Ġauthent": 8829,
      "Ġstaffers": 8830,
      "Ġburisma": 8831,
      "Ġraids": 8832,
      "Ġprotects": 8833,
      "Ġhometown": 8834,
      "Ġcampaigns": 8835,
      "Ġcontacting": 8836,
      "Ġexcitement": 8837,
      "Ġdetain": 8838,
      "Ġimpeached": 8839,
      "Ġbriefly": 8840,
      "Ġmarching": 8841,
      "Ġestate": 8842,
      "Ġdamaging": 8843,
      "Ġ140": 8844,
      "Ġapplaud": 8845,
      "Ġcoverings": 8846,
      "Ġaccounting": 8847,
      "without": 8848,
      "Ġalongside": 8849,
      "Ġsinging": 8850,
      "Ġlimits": 8851,
      "Ġangela": 8852,
      "Ġgrandfather": 8853,
      "ramento": 8854,
      "Ġrainfall": 8855,
      "Ġreasonable": 8856,
      "Ġoperate": 8857,
      "Ġtourists": 8858,
      "Ġurban": 8859,
      "Ġlaunching": 8860,
      "prof": 8861,
      "Ġlatin": 8862,
      "Ġglobe": 8863,
      "Ġreviewed": 8864,
      "Ġ1996": 8865,
      "ography": 8866,
      "Ġruth": 8867,
      "Ġhotels": 8868,
      "Ġreplac": 8869,
      "world": 8870,
      "Ġinflamm": 8871,
      "Ġlosses": 8872,
      "Ġcommonly": 8873,
      "Ġexplosive": 8874,
      "Ġ1980": 8875,
      "Ġbeaten": 8876,
      "Ġsufficient": 8877,
      "guy": 8878,
      "Ġboats": 8879,
      "Ġvirtually": 8880,
      "Ġcooperating": 8881,
      "Ġobserved": 8882,
      "Ġbushfires": 8883,
      "Ġsurvivor": 8884,
      "Ġbolsonaro": 8885,
      "Ġpromoted": 8886,
      "Ġsurrounded": 8887,
      "Ġbobbi": 8888,
      "Ġimplemented": 8889,
      "Ġsmoking": 8890,
      "Ġtower": 8891,
      "Ġpsychology": 8892,
      "Ġnaval": 8893,
      "Ġhonestly": 8894,
      "Ġinstructions": 8895,
      "Ġtasks": 8896,
      "Ġequivalency": 8897,
      "Ġalerted": 8898,
      "Ġmontgomery": 8899,
      "Ġpremie": 8900,
      "Ġguarantee": 8901,
      "called": 8902,
      "Ġdiplom": 8903,
      "Ġgyms": 8904,
      "Ġconcluded": 8905,
      "Ġsettings": 8906,
      "Ġdisappearance": 8907,
      "crete": 8908,
      "Ġresistant": 8909,
      "Ġpatriots": 8910,
      "Ġcannabis": 8911,
      "Ġinnocent": 8912,
      "Ġ737": 8913,
      "Ġheavily": 8914,
      "Ġabandoned": 8915,
      "Ġagriculture": 8916,
      "Ġsanitizer": 8917,
      "Ġawaiting": 8918,
      "Ġsleeves": 8919,
      "daniel": 8920,
      "Ġingredients": 8921,
      "Ġacquitted": 8922,
      "Ġinjustice": 8923,
      "Ġtennis": 8924,
      "Ġelectoral": 8925,
      "Ġpneumonia": 8926,
      "bacco": 8927,
      "90": 8928,
      "bump": 8929,
      "barr": 8930,
      "calif": 8931,
      "doll": 8932,
      "dep": 8933,
      "dale": 8934,
      "eed": 8935,
      "human": 8936,
      "ja": 8937,
      "making": 8938,
      "post": 8939,
      "tre": 8940,
      "vice": 8941,
      "writ": 8942,
      "zos": 8943,
      "zman": 8944,
      "Ġortiz": 8945,
      "Ġtrem": 8946,
      "Ġaims": 8947,
      "Ġwage": 8948,
      "Ġcub": 8949,
      "orth": 8950,
      "attered": 8951,
      "Ġfab": 8952,
      "Ġfame": 8953,
      "Ġfog": 8954,
      "Ġfier": 8955,
      "itled": 8956,
      "Ġtobacco": 8957,
      "Ġpond": 8958,
      "Ġpanc": 8959,
      "Ġposed": 8960,
      "Ġpowers": 8961,
      "Ġhbo": 8962,
      "alle": 8963,
      "Ġlad": 8964,
      "Ġlied": 8965,
      "Ġnap": 8966,
      "Ġrely": 8967,
      "Ġreject": 8968,
      "Ġyog": 8969,
      "Ġgig": 8970,
      "Ġgained": 8971,
      "Ġdement": 8972,
      "Ġweld": 8973,
      "Ġwhom": 8974,
      "Ġwithheld": 8975,
      "Ġhab": 8976,
      "Ġalzheimer": 8977,
      "Ġanswe": 8978,
      "ework": 8979,
      "ewalk": 8980,
      "Ġvary": 8981,
      "Ġrab": 8982,
      "Ġriot": 8983,
      "Ġconcrete": 8984,
      "gered": 8985,
      "Ġshark": 8986,
      "Ġshape": 8987,
      "Ġios": 8988,
      "weight": 8989,
      "quarant": 8990,
      "Ġprisons": 8991,
      "Ġoutdoors": 8992,
      "Ġtwin": 8993,
      "Ġadams": 8994,
      "agious": 8995,
      "izer": 8996,
      "Ġgray": 8997,
      "Ġcried": 8998,
      "Ġclerk": 8999,
      "Ġcontagious": 9000,
      "Ġsomehow": 9001,
      "Ġbooth": 9002,
      "Ġbron": 9003,
      "Ġreck": 9004,
      "olds": 9005,
      "ellite": 9006,
      "Ġdrama": 9007,
      "Ġmarvel": 9008,
      "comp": 9009,
      "Ġtestifying": 9010,
      "Ġimpose": 9011,
      "Ġdiscover": 9012,
      "Ġguys": 9013,
      "Ġminim": 9014,
      "Ġedited": 9015,
      "Ġcamps": 9016,
      "Ġchess": 9017,
      "Ġadvised": 9018,
      "Ġloyal": 9019,
      "Ġconfessed": 9020,
      "Ġ63": 9021,
      "Ġmissions": 9022,
      "ificial": 9023,
      "Ġeducators": 9024,
      "Ġ76": 9025,
      "Ġretreat": 9026,
      "Ġcurfew": 9027,
      "Ġentitled": 9028,
      "Ġcarefully": 9029,
      "Ġmatlin": 9030,
      "Ġgreatly": 9031,
      "Ġcousin": 9032,
      "Ġskull": 9033,
      "Ġviolate": 9034,
      "Ġsubject": 9035,
      "Ġintimid": 9036,
      "ologies": 9037,
      "Ġhopeful": 9038,
      "Ġholmes": 9039,
      "Ġconvince": 9040,
      "Ġbooked": 9041,
      "Ġdistress": 9042,
      "Ġbatter": 9043,
      "Ġpeers": 9044,
      "Ġpengu": 9045,
      "Ġaddresses": 9046,
      "Ġnetworks": 9047,
[...]
